#include "magic_wand_model_data.h"

// We need to keep the data array aligned on some architectures.
#ifdef __has_attribute
#define HAVE_ATTRIBUTE(x) __has_attribute(x)
#else
#define HAVE_ATTRIBUTE(x) 0
#endif
#if HAVE_ATTRIBUTE(aligned) || (defined(__GNUC__) && !defined(__clang__))
#define DATA_ALIGN_ATTRIBUTE __attribute__((aligned(4)))
#else
#define DATA_ALIGN_ATTRIBUTE
#endif

const unsigned char g_magic_wand_model_data[] DATA_ALIGN_ATTRIBUTE = {
  0x1c, 0x00, 0x00, 0x00, 0x54, 0x46, 0x4c, 0x33, 0x14, 0x00, 0x20, 0x00,
  0x04, 0x00, 0x08, 0x00, 0x0c, 0x00, 0x10, 0x00, 0x14, 0x00, 0x00, 0x00,
  0x18, 0x00, 0x1c, 0x00, 0x14, 0x00, 0x00, 0x00, 0x03, 0x00, 0x00, 0x00,
  0x18, 0x00, 0x00, 0x00, 0x2c, 0x00, 0x00, 0x00, 0xd8, 0x00, 0x00, 0x00,
  0x2c, 0x00, 0x00, 0x00, 0x80, 0x00, 0x00, 0x00, 0x78, 0x00, 0x00, 0x00,
  0x05, 0x00, 0x00, 0x00, 0x28, 0x07, 0x00, 0x00, 0x44, 0x06, 0x00, 0x00,
  0xbc, 0x03, 0x00, 0x00, 0xf8, 0x02, 0x00, 0x00, 0xac, 0x01, 0x00, 0x00,
  0x01, 0x00, 0x00, 0x00, 0xd0, 0x00, 0x00, 0x00, 0x14, 0x00, 0x00, 0x00,
  0x20, 0x33, 0x00, 0x00, 0x1c, 0x33, 0x00, 0x00, 0x14, 0x32, 0x00, 0x00,
  0x60, 0x31, 0x00, 0x00, 0xb8, 0x30, 0x00, 0x00, 0x3c, 0x30, 0x00, 0x00,
  0xd0, 0x2f, 0x00, 0x00, 0x80, 0x13, 0x00, 0x00, 0xec, 0x11, 0x00, 0x00,
  0x10, 0x10, 0x00, 0x00, 0xb4, 0x07, 0x00, 0x00, 0xf4, 0x32, 0x00, 0x00,
  0xf0, 0x32, 0x00, 0x00, 0xec, 0x32, 0x00, 0x00, 0xe8, 0x32, 0x00, 0x00,
  0xe4, 0x32, 0x00, 0x00, 0xe0, 0x32, 0x00, 0x00, 0xdc, 0x32, 0x00, 0x00,
  0xd8, 0x32, 0x00, 0x00, 0x3c, 0x00, 0x00, 0x00, 0x00, 0x00, 0x00, 0x00,
  0x01, 0x00, 0x00, 0x00, 0x0c, 0x00, 0x00, 0x00, 0x08, 0x00, 0x0c, 0x00,
  0x04, 0x00, 0x08, 0x00, 0x08, 0x00, 0x00, 0x00, 0x08, 0x00, 0x00, 0x00,
  0x13, 0x00, 0x00, 0x00, 0x13, 0x00, 0x00, 0x00, 0x6d, 0x69, 0x6e, 0x5f,
  0x72, 0x75, 0x6e, 0x74, 0x69, 0x6d, 0x65, 0x5f, 0x76, 0x65, 0x72, 0x73,
  0x69, 0x6f, 0x6e, 0x00, 0x72, 0xce, 0xff, 0xff, 0x04, 0x00, 0x00, 0x00,
  0x10, 0x00, 0x00, 0x00, 0x31, 0x2e, 0x35, 0x2e, 0x30, 0x00, 0x00, 0x00,
  0x00, 0x00, 0x00, 0x00, 0x00, 0x00, 0x00, 0x00, 0x0f, 0x00, 0x00, 0x00,
  0x4d, 0x4c, 0x49, 0x52, 0x20, 0x43, 0x6f, 0x6e, 0x76, 0x65, 0x72, 0x74,
  0x65, 0x64, 0x2e, 0x00, 0x00, 0x00, 0x0e, 0x00, 0x18, 0x00, 0x04, 0x00,
  0x08, 0x00, 0x0c, 0x00, 0x10, 0x00, 0x14, 0x00, 0x0e, 0x00, 0x00, 0x00,
  0x14, 0x00, 0x00, 0x00, 0x5c, 0x00, 0x00, 0x00, 0x60, 0x00, 0x00, 0x00,
  0x64, 0x00, 0x00, 0x00, 0x84, 0x00, 0x00, 0x00, 0x12, 0x00, 0x00, 0x00,
  0xe0, 0x31, 0x00, 0x00, 0x70, 0x31, 0x00, 0x00, 0xcc, 0x30, 0x00, 0x00,
  0x24, 0x30, 0x00, 0x00, 0x7c, 0x2f, 0x00, 0x00, 0x14, 0x2f, 0x00, 0x00,
  0xac, 0x2e, 0x00, 0x00, 0x58, 0x12, 0x00, 0x00, 0xbc, 0x10, 0x00, 0x00,
  0xe0, 0x0e, 0x00, 0x00, 0x0c, 0x06, 0x00, 0x00, 0x28, 0x05, 0x00, 0x00,
  0xe8, 0x03, 0x00, 0x00, 0x3c, 0x03, 0x00, 0x00, 0x98, 0x02, 0x00, 0x00,
  0xd4, 0x01, 0x00, 0x00, 0x10, 0x01, 0x00, 0x00, 0x84, 0x00, 0x00, 0x00,
  0x01, 0x00, 0x00, 0x00, 0x00, 0x00, 0x00, 0x00, 0x01, 0x00, 0x00, 0x00,
  0x11, 0x00, 0x00, 0x00, 0x08, 0x00, 0x00, 0x00, 0x74, 0x05, 0x00, 0x00,
  0x94, 0x04, 0x00, 0x00, 0x78, 0x03, 0x00, 0x00, 0xbc, 0x02, 0x00, 0x00,
  0x30, 0x02, 0x00, 0x00, 0x50, 0x01, 0x00, 0x00, 0xa8, 0x00, 0x00, 0x00,
  0x10, 0x00, 0x00, 0x00, 0x04, 0x00, 0x00, 0x00, 0x6d, 0x61, 0x69, 0x6e,
  0x00, 0x00, 0x00, 0x00, 0x7a, 0xff, 0xff, 0xff, 0x00, 0x00, 0x00, 0x09,
  0x04, 0x00, 0x00, 0x00, 0x1c, 0x00, 0x00, 0x00, 0x10, 0x00, 0x00, 0x00,
  0x04, 0x00, 0x00, 0x00, 0x6e, 0xcf, 0xff, 0xff, 0x00, 0x00, 0x80, 0x3f,
  0x01, 0x00, 0x00, 0x00, 0x11, 0x00, 0x00, 0x00, 0x01, 0x00, 0x00, 0x00,
  0x10, 0x00, 0x00, 0x00, 0xa0, 0xfa, 0xff, 0xff, 0x19, 0x00, 0x00, 0x00,
  0x00, 0x00, 0x00, 0x19, 0x01, 0x00, 0x00, 0x00, 0xfc, 0xce, 0xff, 0xff,
  0x14, 0x00, 0x00, 0x00, 0x12, 0x00, 0x00, 0x00, 0x18, 0x00, 0x00, 0x00,
  0x30, 0x00, 0x00, 0x00, 0x20, 0x00, 0x00, 0x00, 0x02, 0x00, 0x00, 0x00,
  0x01, 0x00, 0x00, 0x00, 0x05, 0x00, 0x00, 0x00, 0x08, 0x00, 0x00, 0x00,
  0x49, 0x64, 0x65, 0x6e, 0x74, 0x69, 0x74, 0x79, 0x00, 0x00, 0x00, 0x00,
  0x02, 0x00, 0x00, 0x00, 0xff, 0xff, 0xff, 0xff, 0x05, 0x00, 0x00, 0x00,
  0xe0, 0xcf, 0xff, 0xff, 0x00, 0x00, 0x0e, 0x00, 0x18, 0x00, 0x08, 0x00,
  0x0c, 0x00, 0x10, 0x00, 0x07, 0x00, 0x14, 0x00, 0x0e, 0x00, 0x00, 0x00,
  0x00, 0x00, 0x00, 0x08, 0x03, 0x00, 0x00, 0x00, 0x18, 0x00, 0x00, 0x00,
  0x0c, 0x00, 0x00, 0x00, 0x04, 0x00, 0x00, 0x00, 0xfc, 0xce, 0xff, 0xff,
  0x01, 0x00, 0x00, 0x00, 0x10, 0x00, 0x00, 0x00, 0x03, 0x00, 0x00, 0x00,
  0x0f, 0x00, 0x00, 0x00, 0x07, 0x00, 0x00, 0x00, 0x04, 0x00, 0x00, 0x00,
  0x84, 0xcf, 0xff, 0xff, 0x14, 0x00, 0x00, 0x00, 0x11, 0x00, 0x00, 0x00,
  0x18, 0x00, 0x00, 0x00, 0x5c, 0x00, 0x00, 0x00, 0x4c, 0x00, 0x00, 0x00,
  0x02, 0x00, 0x00, 0x00, 0x01, 0x00, 0x00, 0x00, 0x05, 0x00, 0x00, 0x00,
  0x34, 0x00, 0x00, 0x00, 0x73, 0x65, 0x71, 0x75, 0x65, 0x6e, 0x74, 0x69,
  0x61, 0x6c, 0x2f, 0x64, 0x65, 0x6e, 0x73, 0x65, 0x5f, 0x31, 0x2f, 0x4d,
  0x61, 0x74, 0x4d, 0x75, 0x6c, 0x3b, 0x73, 0x65, 0x71, 0x75, 0x65, 0x6e,
  0x74, 0x69, 0x61, 0x6c, 0x2f, 0x64, 0x65, 0x6e, 0x73, 0x65, 0x5f, 0x31,
  0x2f, 0x42, 0x69, 0x61, 0x73, 0x41, 0x64, 0x64, 0x00, 0x00, 0x00, 0x00,
  0x02, 0x00, 0x00, 0x00, 0xff, 0xff, 0xff, 0xff, 0x05, 0x00, 0x00, 0x00,
  0x84, 0xcf, 0xff, 0xff, 0xda, 0xfc, 0xff, 0xff, 0x00, 0x00, 0x00, 0x08,
  0x03, 0x00, 0x00, 0x00, 0x24, 0x00, 0x00, 0x00, 0x18, 0x00, 0x00, 0x00,
  0x0c, 0x00, 0x00, 0x00, 0x00, 0x00, 0x06, 0x00, 0x08, 0x00, 0x07, 0x00,
  0x06, 0x00, 0x00, 0x00, 0x00, 0x00, 0x00, 0x01, 0x01, 0x00, 0x00, 0x00,
  0x0f, 0x00, 0x00, 0x00, 0x03, 0x00, 0x00, 0x00, 0x0e, 0x00, 0x00, 0x00,
  0x06, 0x00, 0x00, 0x00, 0x03, 0x00, 0x00, 0x00, 0xe8, 0xfb, 0xff, 0xff,
  0x09, 0x00, 0x00, 0x00, 0x00, 0x00, 0x00, 0x09, 0x01, 0x00, 0x00, 0x00,
  0x44, 0xd0, 0xff, 0xff, 0x14, 0x00, 0x00, 0x00, 0x10, 0x00, 0x00, 0x00,
  0x18, 0x00, 0x00, 0x00, 0x6c, 0x00, 0x00, 0x00, 0x5c, 0x00, 0x00, 0x00,
  0x02, 0x00, 0x00, 0x00, 0x01, 0x00, 0x00, 0x00, 0x10, 0x00, 0x00, 0x00,
  0x46, 0x00, 0x00, 0x00, 0x73, 0x65, 0x71, 0x75, 0x65, 0x6e, 0x74, 0x69,
  0x61, 0x6c, 0x2f, 0x64, 0x65, 0x6e, 0x73, 0x65, 0x2f, 0x4d, 0x61, 0x74,
  0x4d, 0x75, 0x6c, 0x3b, 0x73, 0x65, 0x71, 0x75, 0x65, 0x6e, 0x74, 0x69,
  0x61, 0x6c, 0x2f, 0x64, 0x65, 0x6e, 0x73, 0x65, 0x2f, 0x52, 0x65, 0x6c,
  0x75, 0x3b, 0x73, 0x65, 0x71, 0x75, 0x65, 0x6e, 0x74, 0x69, 0x61, 0x6c,
  0x2f, 0x64, 0x65, 0x6e, 0x73, 0x65, 0x2f, 0x42, 0x69, 0x61, 0x73, 0x41,
  0x64, 0x64, 0x00, 0x00, 0x02, 0x00, 0x00, 0x00, 0xff, 0xff, 0xff, 0xff,
  0x10, 0x00, 0x00, 0x00, 0x64, 0xd1, 0xff, 0xff, 0x00, 0x00, 0x0a, 0x00,
  0x10, 0x00, 0x04, 0x00, 0x08, 0x00, 0x0c, 0x00, 0x0a, 0x00, 0x00, 0x00,
  0x02, 0x00, 0x00, 0x00, 0x10, 0x00, 0x00, 0x00, 0x04, 0x00, 0x00, 0x00,
  0x01, 0x00, 0x00, 0x00, 0x0e, 0x00, 0x00, 0x00, 0x02, 0x00, 0x00, 0x00,
  0x0d, 0x00, 0x00, 0x00, 0x05, 0x00, 0x00, 0x00, 0xa8, 0xfc, 0xff, 0xff,
  0x16, 0x00, 0x00, 0x00, 0x00, 0x00, 0x00, 0x16, 0x01, 0x00, 0x00, 0x00,
  0x04, 0xd1, 0xff, 0xff, 0x14, 0x00, 0x00, 0x00, 0x0f, 0x00, 0x00, 0x00,
  0x18, 0x00, 0x00, 0x00, 0x40, 0x00, 0x00, 0x00, 0x30, 0x00, 0x00, 0x00,
  0x02, 0x00, 0x00, 0x00, 0x01, 0x00, 0x00, 0x00, 0x70, 0x00, 0x00, 0x00,
  0x1a, 0x00, 0x00, 0x00, 0x73, 0x65, 0x71, 0x75, 0x65, 0x6e, 0x74, 0x69,
  0x61, 0x6c, 0x2f, 0x66, 0x6c, 0x61, 0x74, 0x74, 0x65, 0x6e, 0x2f, 0x52,
  0x65, 0x73, 0x68, 0x61, 0x70, 0x65, 0x00, 0x00, 0x02, 0x00, 0x00, 0x00,
  0xff, 0xff, 0xff, 0xff, 0x70, 0x00, 0x00, 0x00, 0xe8, 0xd0, 0xff, 0xff,
  0x3e, 0xfe, 0xff, 0xff, 0x00, 0x00, 0x00, 0x05, 0x01, 0x00, 0x00, 0x00,
  0x38, 0x00, 0x00, 0x00, 0x2c, 0x00, 0x00, 0x00, 0x14, 0x00, 0x00, 0x00,
  0x00, 0x00, 0x0e, 0x00, 0x14, 0x00, 0x00, 0x00, 0x10, 0x00, 0x0c, 0x00,
  0x08, 0x00, 0x04, 0x00, 0x0e, 0x00, 0x00, 0x00, 0x03, 0x00, 0x00, 0x00,
  0x01, 0x00, 0x00, 0x00, 0x03, 0x00, 0x00, 0x00, 0x01, 0x00, 0x00, 0x00,
  0x01, 0x00, 0x00, 0x00, 0x0d, 0x00, 0x00, 0x00, 0x01, 0x00, 0x00, 0x00,
  0x0c, 0x00, 0x00, 0x00, 0xa4, 0xd1, 0xff, 0xff, 0x14, 0x00, 0x00, 0x00,
  0x0e, 0x00, 0x00, 0x00, 0x20, 0x00, 0x00, 0x00, 0x58, 0x00, 0x00, 0x00,
  0x40, 0x00, 0x00, 0x00, 0x04, 0x00, 0x00, 0x00, 0x01, 0x00, 0x00, 0x00,
  0x07, 0x00, 0x00, 0x00, 0x01, 0x00, 0x00, 0x00, 0x10, 0x00, 0x00, 0x00,
  0x22, 0x00, 0x00, 0x00, 0x73, 0x65, 0x71, 0x75, 0x65, 0x6e, 0x74, 0x69,
  0x61, 0x6c, 0x2f, 0x6d, 0x61, 0x78, 0x5f, 0x70, 0x6f, 0x6f, 0x6c, 0x69,
  0x6e, 0x67, 0x32, 0x64, 0x5f, 0x31, 0x2f, 0x4d, 0x61, 0x78, 0x50, 0x6f,
  0x6f, 0x6c, 0x00, 0x00, 0x04, 0x00, 0x00, 0x00, 0xff, 0xff, 0xff, 0xff,
  0x07, 0x00, 0x00, 0x00, 0x01, 0x00, 0x00, 0x00, 0x10, 0x00, 0x00, 0x00,
  0xa0, 0xd1, 0xff, 0xff, 0x1a, 0xfe, 0xff, 0xff, 0x00, 0x00, 0x00, 0x01,
  0x24, 0x00, 0x00, 0x00, 0x18, 0x00, 0x00, 0x00, 0x04, 0x00, 0x00, 0x00,
  0x0c, 0xfe, 0xff, 0xff, 0x01, 0x00, 0x00, 0x00, 0x01, 0x00, 0x00, 0x00,
  0x00, 0x00, 0x00, 0x01, 0x01, 0x00, 0x00, 0x00, 0x0c, 0x00, 0x00, 0x00,
  0x03, 0x00, 0x00, 0x00, 0x0b, 0x00, 0x00, 0x00, 0x09, 0x00, 0x00, 0x00,
  0x02, 0x00, 0x00, 0x00, 0x4c, 0xd2, 0xff, 0xff, 0x14, 0x00, 0x00, 0x00,
  0x0d, 0x00, 0x00, 0x00, 0x20, 0x00, 0x00, 0x00, 0xb8, 0x00, 0x00, 0x00,
  0xa0, 0x00, 0x00, 0x00, 0x04, 0x00, 0x00, 0x00, 0x01, 0x00, 0x00, 0x00,
  0x15, 0x00, 0x00, 0x00, 0x01, 0x00, 0x00, 0x00, 0x10, 0x00, 0x00, 0x00,
  0x83, 0x00, 0x00, 0x00, 0x73, 0x65, 0x71, 0x75, 0x65, 0x6e, 0x74, 0x69,
  0x61, 0x6c, 0x2f, 0x63, 0x6f, 0x6e, 0x76, 0x32, 0x64, 0x5f, 0x31, 0x2f,
  0x52, 0x65, 0x6c, 0x75, 0x3b, 0x73, 0x65, 0x71, 0x75, 0x65, 0x6e, 0x74,
  0x69, 0x61, 0x6c, 0x2f, 0x63, 0x6f, 0x6e, 0x76, 0x32, 0x64, 0x5f, 0x31,
  0x2f, 0x42, 0x69, 0x61, 0x73, 0x41, 0x64, 0x64, 0x3b, 0x73, 0x65, 0x71,
  0x75, 0x65, 0x6e, 0x74, 0x69, 0x61, 0x6c, 0x2f, 0x63, 0x6f, 0x6e, 0x76,
  0x32, 0x64, 0x5f, 0x31, 0x2f, 0x43, 0x6f, 0x6e, 0x76, 0x32, 0x44, 0x3b,
  0x73, 0x65, 0x71, 0x75, 0x65, 0x6e, 0x74, 0x69, 0x61, 0x6c, 0x2f, 0x63,
  0x6f, 0x6e, 0x76, 0x32, 0x64, 0x5f, 0x31, 0x2f, 0x42, 0x69, 0x61, 0x73,
  0x41, 0x64, 0x64, 0x2f, 0x52, 0x65, 0x61, 0x64, 0x56, 0x61, 0x72, 0x69,
  0x61, 0x62, 0x6c, 0x65, 0x4f, 0x70, 0x2f, 0x72, 0x65, 0x73, 0x6f, 0x75,
  0x72, 0x63, 0x65, 0x00, 0x04, 0x00, 0x00, 0x00, 0xff, 0xff, 0xff, 0xff,
  0x15, 0x00, 0x00, 0x00, 0x01, 0x00, 0x00, 0x00, 0x10, 0x00, 0x00, 0x00,
  0xb8, 0xd3, 0xff, 0xff, 0x00, 0x00, 0x0e, 0x00, 0x1a, 0x00, 0x08, 0x00,
  0x0c, 0x00, 0x10, 0x00, 0x07, 0x00, 0x14, 0x00, 0x0e, 0x00, 0x00, 0x00,
  0x00, 0x00, 0x00, 0x05, 0x01, 0x00, 0x00, 0x00, 0x3c, 0x00, 0x00, 0x00,
  0x30, 0x00, 0x00, 0x00, 0x14, 0x00, 0x00, 0x00, 0x00, 0x00, 0x0e, 0x00,
  0x18, 0x00, 0x17, 0x00, 0x10, 0x00, 0x0c, 0x00, 0x08, 0x00, 0x04, 0x00,
  0x0e, 0x00, 0x00, 0x00, 0x03, 0x00, 0x00, 0x00, 0x03, 0x00, 0x00, 0x00,
  0x03, 0x00, 0x00, 0x00, 0x03, 0x00, 0x00, 0x00, 0x00, 0x00, 0x00, 0x01,
  0x01, 0x00, 0x00, 0x00, 0x0b, 0x00, 0x00, 0x00, 0x01, 0x00, 0x00, 0x00,
  0x0a, 0x00, 0x00, 0x00, 0x2c, 0xff, 0xff, 0xff, 0x11, 0x00, 0x00, 0x00,
  0x00, 0x00, 0x00, 0x11, 0x01, 0x00, 0x00, 0x00, 0x88, 0xd3, 0xff, 0xff,
  0x14, 0x00, 0x00, 0x00, 0x0c, 0x00, 0x00, 0x00, 0x20, 0x00, 0x00, 0x00,
  0x58, 0x00, 0x00, 0x00, 0x40, 0x00, 0x00, 0x00, 0x04, 0x00, 0x00, 0x00,
  0x01, 0x00, 0x00, 0x00, 0x15, 0x00, 0x00, 0x00, 0x01, 0x00, 0x00, 0x00,
  0x08, 0x00, 0x00, 0x00, 0x20, 0x00, 0x00, 0x00, 0x73, 0x65, 0x71, 0x75,
  0x65, 0x6e, 0x74, 0x69, 0x61, 0x6c, 0x2f, 0x6d, 0x61, 0x78, 0x5f, 0x70,
  0x6f, 0x6f, 0x6c, 0x69, 0x6e, 0x67, 0x32, 0x64, 0x2f, 0x4d, 0x61, 0x78,
  0x50, 0x6f, 0x6f, 0x6c, 0x00, 0x00, 0x00, 0x00, 0x04, 0x00, 0x00, 0x00,
  0xff, 0xff, 0xff, 0xff, 0x15, 0x00, 0x00, 0x00, 0x01, 0x00, 0x00, 0x00,
  0x08, 0x00, 0x00, 0x00, 0x94, 0xd4, 0xff, 0xff, 0x00, 0x00, 0x0e, 0x00,
  0x14, 0x00, 0x00, 0x00, 0x08, 0x00, 0x0c, 0x00, 0x07, 0x00, 0x10, 0x00,
  0x0e, 0x00, 0x00, 0x00, 0x00, 0x00, 0x00, 0x01, 0x30, 0x00, 0x00, 0x00,
  0x24, 0x00, 0x00, 0x00, 0x10, 0x00, 0x00, 0x00, 0x0c, 0x00, 0x10, 0x00,
  0x00, 0x00, 0x04, 0x00, 0x08, 0x00, 0x0f, 0x00, 0x0c, 0x00, 0x00, 0x00,
  0x01, 0x00, 0x00, 0x00, 0x01, 0x00, 0x00, 0x00, 0x00, 0x00, 0x00, 0x01,
  0x01, 0x00, 0x00, 0x00, 0x0a, 0x00, 0x00, 0x00, 0x03, 0x00, 0x00, 0x00,
  0x00, 0x00, 0x00, 0x00, 0x08, 0x00, 0x00, 0x00, 0x01, 0x00, 0x00, 0x00,
  0x0c, 0x00, 0x10, 0x00, 0x0b, 0x00, 0x00, 0x00, 0x0c, 0x00, 0x04, 0x00,
  0x0c, 0x00, 0x00, 0x00, 0x03, 0x00, 0x00, 0x00, 0x00, 0x00, 0x00, 0x03,
  0x01, 0x00, 0x00, 0x00, 0x68, 0xd4, 0xff, 0xff, 0x14, 0x00, 0x00, 0x00,
  0x0b, 0x00, 0x00, 0x00, 0x20, 0x00, 0x00, 0x00, 0xb0, 0x00, 0x00, 0x00,
  0x98, 0x00, 0x00, 0x00, 0x04, 0x00, 0x00, 0x00, 0x01, 0x00, 0x00, 0x00,
  0x40, 0x00, 0x00, 0x00, 0x03, 0x00, 0x00, 0x00, 0x08, 0x00, 0x00, 0x00,
  0x7b, 0x00, 0x00, 0x00, 0x73, 0x65, 0x71, 0x75, 0x65, 0x6e, 0x74, 0x69,
  0x61, 0x6c, 0x2f, 0x63, 0x6f, 0x6e, 0x76, 0x32, 0x64, 0x2f, 0x52, 0x65,
  0x6c, 0x75, 0x3b, 0x73, 0x65, 0x71, 0x75, 0x65, 0x6e, 0x74, 0x69, 0x61,
  0x6c, 0x2f, 0x63, 0x6f, 0x6e, 0x76, 0x32, 0x64, 0x2f, 0x42, 0x69, 0x61,
  0x73, 0x41, 0x64, 0x64, 0x3b, 0x73, 0x65, 0x71, 0x75, 0x65, 0x6e, 0x74,
  0x69, 0x61, 0x6c, 0x2f, 0x63, 0x6f, 0x6e, 0x76, 0x32, 0x64, 0x2f, 0x43,
  0x6f, 0x6e, 0x76, 0x32, 0x44, 0x3b, 0x73, 0x65, 0x71, 0x75, 0x65, 0x6e,
  0x74, 0x69, 0x61, 0x6c, 0x2f, 0x63, 0x6f, 0x6e, 0x76, 0x32, 0x64, 0x2f,
  0x42, 0x69, 0x61, 0x73, 0x41, 0x64, 0x64, 0x2f, 0x52, 0x65, 0x61, 0x64,
  0x56, 0x61, 0x72, 0x69, 0x61, 0x62, 0x6c, 0x65, 0x4f, 0x70, 0x2f, 0x72,
  0x65, 0x73, 0x6f, 0x75, 0x72, 0x63, 0x65, 0x00, 0x04, 0x00, 0x00, 0x00,
  0xff, 0xff, 0xff, 0xff, 0x40, 0x00, 0x00, 0x00, 0x03, 0x00, 0x00, 0x00,
  0x08, 0x00, 0x00, 0x00, 0xbc, 0xd4, 0xff, 0xff, 0xc6, 0xd5, 0xff, 0xff,
  0x04, 0x00, 0x00, 0x00, 0x00, 0x08, 0x00, 0x00, 0x6f, 0xd0, 0x82, 0xbe,
  0xd8, 0x93, 0xf2, 0xbd, 0x65, 0x2c, 0x14, 0xbe, 0x01, 0x35, 0x2b, 0xbe,
  0xa9, 0x3a, 0x0d, 0x3e, 0x26, 0xab, 0x2d, 0xbe, 0x26, 0x09, 0x3e, 0x3e,
  0xcd, 0xf9, 0xca, 0xbe, 0xbf, 0x82, 0x7a, 0x3e, 0xd7, 0x2b, 0x85, 0xbd,
  0x4c, 0xa1, 0xd4, 0xbd, 0xc5, 0x2c, 0x82, 0x3d, 0x33, 0x99, 0x4c, 0xbe,
  0x98, 0x0e, 0x46, 0x3e, 0x15, 0x15, 0xe6, 0xbd, 0xe0, 0x53, 0xce, 0xbe,
  0xdc, 0x61, 0x38, 0x3e, 0xee, 0x27, 0x67, 0xbd, 0x5d, 0x7e, 0xe3, 0xbd,
  0x90, 0x90, 0xb8, 0x3b, 0x17, 0xdd, 0x71, 0xbc, 0x1e, 0x79, 0x26, 0x3e,
  0xbf, 0x8a, 0x43, 0xbe, 0xfc, 0x20, 0x98, 0xbe, 0x2e, 0x44, 0xb8, 0xbc,
  0x4a, 0xf0, 0x6a, 0xbd, 0x91, 0x0b, 0x2f, 0x3d, 0x2a, 0xf1, 0xa8, 0xba,
  0xcf, 0x0e, 0x20, 0xbe, 0xcc, 0x82, 0x99, 0xbe, 0xf4, 0xe6, 0x56, 0xbe,
  0xe4, 0x4f, 0x3e, 0xbe, 0x64, 0xd4, 0x3b, 0xbe, 0x1c, 0xce, 0x90, 0x3d,
  0xee, 0x49, 0xa4, 0xbd, 0xba, 0xd1, 0x15, 0x3e, 0x41, 0x30, 0xcc, 0xbd,
  0x9f, 0xc2, 0x14, 0xbe, 0x8d, 0x87, 0xf6, 0xbd, 0xf0, 0x85, 0x00, 0xbf,
  0xd9, 0x9f, 0xf5, 0x3d, 0x53, 0x60, 0x8c, 0xbe, 0x9a, 0xd9, 0x82, 0xbd,
  0x2c, 0x13, 0xfb, 0xbd, 0x3b, 0xfb, 0x4a, 0xbe, 0xce, 0x9b, 0x17, 0xbe,
  0x78, 0xfd, 0x73, 0xbc, 0xd0, 0x2f, 0xeb, 0xbe, 0xba, 0xec, 0x32, 0x3e,
  0x02, 0x2d, 0xb3, 0x3c, 0x92, 0xee, 0x10, 0xbc, 0xba, 0x67, 0x15, 0x3e,
  0x49, 0xfe, 0x6f, 0xbe, 0x34, 0xf7, 0x47, 0x3e, 0xa4, 0x78, 0xa8, 0x3d,
  0x49, 0xfc, 0xd4, 0xbe, 0xd9, 0x99, 0x7c, 0xbd, 0xf9, 0x16, 0xf5, 0x3d,
  0xd7, 0xd0, 0xfa, 0x3c, 0x4c, 0x1b, 0x9a, 0x3d, 0x8d, 0x06, 0x7c, 0xbd,
  0x3f, 0x07, 0xe7, 0xbd, 0xdb, 0xaf, 0x94, 0xbd, 0x4f, 0x3a, 0xb0, 0xbe,
  0xde, 0xaf, 0x04, 0x3f, 0xb6, 0x93, 0xb9, 0xbc, 0x51, 0xda, 0xcb, 0x3e,
  0x4b, 0x5d, 0x53, 0x3d, 0x45, 0x38, 0xa9, 0xbd, 0xc0, 0x3a, 0x0b, 0xbf,
  0x09, 0x5c, 0x04, 0xbf, 0xf2, 0xfd, 0x50, 0xbd, 0xe0, 0x61, 0x12, 0xbe,
  0x32, 0x7f, 0xc3, 0xbd, 0x40, 0x4f, 0x9a, 0xbd, 0x90, 0x6d, 0x12, 0x3e,
  0xbc, 0xdf, 0x32, 0xbe, 0xcd, 0xd3, 0x98, 0xbe, 0x89, 0x89, 0x99, 0xbe,
  0x70, 0x61, 0x54, 0xbd, 0xb9, 0xcc, 0xb8, 0xbb, 0xe5, 0xc1, 0x85, 0xbd,
  0x86, 0xa7, 0xc5, 0xbc, 0x10, 0xc5, 0xed, 0x3d, 0xbf, 0xb4, 0x48, 0xbe,
  0xbf, 0xb5, 0x79, 0xbd, 0xfb, 0x81, 0x83, 0xbe, 0x8d, 0x5f, 0x75, 0x3c,
  0x47, 0x96, 0x43, 0xbe, 0xba, 0xe4, 0x9f, 0xbe, 0xb6, 0x81, 0xc7, 0xbd,
  0x89, 0xaf, 0xd9, 0x3d, 0x97, 0x0c, 0xa9, 0xbe, 0x77, 0xad, 0x21, 0x3e,
  0x49, 0x39, 0x81, 0x3d, 0x95, 0x85, 0x9f, 0x3c, 0x50, 0x30, 0x04, 0x3f,
  0x2b, 0x38, 0xea, 0x3c, 0x85, 0xa4, 0x87, 0xbd, 0xf2, 0x3f, 0xaf, 0xbd,
  0x1a, 0xe5, 0x06, 0xbe, 0x5c, 0xd5, 0x8f, 0xba, 0x63, 0x85, 0x2a, 0xbf,
  0xee, 0x7b, 0x60, 0xbd, 0x08, 0x72, 0x77, 0x3e, 0x4b, 0xb9, 0x63, 0x3c,
  0x85, 0xf4, 0x43, 0x3d, 0xc8, 0xcb, 0x17, 0xbe, 0x09, 0x27, 0xe6, 0xbd,
  0x31, 0x97, 0x68, 0x3c, 0x85, 0xb0, 0xd2, 0xbe, 0x8e, 0xf5, 0x23, 0xbd,
  0x50, 0xff, 0x0a, 0xbd, 0xde, 0xa9, 0x97, 0x3d, 0x10, 0xbe, 0x6f, 0xbd,
  0xcc, 0x64, 0x35, 0xbe, 0x88, 0x55, 0xb8, 0xbd, 0x7e, 0xd1, 0x43, 0x3e,
  0x5d, 0xb4, 0x9f, 0xbe, 0xa1, 0x1a, 0x5a, 0xbd, 0x7b, 0x14, 0x72, 0x3e,
  0x27, 0xe2, 0x0e, 0xbd, 0xcc, 0x87, 0xc3, 0x3d, 0x66, 0x78, 0x2f, 0xbe,
  0x88, 0x58, 0xf2, 0xbd, 0xed, 0x9c, 0xc3, 0x3c, 0x33, 0xe1, 0xfe, 0xbd,
  0xd3, 0x42, 0x2e, 0xbd, 0x04, 0x5c, 0x15, 0xbe, 0x39, 0x47, 0x13, 0xbc,
  0xd0, 0x50, 0x5d, 0x3e, 0x59, 0x00, 0x3a, 0x3e, 0x82, 0x0d, 0x49, 0xbe,
  0xa8, 0x33, 0x07, 0x3e, 0x25, 0x10, 0xe7, 0xbc, 0x73, 0x43, 0x32, 0x3b,
  0x08, 0x57, 0xee, 0xbc, 0xcb, 0xef, 0x50, 0xbe, 0x60, 0x49, 0x18, 0xbd,
  0x13, 0x74, 0x55, 0x3e, 0x85, 0xf1, 0x62, 0xbe, 0x8e, 0xa9, 0x25, 0xbd,
  0xb6, 0x7e, 0x07, 0x3e, 0xcd, 0x6c, 0xf0, 0xbb, 0x9c, 0x6d, 0xd4, 0xbd,
  0x99, 0xbf, 0x9f, 0xbe, 0x51, 0xfa, 0x61, 0xbd, 0xa2, 0xa4, 0x84, 0x3d,
  0x4b, 0xc1, 0x47, 0xbe, 0x44, 0x6f, 0x14, 0x3e, 0x3f, 0x5c, 0x0f, 0xbd,
  0x85, 0xa6, 0xd0, 0x3d, 0x96, 0x6f, 0x16, 0xbe, 0xd3, 0xfd, 0xa6, 0xbe,
  0xf4, 0x5b, 0x9d, 0xbc, 0x44, 0xd3, 0xe8, 0xbd, 0x16, 0x7d, 0x0d, 0xbe,
  0xc4, 0xf8, 0x77, 0x3d, 0xfa, 0x94, 0x16, 0x3d, 0xaa, 0x93, 0xa4, 0x3c,
  0x8a, 0xc6, 0xe9, 0xbd, 0x3d, 0xf9, 0x22, 0xbe, 0xa0, 0xb1, 0x57, 0xbe,
  0x80, 0xf4, 0x1b, 0xbe, 0x68, 0xff, 0x1c, 0x3e, 0x6c, 0x09, 0x56, 0x3d,
  0xf4, 0x35, 0x59, 0xbe, 0xba, 0x63, 0x5e, 0xbd, 0xae, 0x33, 0x2f, 0x3e,
  0x15, 0x4b, 0x70, 0x3c, 0xab, 0x07, 0xa7, 0xbe, 0x57, 0x51, 0x2a, 0xbe,
  0xf1, 0x63, 0x26, 0xbd, 0x9f, 0xd4, 0xf2, 0x3e, 0x5b, 0xc8, 0x6f, 0x3d,
  0x6c, 0x08, 0xd1, 0xbc, 0x3e, 0x26, 0x9f, 0x3c, 0xfc, 0xa9, 0xde, 0x3d,
  0x3d, 0xc5, 0x7f, 0xbe, 0x73, 0xde, 0x63, 0xbe, 0x33, 0xc9, 0x6c, 0xbd,
  0x55, 0xaa, 0xaf, 0xbc, 0x17, 0xc0, 0x1f, 0x3e, 0xd1, 0x0c, 0x6b, 0xbc,
  0xc8, 0xfa, 0x94, 0xbd, 0x10, 0xb8, 0x78, 0x3c, 0xc0, 0xab, 0x14, 0xbe,
  0xd7, 0x10, 0x15, 0xbe, 0x30, 0xa4, 0x2a, 0x3e, 0xee, 0x35, 0xa7, 0x3d,
  0xdc, 0x41, 0x66, 0x3e, 0xcf, 0x5e, 0xee, 0xbc, 0xe1, 0x76, 0x36, 0x3e,
  0x0a, 0xf5, 0xd4, 0xbd, 0x41, 0xe3, 0x1c, 0xbe, 0x89, 0x50, 0x31, 0xbd,
  0x9a, 0x20, 0x7f, 0xbd, 0xb6, 0x0b, 0x17, 0x3e, 0xee, 0x61, 0x98, 0xbd,
  0x1f, 0x4f, 0xf2, 0xbe, 0x54, 0x3f, 0xa4, 0xbe, 0x49, 0xb5, 0x00, 0xbd,
  0x11, 0x5c, 0x53, 0xbd, 0xcd, 0x0a, 0x28, 0x3e, 0x4d, 0x21, 0x35, 0x3e,
  0x3b, 0x3d, 0x23, 0xbd, 0x99, 0xed, 0x5a, 0x3b, 0x82, 0x85, 0xe4, 0xbe,
  0x20, 0x43, 0x6f, 0x3d, 0x07, 0x54, 0xd6, 0xbd, 0x37, 0xf7, 0x28, 0xbd,
  0x31, 0x64, 0xc9, 0xbc, 0x1f, 0xd2, 0x26, 0x3e, 0xa6, 0x4b, 0x35, 0xbe,
  0x7c, 0x61, 0x91, 0x3e, 0xa9, 0xef, 0xcf, 0xbe, 0xdd, 0xe1, 0x3a, 0x3e,
  0xdc, 0xf7, 0x76, 0xbc, 0xa0, 0xba, 0xe0, 0xbc, 0x58, 0x36, 0x86, 0x3d,
  0x5e, 0x81, 0x41, 0xbd, 0x39, 0xaa, 0xda, 0x3d, 0x53, 0x20, 0x4a, 0xbe,
  0xaa, 0xb2, 0x8f, 0xbe, 0x7c, 0x8f, 0x87, 0x3d, 0x57, 0x6b, 0xd3, 0x3c,
  0x5a, 0x3a, 0x9c, 0xbd, 0xdc, 0xa3, 0xba, 0xbe, 0x25, 0x8e, 0x5d, 0xbe,
  0xb4, 0x43, 0x90, 0xbf, 0x32, 0xd3, 0x39, 0xbf, 0xf7, 0x61, 0x14, 0xbe,
  0x6e, 0xcf, 0xb5, 0x3e, 0x75, 0xe2, 0xc8, 0x3d, 0xc5, 0x2b, 0xb6, 0x3e,
  0xbb, 0xcd, 0x5b, 0xbd, 0x27, 0x7b, 0x7a, 0xbe, 0x27, 0x7d, 0x4b, 0xbf,
  0x27, 0xee, 0x19, 0xbf, 0x8d, 0x08, 0xda, 0xbd, 0xcd, 0x8b, 0xd0, 0x3d,
  0xbd, 0x38, 0xfe, 0x3c, 0x83, 0xff, 0xeb, 0x3d, 0x7f, 0x02, 0xc2, 0x3d,
  0x2c, 0xac, 0x81, 0xbe, 0x57, 0x52, 0x8a, 0xbe, 0xb5, 0x3f, 0x83, 0xbe,
  0x44, 0x9e, 0x61, 0xbd, 0xd6, 0x46, 0xc5, 0x3d, 0xd9, 0x8e, 0x96, 0xbc,
  0x3d, 0x07, 0x94, 0xbd, 0xa3, 0x13, 0x3f, 0x3e, 0x6e, 0xb1, 0x85, 0xbe,
  0xd1, 0x39, 0xc8, 0x3d, 0x2f, 0xc9, 0x65, 0x3e, 0x59, 0x60, 0xf5, 0xbc,
  0x47, 0x70, 0x73, 0x3e, 0x02, 0x9e, 0xc7, 0xbd, 0x91, 0x2a, 0x18, 0xbd,
  0x86, 0xfd, 0x0e, 0xbe, 0x8c, 0x27, 0xbc, 0xbd, 0x76, 0x1b, 0x57, 0x3e,
  0x1f, 0x25, 0x21, 0x3e, 0x64, 0xa4, 0x97, 0xbe, 0x1b, 0x58, 0x8a, 0x3c,
  0x5d, 0xec, 0x77, 0x3e, 0x85, 0x78, 0xd5, 0xbd, 0xc0, 0x8d, 0x8f, 0x3e,
  0x0f, 0x27, 0x31, 0x3d, 0x79, 0xad, 0xf1, 0xbd, 0x6c, 0x76, 0x59, 0x3e,
  0xda, 0x5c, 0x87, 0xbe, 0x43, 0xbd, 0x85, 0x3d, 0xc6, 0xac, 0xdb, 0xbd,
  0xdd, 0xc2, 0x1e, 0xbe, 0x50, 0x06, 0x17, 0xbe, 0xfa, 0x84, 0x14, 0x3d,
  0x4d, 0x73, 0x79, 0x3e, 0x5c, 0xff, 0xa4, 0xbd, 0x03, 0x1c, 0x99, 0xbe,
  0x32, 0xc6, 0x6d, 0x3d, 0xf9, 0x43, 0x33, 0x3e, 0xba, 0x14, 0x2b, 0xbe,
  0x61, 0xb5, 0x05, 0xbe, 0x48, 0x4f, 0x97, 0xbd, 0x70, 0xc7, 0x41, 0x3e,
  0x20, 0x5c, 0xea, 0x3d, 0x5b, 0xf5, 0x87, 0xbe, 0x5a, 0xaf, 0xab, 0x3d,
  0xd9, 0x42, 0x34, 0x3d, 0x56, 0x41, 0x76, 0x3b, 0x1a, 0x29, 0x99, 0xbe,
  0x47, 0x72, 0xd5, 0x3d, 0xc2, 0xb1, 0x27, 0xbe, 0xd5, 0x1e, 0xc1, 0x3c,
  0xa8, 0xb0, 0x20, 0x3d, 0x40, 0x96, 0x82, 0xbd, 0x50, 0x73, 0xc3, 0x3e,
  0xfa, 0x82, 0x5a, 0xbd, 0x0f, 0x1f, 0xa3, 0xbe, 0xc6, 0x31, 0x07, 0x3e,
  0x28, 0x3c, 0x16, 0xbe, 0x32, 0xd1, 0x6f, 0xbd, 0x20, 0x61, 0xa5, 0xbb,
  0x2a, 0x96, 0x2b, 0xbe, 0xe3, 0x4c, 0x35, 0xbe, 0x7f, 0xe1, 0x15, 0xbd,
  0x86, 0xda, 0x40, 0xbd, 0x6f, 0x19, 0x7c, 0xbd, 0x27, 0x01, 0x4a, 0xbc,
  0xca, 0xfe, 0x9a, 0x3e, 0xb4, 0x44, 0x3d, 0xbd, 0xcd, 0x5b, 0x53, 0xbe,
  0x41, 0xd6, 0x4a, 0xbe, 0xbf, 0x89, 0xdb, 0xbd, 0xfc, 0x0c, 0xc0, 0x3e,
  0x39, 0x5e, 0x37, 0xbe, 0x03, 0xec, 0xbd, 0x3d, 0x43, 0xe8, 0x01, 0x3d,
  0x64, 0x37, 0x8b, 0xbd, 0x86, 0x06, 0xd7, 0xbe, 0xd5, 0x98, 0x49, 0xbe,
  0xf4, 0xf0, 0x25, 0xbd, 0xf0, 0x3f, 0xd7, 0xbd, 0x6e, 0x3f, 0x90, 0x3a,
  0xeb, 0x2a, 0x8b, 0xbe, 0xca, 0xb0, 0x44, 0xbc, 0x1e, 0xf0, 0xc8, 0x3e,
  0xee, 0x9f, 0x09, 0xbf, 0x60, 0xed, 0x31, 0xbd, 0xcc, 0xe7, 0xec, 0x3b,
  0x1e, 0x05, 0xc4, 0x3d, 0xc8, 0x0a, 0x70, 0xbd, 0x19, 0x51, 0x62, 0xbc,
  0x85, 0x95, 0xc4, 0xbd, 0x19, 0xed, 0x41, 0xbc, 0xf0, 0x63, 0x12, 0xbf,
  0xf7, 0x54, 0x54, 0xbd, 0x1c, 0xe5, 0x36, 0xbc, 0xe3, 0xe7, 0xb2, 0x3d,
  0xb2, 0x9a, 0xd7, 0xbd, 0x27, 0x56, 0xea, 0xbd, 0xc6, 0x1f, 0x61, 0xbe,
  0xf6, 0x3a, 0xc3, 0x3b, 0x30, 0x44, 0x56, 0xbe, 0x1e, 0x6c, 0x8b, 0xbe,
  0x5e, 0xcf, 0xd3, 0xbd, 0x1f, 0xa2, 0x5d, 0xbe, 0x8b, 0x3d, 0xdf, 0xbd,
  0x48, 0xf1, 0x8a, 0xbe, 0x81, 0xd4, 0x0e, 0xbd, 0x1a, 0xf8, 0xe9, 0xbd,
  0xd8, 0xa4, 0x9a, 0xbd, 0x85, 0x3b, 0xf1, 0x3d, 0x9e, 0x67, 0x73, 0x3c,
  0x1f, 0x7c, 0x9e, 0xbe, 0x3c, 0x70, 0x3d, 0xbd, 0x6f, 0xa6, 0x22, 0xbc,
  0xfd, 0xf2, 0x87, 0x3e, 0xc4, 0xb0, 0x0d, 0xbe, 0x9a, 0xb0, 0x4e, 0x3d,
  0xc8, 0x6f, 0xa2, 0x3b, 0x3a, 0x14, 0x40, 0xbd, 0x14, 0x95, 0x94, 0xbe,
  0x62, 0x72, 0x1a, 0xbe, 0xc2, 0x7b, 0x56, 0xbe, 0x0b, 0x91, 0x9d, 0x3c,
  0x7f, 0xc1, 0x50, 0xbd, 0x71, 0x57, 0x88, 0x3d, 0xa1, 0xbd, 0xcd, 0xbd,
  0x62, 0x91, 0x30, 0xbd, 0x60, 0x5b, 0x11, 0xbe, 0x07, 0x8b, 0x80, 0x3e,
  0xd7, 0x26, 0x8d, 0xbc, 0x27, 0xc8, 0xbb, 0x3e, 0x2d, 0x1a, 0x90, 0xbd,
  0x94, 0x35, 0x21, 0xbe, 0x38, 0x66, 0x40, 0xbe, 0x2e, 0x17, 0xd6, 0xbd,
  0xe7, 0x67, 0xda, 0xbd, 0xda, 0x22, 0x91, 0xbd, 0x66, 0xd5, 0xfa, 0xbd,
  0x50, 0x2c, 0xb4, 0xbd, 0x74, 0x80, 0x6d, 0xbe, 0xcb, 0x9f, 0xab, 0xbe,
  0x87, 0x81, 0x0b, 0x3e, 0xbc, 0xcd, 0x15, 0xbd, 0xb5, 0xa1, 0xc3, 0xbe,
  0x62, 0x9f, 0x31, 0xbe, 0x36, 0x33, 0x35, 0x3e, 0xff, 0x74, 0xb2, 0xbc,
  0x4c, 0x42, 0x1a, 0xbe, 0xab, 0xda, 0xa4, 0xbe, 0x5c, 0x30, 0xc2, 0xbd,
  0x13, 0xbd, 0x8e, 0xbe, 0x05, 0xb0, 0x6c, 0xbe, 0x9e, 0x5f, 0x7d, 0xbe,
  0x60, 0x07, 0x05, 0xbe, 0x09, 0x16, 0x37, 0x3e, 0x7c, 0x40, 0xc4, 0xbe,
  0xb6, 0x01, 0xcf, 0xbc, 0x95, 0xbe, 0x9a, 0x3e, 0x8b, 0x46, 0x9c, 0xbe,
  0x2d, 0xdc, 0xbe, 0xbc, 0x79, 0x95, 0xa1, 0xbd, 0x3a, 0x64, 0x7c, 0xbd,
  0xb9, 0xb5, 0x14, 0x3e, 0x4a, 0xf4, 0xc5, 0xbe, 0x24, 0x44, 0xe8, 0xbc,
  0xc2, 0x5f, 0x47, 0x3e, 0x6d, 0x24, 0x3c, 0xbe, 0x24, 0x1e, 0x61, 0xbe,
  0xdb, 0x38, 0x89, 0xbe, 0xf3, 0x82, 0x95, 0x3d, 0xc8, 0x83, 0xea, 0x3d,
  0x31, 0x23, 0x82, 0xbd, 0x75, 0xb7, 0x98, 0xbe, 0x5c, 0x34, 0xdf, 0xbe,
  0xaf, 0xfc, 0x2c, 0xbe, 0xfb, 0xc3, 0xd5, 0xbd, 0xf3, 0xc2, 0x4e, 0xbe,
  0x89, 0x91, 0x93, 0x3e, 0xd6, 0xc5, 0xef, 0x3e, 0x50, 0x43, 0x84, 0xbd,
  0x21, 0xa4, 0x70, 0x3d, 0x08, 0xcb, 0x06, 0xbe, 0x36, 0x8d, 0xab, 0x3c,
  0x93, 0xc7, 0xaf, 0xbd, 0xcf, 0x09, 0xe1, 0xbd, 0x5f, 0x12, 0x9c, 0x3d,
  0x3f, 0xa9, 0x6c, 0xbb, 0x72, 0x29, 0xbc, 0xbc, 0x81, 0xf4, 0x0a, 0x3e,
  0x53, 0xcb, 0xe8, 0xbd, 0xb0, 0xe9, 0xb3, 0xbc, 0x20, 0x53, 0xc9, 0x3d,
  0x0e, 0x9c, 0x54, 0xbd, 0xc0, 0x5b, 0x3f, 0xbd, 0x38, 0xd9, 0xb2, 0xbd,
  0x00, 0xc4, 0x21, 0xbd, 0x53, 0x1b, 0x8f, 0xbd, 0xd4, 0x70, 0xc3, 0xbd,
  0x88, 0xce, 0xed, 0x3e, 0x67, 0x54, 0x85, 0xbe, 0xa4, 0x8e, 0x19, 0xbc,
  0xdf, 0x4c, 0x62, 0xbe, 0xb2, 0x60, 0x87, 0xbe, 0xc0, 0xe8, 0xf7, 0x3b,
  0x32, 0xa4, 0xd2, 0xbd, 0x26, 0x02, 0xd4, 0xbc, 0xf5, 0xa1, 0xc4, 0x3d,
  0xab, 0xd4, 0x75, 0x3d, 0x23, 0xc6, 0x25, 0xbd, 0xfc, 0xb3, 0x08, 0xbe,
  0x82, 0xb7, 0x38, 0xbe, 0xba, 0x07, 0x16, 0xbd, 0xe5, 0x45, 0x10, 0xbd,
  0x93, 0xc1, 0x13, 0xbd, 0x4f, 0x19, 0x3c, 0x3e, 0xa5, 0x9a, 0x13, 0x3f,
  0x02, 0x31, 0x5f, 0x3c, 0xa5, 0x5d, 0x89, 0xbd, 0xd5, 0x10, 0xb0, 0xbd,
  0x61, 0xc4, 0x78, 0x3c, 0x16, 0xfb, 0x27, 0x3d, 0x2c, 0x5e, 0xc7, 0xbd,
  0x89, 0x03, 0x27, 0xbd, 0x26, 0x12, 0xe0, 0xbd, 0xf8, 0x11, 0x3c, 0xbd,
  0x1d, 0xd3, 0x57, 0xbd, 0xd1, 0xe7, 0xa4, 0xbd, 0x0b, 0x9f, 0x13, 0xbd,
  0x30, 0x04, 0x66, 0xbd, 0x89, 0x55, 0x02, 0xbe, 0xe9, 0x9c, 0xa9, 0x3d,
  0xbf, 0x2e, 0x9a, 0x3d, 0xd3, 0x97, 0xa1, 0xbd, 0xfe, 0x54, 0x2d, 0x3d,
  0x85, 0x18, 0x34, 0xbc, 0x5f, 0x6e, 0x2a, 0xbd, 0x98, 0xd0, 0x39, 0xbe,
  0xba, 0x85, 0x6e, 0xbe, 0x11, 0x36, 0x79, 0x3c, 0xbe, 0x17, 0x82, 0xbe,
  0x73, 0xd4, 0x22, 0x3d, 0xd4, 0x43, 0x87, 0xbe, 0x2e, 0x92, 0x6f, 0xbe,
  0x03, 0xfe, 0xb5, 0xbd, 0xb9, 0x7a, 0x4d, 0xbd, 0x8c, 0x9a, 0x84, 0xbe,
  0xe9, 0xcb, 0xa5, 0xbe, 0x49, 0xed, 0x55, 0xbe, 0x9c, 0xa1, 0xaf, 0x3d,
  0x65, 0xf6, 0x3a, 0x3e, 0x76, 0x0b, 0x14, 0x3e, 0x2e, 0x5e, 0x05, 0x3e,
  0x13, 0x6c, 0x8e, 0x3d, 0xce, 0xa8, 0x4c, 0xbe, 0xe1, 0x10, 0x8f, 0xbe,
  0x69, 0x0b, 0x48, 0xbe, 0x50, 0x8b, 0xb2, 0x3c, 0x37, 0xae, 0xb0, 0x3c,
  0x11, 0xdb, 0x2f, 0x3e, 0xb6, 0x67, 0x14, 0x3e, 0x23, 0xc7, 0x06, 0x3d,
  0xde, 0x26, 0x28, 0xbe, 0x2a, 0x26, 0x66, 0xbe, 0x74, 0x87, 0xe9, 0xbd,
  0xde, 0x99, 0x7e, 0xbd, 0x75, 0x7d, 0xc3, 0x3d, 0xa5, 0x22, 0x52, 0x3e,
  0xb1, 0x5f, 0xe0, 0x3d, 0x9e, 0xdd, 0xff, 0xff, 0x10, 0x00, 0x00, 0x00,
  0x0a, 0x00, 0x00, 0x00, 0x1c, 0x00, 0x00, 0x00, 0x38, 0x00, 0x00, 0x00,
  0x04, 0x00, 0x00, 0x00, 0x10, 0x00, 0x00, 0x00, 0x04, 0x00, 0x00, 0x00,
  0x01, 0x00, 0x00, 0x00, 0x08, 0x00, 0x00, 0x00, 0x1a, 0x00, 0x00, 0x00,
  0x73, 0x65, 0x71, 0x75, 0x65, 0x6e, 0x74, 0x69, 0x61, 0x6c, 0x2f, 0x63,
  0x6f, 0x6e, 0x76, 0x32, 0x64, 0x5f, 0x31, 0x2f, 0x43, 0x6f, 0x6e, 0x76,
  0x32, 0x44, 0x00, 0x00, 0x14, 0xdd, 0xff, 0xff, 0x1e, 0xde, 0xff, 0xff,
  0x04, 0x00, 0x00, 0x00, 0x80, 0x01, 0x00, 0x00, 0x6c, 0x2f, 0x80, 0x3e,
  0xde, 0xfa, 0x12, 0xbe, 0x83, 0x90, 0xb0, 0x3c, 0x01, 0x65, 0x7e, 0x3e,
  0x6f, 0x3e, 0x4b, 0x3d, 0xa1, 0x0d, 0x87, 0xbe, 0x5a, 0x55, 0x09, 0x3d,
  0x4a, 0xad, 0x3a, 0x3d, 0x24, 0xb9, 0x83, 0x3d, 0x7f, 0xa6, 0x55, 0xbd,
  0xdd, 0x38, 0x0e, 0xbe, 0x23, 0x0e, 0x65, 0x3c, 0x95, 0xc5, 0x3f, 0x3e,
  0xcc, 0x7f, 0xd9, 0x3d, 0xe3, 0x46, 0x67, 0x3e, 0xaf, 0x52, 0x25, 0x3e,
  0x88, 0x7f, 0xfb, 0xbd, 0x4e, 0x23, 0xb6, 0xbd, 0x78, 0xb6, 0x7c, 0x3e,
  0xe6, 0xdd, 0x73, 0x3e, 0x9e, 0x99, 0xe5, 0xbd, 0xd9, 0x00, 0x03, 0x3e,
  0x75, 0xe1, 0xe8, 0xbd, 0x01, 0x22, 0x0d, 0xbe, 0x82, 0xd2, 0x6b, 0x3e,
  0xa3, 0xf3, 0xe4, 0xbc, 0x0d, 0x8b, 0xe8, 0x3c, 0xd5, 0x4c, 0x8e, 0x3e,
  0xa9, 0x66, 0x28, 0xbd, 0x6a, 0xa9, 0x4b, 0xbc, 0x38, 0x30, 0x21, 0x3e,
  0x82, 0x66, 0xa4, 0x3c, 0x37, 0x9f, 0xd5, 0x3d, 0x50, 0x39, 0x85, 0x3b,
  0x3a, 0xaf, 0xee, 0xbc, 0x99, 0x34, 0x13, 0x3e, 0xc5, 0x3e, 0xbe, 0xbc,
  0x01, 0xfb, 0xce, 0x3c, 0x67, 0xe5, 0xf8, 0xbc, 0x7d, 0x8c, 0xbe, 0x3c,
  0x12, 0x65, 0xb3, 0x3d, 0x2d, 0x06, 0x01, 0xbe, 0xbc, 0xc9, 0x47, 0xbe,
  0xf4, 0xe3, 0x8f, 0x3c, 0x74, 0xc4, 0x25, 0xbe, 0x59, 0x5e, 0xf4, 0x3d,
  0x6f, 0x12, 0x04, 0xbe, 0x52, 0x58, 0x1b, 0xbe, 0x4c, 0xcf, 0xb3, 0x3d,
  0x22, 0x14, 0x75, 0x3c, 0x3d, 0xb0, 0xe7, 0xbd, 0x37, 0xaf, 0x87, 0x3e,
  0x5c, 0x2b, 0x63, 0xbe, 0x9d, 0xb8, 0xab, 0x3d, 0xec, 0xd3, 0xc9, 0xbd,
  0xae, 0x06, 0x48, 0x3e, 0xd4, 0xf6, 0x8d, 0xbd, 0x99, 0xa1, 0x74, 0x3e,
  0x16, 0x8d, 0x69, 0x3e, 0x34, 0xf4, 0xd4, 0xbd, 0x50, 0x0e, 0x31, 0x3d,
  0x2d, 0x2e, 0x7f, 0xbe, 0x8d, 0x23, 0x02, 0x3d, 0x82, 0xed, 0x36, 0xbe,
  0xf3, 0x6b, 0x9e, 0xbe, 0xae, 0x8d, 0x3f, 0xbe, 0xc8, 0x53, 0xec, 0x3d,
  0x42, 0x28, 0xdb, 0x3d, 0x22, 0x28, 0x2a, 0xbe, 0x6a, 0xcb, 0x51, 0x3e,
  0xcf, 0x0e, 0x16, 0x3e, 0xec, 0x9c, 0xb4, 0x3c, 0x1f, 0x1f, 0xb8, 0xbe,
  0x4f, 0x62, 0x86, 0xbd, 0x78, 0x2e, 0x87, 0x3e, 0x66, 0x48, 0x68, 0xbc,
  0xd1, 0xe3, 0x53, 0x3d, 0x51, 0xe2, 0xdd, 0x3c, 0xc2, 0x28, 0x25, 0xbe,
  0xef, 0x84, 0xdc, 0x3c, 0xeb, 0x30, 0x95, 0xbe, 0xc8, 0x74, 0xca, 0x3e,
  0x6d, 0x1c, 0xd0, 0xbd, 0xaa, 0x71, 0x0c, 0xbc, 0xb0, 0x48, 0x0e, 0xbd,
  0xad, 0x47, 0xa2, 0x3d, 0xa6, 0xbc, 0x63, 0x3d, 0x2f, 0x85, 0xc7, 0xbd,
  0x70, 0x13, 0xf3, 0x3d, 0x20, 0xae, 0xc4, 0x3d, 0x41, 0x2a, 0x28, 0xbc,
  0x41, 0xc9, 0x00, 0x3e, 0x04, 0x16, 0xe8, 0x3d, 0x21, 0xb8, 0xfd, 0x3d,
  0xda, 0xa8, 0xc3, 0x3d, 0x6a, 0x24, 0xcb, 0x3d, 0x76, 0xdf, 0xff, 0xff,
  0x10, 0x00, 0x00, 0x00, 0x09, 0x00, 0x00, 0x00, 0x1c, 0x00, 0x00, 0x00,
  0x38, 0x00, 0x00, 0x00, 0x04, 0x00, 0x00, 0x00, 0x08, 0x00, 0x00, 0x00,
  0x04, 0x00, 0x00, 0x00, 0x03, 0x00, 0x00, 0x00, 0x01, 0x00, 0x00, 0x00,
  0x18, 0x00, 0x00, 0x00, 0x73, 0x65, 0x71, 0x75, 0x65, 0x6e, 0x74, 0x69,
  0x61, 0x6c, 0x2f, 0x63, 0x6f, 0x6e, 0x76, 0x32, 0x64, 0x2f, 0x43, 0x6f,
  0x6e, 0x76, 0x32, 0x44, 0x00, 0x00, 0x00, 0x00, 0xec, 0xde, 0xff, 0xff,
  0xf6, 0xdf, 0xff, 0xff, 0x04, 0x00, 0x00, 0x00, 0x40, 0x01, 0x00, 0x00,
  0xe9, 0x1d, 0x92, 0x3e, 0x78, 0xea, 0x45, 0xbd, 0xb3, 0x2c, 0x53, 0x3e,
  0x13, 0xbe, 0xea, 0xbd, 0x04, 0xc0, 0xc2, 0x3c, 0x50, 0x65, 0x10, 0xbe,
  0x5a, 0xb3, 0x8a, 0x3e, 0xdd, 0x55, 0x13, 0xbe, 0x28, 0x19, 0x9a, 0x3d,
  0xcb, 0x13, 0x41, 0x3e, 0xdc, 0x79, 0x43, 0x3e, 0x07, 0xca, 0x10, 0x3b,
  0xd0, 0x5f, 0xb6, 0x3e, 0x0e, 0xad, 0x35, 0xbe, 0xc8, 0xd9, 0x80, 0x3d,
  0x0a, 0x80, 0x41, 0x3c, 0x1b, 0x82, 0x0e, 0x3e, 0x12, 0xf7, 0x4b, 0xbe,
  0x43, 0xc8, 0x52, 0xbe, 0xc6, 0x56, 0x8d, 0xbe, 0x35, 0x7d, 0x05, 0xbf,
  0x38, 0xfd, 0x82, 0xbf, 0x0b, 0xae, 0xce, 0xbf, 0x59, 0xbc, 0x42, 0xbe,
  0x3b, 0x2a, 0x2d, 0xbe, 0x26, 0xf5, 0xe6, 0xbf, 0xec, 0x6f, 0x7d, 0x3d,
  0xd0, 0x54, 0x59, 0xbe, 0x7f, 0x35, 0x66, 0x3e, 0x04, 0x95, 0x7c, 0xbe,
  0xc0, 0xa8, 0x0e, 0xc0, 0x7b, 0xba, 0xf3, 0xbf, 0x8a, 0x6a, 0x8b, 0x3e,
  0x87, 0x16, 0xb3, 0xbd, 0xf9, 0x5f, 0x9c, 0x3d, 0xe5, 0x25, 0x06, 0xbe,
  0x60, 0xaa, 0x14, 0xbd, 0xd9, 0xa4, 0x84, 0xbe, 0x9c, 0x83, 0x36, 0xbf,
  0x32, 0xc4, 0x2d, 0xbe, 0x72, 0x75, 0xb4, 0xbe, 0x0c, 0xdc, 0xea, 0x3d,
  0xed, 0xcb, 0x67, 0x3e, 0x72, 0x2f, 0x09, 0x3e, 0xf9, 0xa3, 0xb9, 0x3e,
  0xe1, 0xea, 0x61, 0xbe, 0x94, 0x28, 0x08, 0xbe, 0x15, 0x13, 0x11, 0xbf,
  0x19, 0x22, 0x4f, 0x3e, 0x03, 0x2c, 0xc7, 0xbd, 0xa0, 0xa0, 0x51, 0xbf,
  0xd1, 0x91, 0x04, 0xbe, 0x57, 0xa1, 0x9a, 0x3c, 0x09, 0xdf, 0x66, 0xbe,
  0xa8, 0x82, 0xcf, 0xbf, 0xf7, 0xb8, 0xe1, 0xbe, 0x2f, 0x68, 0xb2, 0xbe,
  0x97, 0x9e, 0x07, 0x3e, 0xe2, 0xcc, 0x01, 0x3e, 0xa0, 0xfd, 0xb9, 0x3c,
  0x34, 0x43, 0xdc, 0x3e, 0x15, 0xc6, 0x49, 0xbe, 0x43, 0x0a, 0x2e, 0xbf,
  0x87, 0xca, 0x26, 0xbd, 0xe0, 0xd1, 0x8a, 0x3e, 0xad, 0x6c, 0x7b, 0x3b,
  0x5a, 0xa4, 0x71, 0x3e, 0x26, 0xe6, 0xbb, 0xbd, 0x48, 0x8d, 0x73, 0x3c,
  0x06, 0xcc, 0x12, 0xbe, 0x74, 0xcb, 0x8a, 0x3d, 0x47, 0x3a, 0xdc, 0xbd,
  0x2d, 0xc8, 0xc4, 0x3d, 0x93, 0xc1, 0x0d, 0x3e, 0xfe, 0x11, 0x31, 0x3e,
  0x8f, 0xd6, 0x82, 0x3d, 0x29, 0x52, 0xbf, 0x3e, 0x0f, 0xad, 0x0c, 0xbe,
  0x26, 0xbf, 0x13, 0x3d, 0xb5, 0x40, 0xe8, 0xbd, 0x0e, 0xe1, 0xff, 0xff,
  0x10, 0x00, 0x00, 0x00, 0x08, 0x00, 0x00, 0x00, 0x14, 0x00, 0x00, 0x00,
  0x30, 0x00, 0x00, 0x00, 0x02, 0x00, 0x00, 0x00, 0x05, 0x00, 0x00, 0x00,
  0x10, 0x00, 0x00, 0x00, 0x19, 0x00, 0x00, 0x00, 0x73, 0x65, 0x71, 0x75,
  0x65, 0x6e, 0x74, 0x69, 0x61, 0x6c, 0x2f, 0x64, 0x65, 0x6e, 0x73, 0x65,
  0x5f, 0x31, 0x2f, 0x4d, 0x61, 0x74, 0x4d, 0x75, 0x6c, 0x00, 0x00, 0x00,
  0x7c, 0xe0, 0xff, 0xff, 0x86, 0xe1, 0xff, 0xff, 0x04, 0x00, 0x00, 0x00,
  0x00, 0x1c, 0x00, 0x00, 0xb6, 0x2c, 0xe2, 0x3c, 0xec, 0xaa, 0x8b, 0xbe,
  0xd8, 0x38, 0xd2, 0xbd, 0xcf, 0xcb, 0x00, 0xbe, 0x22, 0x13, 0xf2, 0xbd,
  0x56, 0xab, 0xb6, 0x3d, 0x20, 0x7f, 0x12, 0x3e, 0x3d, 0x58, 0x62, 0xbd,
  0x5d, 0x31, 0xfd, 0xbd, 0xed, 0x48, 0x88, 0x3e, 0x59, 0xf2, 0xd6, 0x3c,
  0xba, 0xd4, 0x19, 0xbd, 0xdd, 0x1e, 0x09, 0x3b, 0x5a, 0xc9, 0xcb, 0x3d,
  0x10, 0x4a, 0xe1, 0xbc, 0xc0, 0xb9, 0x35, 0x3d, 0xeb, 0x62, 0x3b, 0xbd,
  0x82, 0xb9, 0x63, 0xbe, 0x65, 0xa5, 0x47, 0xbd, 0x09, 0xa2, 0x19, 0x3d,
  0x9b, 0xcb, 0xf9, 0xbb, 0x21, 0x88, 0x85, 0x3c, 0xfa, 0x6f, 0x34, 0xbe,
  0x76, 0xb8, 0x9b, 0xbc, 0x41, 0x88, 0x83, 0x3d, 0x05, 0x73, 0x7e, 0x3e,
  0xd7, 0x63, 0x84, 0x3d, 0x3d, 0xdd, 0x8d, 0xbd, 0x6a, 0x69, 0x9a, 0x3e,
  0x4c, 0xd3, 0x98, 0xbc, 0x02, 0xc5, 0xd8, 0x3c, 0x19, 0x82, 0xa0, 0x3d,
  0x62, 0x45, 0xf8, 0x3d, 0x1f, 0xa6, 0x3b, 0xbd, 0x7a, 0x42, 0x29, 0xbe,
  0x64, 0x97, 0x24, 0x3c, 0x1a, 0x83, 0x03, 0xbd, 0xff, 0xa5, 0x9a, 0x3d,
  0xb8, 0x6d, 0x44, 0xbe, 0x3b, 0x1b, 0x08, 0xbd, 0x80, 0x25, 0xbb, 0x3d,
  0xeb, 0xb4, 0xc1, 0x3d, 0xa9, 0xbf, 0xb0, 0xbc, 0x3a, 0xc0, 0xd8, 0x3b,
  0x70, 0x0b, 0x68, 0x3e, 0x16, 0xd8, 0x0f, 0xbd, 0x22, 0x74, 0x87, 0x3c,
  0xb1, 0xa7, 0x72, 0x3d, 0x41, 0x86, 0xa8, 0xbd, 0xe8, 0xd2, 0xc2, 0xbb,
  0x70, 0x1f, 0x9e, 0xbd, 0xcb, 0x8b, 0x17, 0x3d, 0x02, 0x51, 0x86, 0xbd,
  0x14, 0x76, 0x3c, 0x3d, 0x47, 0xc9, 0xe6, 0x3d, 0xfe, 0xc6, 0xc8, 0xbc,
  0xfa, 0x2c, 0xeb, 0xbc, 0xf4, 0xa6, 0xa7, 0x3d, 0x2b, 0xee, 0x33, 0x3d,
  0xd8, 0x0e, 0x64, 0x3e, 0x64, 0x25, 0xae, 0x3d, 0x44, 0x7c, 0xc0, 0xbd,
  0x2d, 0x92, 0x1f, 0x3d, 0x59, 0x58, 0xe8, 0x3c, 0xa0, 0x31, 0xe4, 0x3c,
  0x25, 0x7d, 0x43, 0x3e, 0x01, 0x06, 0x44, 0xbd, 0xe7, 0x48, 0x80, 0x3c,
  0x58, 0xd3, 0x6c, 0xbd, 0xa8, 0xf9, 0xec, 0x3a, 0x04, 0x97, 0xd0, 0xbd,
  0x44, 0x75, 0x7b, 0xbd, 0x36, 0xd3, 0x1d, 0x3d, 0xaa, 0x6e, 0x3a, 0xbe,
  0x1f, 0xb8, 0x57, 0x3d, 0x9b, 0xd0, 0x30, 0xbe, 0x2e, 0x53, 0x3b, 0x3e,
  0x2c, 0x58, 0x78, 0xbd, 0xd5, 0x5a, 0x5c, 0x3d, 0x1a, 0xed, 0x98, 0xbb,
  0x9b, 0xbf, 0x48, 0x3d, 0x8c, 0xc4, 0xbc, 0x3c, 0xeb, 0x90, 0x03, 0xbe,
  0x36, 0x2d, 0x18, 0xbd, 0xf5, 0xac, 0x09, 0xbd, 0x82, 0xb3, 0x1e, 0x3d,
  0x33, 0xee, 0xca, 0x3d, 0x07, 0x6a, 0x13, 0xbd, 0x6a, 0x4d, 0xe1, 0xbc,
  0x4b, 0x83, 0xdf, 0xbc, 0x9a, 0x22, 0x72, 0xbd, 0x05, 0x22, 0xbb, 0x3d,
  0xbf, 0xc4, 0x0f, 0x3e, 0xec, 0x79, 0x9e, 0xbd, 0xb9, 0xb6, 0x35, 0x3c,
  0xee, 0x55, 0x4e, 0x3d, 0x3a, 0x25, 0x07, 0x3e, 0x9a, 0xae, 0x97, 0x3c,
  0xdb, 0x3b, 0xdb, 0x3b, 0x73, 0x05, 0x96, 0x3d, 0x12, 0x42, 0x25, 0x3d,
  0xae, 0x52, 0xbc, 0xba, 0xec, 0xcd, 0x85, 0xbd, 0x95, 0x8c, 0x9b, 0xbc,
  0x06, 0xa9, 0x02, 0x3e, 0xf6, 0x90, 0x2c, 0x3e, 0xf4, 0x5a, 0x1c, 0xbd,
  0x5a, 0x82, 0x7b, 0x3b, 0x64, 0x58, 0x73, 0x3d, 0xe9, 0xac, 0x82, 0xbd,
  0xe2, 0x4e, 0xd5, 0x3c, 0xfe, 0x29, 0x77, 0x3d, 0x3a, 0xd5, 0x2d, 0x3e,
  0x44, 0x8d, 0x02, 0x3d, 0x8c, 0x8e, 0xde, 0x3d, 0x57, 0x7f, 0xb5, 0xbd,
  0x3d, 0x16, 0xbb, 0xbe, 0x0c, 0xf1, 0x94, 0xbe, 0xd8, 0x1d, 0x46, 0x3e,
  0x2a, 0x11, 0x00, 0xbe, 0x7c, 0x05, 0x0c, 0x3e, 0x9a, 0xd5, 0x4d, 0xbe,
  0xb7, 0x04, 0x7b, 0x3e, 0xc6, 0xdb, 0x94, 0x3c, 0x60, 0x6e, 0x27, 0xbd,
  0x84, 0x61, 0x78, 0x3b, 0xba, 0xbb, 0x5a, 0xbe, 0x07, 0xec, 0x39, 0xbe,
  0x65, 0xe5, 0x6d, 0x3d, 0x11, 0x68, 0x82, 0x3e, 0xd2, 0x25, 0xaf, 0xbe,
  0xd5, 0x9b, 0xcc, 0xbc, 0xf7, 0x68, 0x28, 0xbe, 0xb1, 0xea, 0xa9, 0xbe,
  0x49, 0x00, 0xb4, 0x3b, 0x18, 0xc5, 0x3d, 0xbe, 0x5a, 0xf1, 0xe3, 0x3d,
  0x23, 0x5e, 0x2c, 0xbe, 0xf6, 0x7a, 0x3b, 0x3e, 0xf7, 0x9b, 0x15, 0x3e,
  0x97, 0xd2, 0xa8, 0xbe, 0x75, 0xf8, 0xa5, 0xbe, 0x24, 0x3e, 0x11, 0xbe,
  0x0c, 0xbc, 0x1d, 0xbd, 0x59, 0x81, 0x15, 0x3e, 0x57, 0xf9, 0xc3, 0xbd,
  0xbf, 0xb4, 0xa4, 0xbd, 0xab, 0x01, 0x50, 0xbd, 0x45, 0x6b, 0x32, 0xbe,
  0xa7, 0x03, 0x96, 0xbe, 0xb1, 0xd1, 0x92, 0x3d, 0x3a, 0x3d, 0xc3, 0xbd,
  0x11, 0x51, 0xc9, 0xbd, 0xd5, 0xe8, 0x1e, 0xbd, 0x9e, 0x65, 0x68, 0x3d,
  0xda, 0xda, 0x0a, 0x3e, 0x21, 0x06, 0x92, 0xbe, 0x09, 0x10, 0x43, 0xbe,
  0xc2, 0x44, 0x34, 0x3c, 0x2e, 0x4a, 0x81, 0xbd, 0x39, 0x0c, 0x4b, 0xbb,
  0x7d, 0x52, 0x70, 0x3e, 0x3f, 0x3d, 0xcd, 0xbe, 0xf2, 0x93, 0x93, 0xbd,
  0x68, 0xf1, 0x1c, 0xbe, 0xfc, 0x71, 0xfc, 0xbd, 0x8a, 0x7e, 0x96, 0x3e,
  0x26, 0x06, 0x08, 0x3c, 0x8b, 0x27, 0xaf, 0x3d, 0x58, 0x0d, 0x44, 0xbd,
  0x76, 0x4f, 0xc0, 0x3d, 0xd2, 0x1a, 0x4d, 0xbe, 0x2e, 0x9c, 0x33, 0xbd,
  0x43, 0xe4, 0xe9, 0xbd, 0x0e, 0x91, 0xce, 0xbd, 0xc0, 0x89, 0x2b, 0xbe,
  0xfd, 0x1a, 0x14, 0x3e, 0x4e, 0xeb, 0xe0, 0x3e, 0x9b, 0x77, 0x22, 0xbc,
  0xae, 0xc6, 0x72, 0xbd, 0xc4, 0xdc, 0x27, 0xbe, 0x26, 0xda, 0xba, 0xbc,
  0x33, 0x5f, 0x88, 0xbd, 0x00, 0x58, 0x8a, 0x3c, 0x53, 0x2e, 0x72, 0x3e,
  0x21, 0x33, 0x40, 0x3e, 0xdb, 0xe0, 0x25, 0x3e, 0xff, 0xda, 0x42, 0x3e,
  0xe2, 0xb1, 0x83, 0xbe, 0xa0, 0x27, 0xbb, 0xbd, 0x51, 0xfc, 0xa7, 0xbd,
  0x88, 0x5d, 0xc4, 0x3d, 0xff, 0xa9, 0x47, 0x3e, 0x99, 0xef, 0x0f, 0x3e,
  0x55, 0xb9, 0xda, 0x3c, 0xec, 0x9c, 0x9a, 0xbe, 0x9f, 0xdb, 0x7d, 0xbc,
  0x9f, 0x37, 0xa0, 0x3b, 0x4d, 0x7e, 0x63, 0x3e, 0x18, 0x10, 0x61, 0x3d,
  0x4f, 0x5e, 0xb9, 0x3c, 0x5f, 0x18, 0x7a, 0x3e, 0x03, 0x87, 0x1e, 0x3e,
  0x08, 0xf7, 0x91, 0x3e, 0xd7, 0x51, 0x0d, 0x3e, 0xb1, 0xab, 0x89, 0xbd,
  0xc7, 0x45, 0x92, 0xbb, 0x5b, 0x2c, 0x4d, 0x3d, 0xf7, 0x8b, 0xc7, 0x3d,
  0xe8, 0x69, 0x15, 0x3e, 0xe2, 0xf6, 0xae, 0xbe, 0x8d, 0xa5, 0xab, 0xbe,
  0xff, 0xc4, 0xe5, 0xbc, 0x6b, 0x60, 0x82, 0xbd, 0xe3, 0xba, 0x05, 0x3e,
  0xbd, 0xd4, 0x66, 0xbe, 0x6f, 0x8f, 0xa6, 0xbc, 0x72, 0xc6, 0x7b, 0xbd,
  0x92, 0x7b, 0x59, 0x3e, 0x48, 0x79, 0x00, 0xba, 0x80, 0x0e, 0x6e, 0xbe,
  0xa0, 0xe7, 0x88, 0x3d, 0x54, 0xd5, 0x9e, 0xbd, 0x22, 0x17, 0x1d, 0xbe,
  0xf7, 0x00, 0xc9, 0x3e, 0xd8, 0x9b, 0x3d, 0x3f, 0xe7, 0xc1, 0xf8, 0xbe,
  0x43, 0xc6, 0x09, 0xbe, 0x3a, 0x0a, 0x26, 0x3d, 0xf8, 0x7e, 0x50, 0x3e,
  0x53, 0x14, 0xba, 0x3c, 0x4f, 0x35, 0x05, 0xbf, 0xec, 0xc4, 0xcd, 0x3e,
  0x74, 0xe0, 0xfd, 0x3d, 0xa8, 0xbb, 0x6f, 0xbd, 0xa6, 0x65, 0x59, 0x3e,
  0x4c, 0x04, 0xfa, 0xbd, 0x68, 0x49, 0x6b, 0xbe, 0x92, 0x13, 0x3f, 0xbd,
  0x5f, 0x84, 0x08, 0xbe, 0x40, 0x76, 0x7e, 0x3e, 0x2b, 0x2b, 0x0e, 0x3f,
  0xc4, 0xfa, 0xa7, 0xbe, 0x7d, 0xef, 0x97, 0x3e, 0xb0, 0xd6, 0x36, 0x3d,
  0x78, 0x0e, 0x34, 0xbc, 0x74, 0xf2, 0xef, 0x3d, 0xfb, 0x17, 0xee, 0xbe,
  0x76, 0x70, 0x20, 0x3e, 0x7f, 0x77, 0x8e, 0xbe, 0xfa, 0xa1, 0x25, 0x3d,
  0xaa, 0xa7, 0x69, 0x3e, 0x7b, 0xa2, 0xb9, 0xbe, 0xf2, 0xf6, 0x2c, 0xbf,
  0x7c, 0x6b, 0xf3, 0xbd, 0xc2, 0xfc, 0x93, 0xbe, 0x16, 0x6e, 0xc1, 0x3e,
  0xc0, 0xd5, 0xc5, 0x3e, 0xa1, 0xba, 0xc1, 0xbe, 0x99, 0x00, 0x4a, 0x3b,
  0x67, 0x2c, 0x71, 0x3d, 0xc6, 0x9b, 0x8c, 0x3d, 0xa2, 0x1a, 0xdf, 0x3d,
  0x56, 0xd7, 0xa0, 0xbe, 0x9a, 0x2f, 0xb1, 0x3c, 0x73, 0xf5, 0x35, 0xbd,
  0x5f, 0x68, 0x01, 0x3d, 0x23, 0x6e, 0x6d, 0x3e, 0x1a, 0x5d, 0x25, 0xbf,
  0x8a, 0x46, 0xda, 0xbe, 0x76, 0x7c, 0xda, 0xbd, 0x14, 0x70, 0x86, 0xbe,
  0x85, 0x77, 0xdd, 0x3d, 0x60, 0x87, 0xf7, 0x3e, 0xe5, 0x84, 0x3a, 0xbe,
  0x69, 0x63, 0x87, 0xbc, 0xe2, 0x0c, 0x95, 0x3a, 0x33, 0xa5, 0xcd, 0x3b,
  0x43, 0x51, 0x08, 0x3e, 0x04, 0x91, 0x8a, 0xbe, 0x48, 0x1e, 0x71, 0x3d,
  0x5b, 0x55, 0x7c, 0xbe, 0x8f, 0xe0, 0xcb, 0xbd, 0x45, 0x4e, 0x52, 0x3e,
  0x98, 0x71, 0xb1, 0xbe, 0x06, 0x90, 0x99, 0xbe, 0x5b, 0xd6, 0x06, 0xbe,
  0x01, 0xf4, 0xfe, 0xbd, 0x27, 0xd7, 0xc5, 0x3e, 0x0b, 0x16, 0x95, 0x3e,
  0x1a, 0xb4, 0x35, 0xbe, 0x21, 0xfd, 0xa4, 0x3b, 0x53, 0x78, 0x4c, 0x3d,
  0x0f, 0x60, 0x16, 0xbc, 0x6f, 0xe8, 0x3d, 0x3e, 0x9d, 0x53, 0xc0, 0xbe,
  0x61, 0x04, 0xf6, 0x3d, 0x7a, 0x95, 0x82, 0xbd, 0xeb, 0xf2, 0x6f, 0xbd,
  0xd1, 0x78, 0x7d, 0x3e, 0xed, 0xf9, 0x9f, 0xbe, 0x91, 0x09, 0xc5, 0xbe,
  0x82, 0x14, 0x18, 0xbe, 0x3f, 0x22, 0x22, 0xbe, 0xf7, 0x94, 0xd3, 0x3e,
  0x35, 0x99, 0xc4, 0x3e, 0x75, 0x6f, 0xbf, 0xbd, 0x09, 0xdf, 0xb4, 0x3c,
  0xb5, 0x47, 0x53, 0x3d, 0x8e, 0x9e, 0xca, 0x3c, 0x97, 0x8c, 0xac, 0x3e,
  0xd0, 0xc1, 0xe7, 0xbe, 0x11, 0xba, 0xec, 0x3c, 0xef, 0x84, 0xce, 0xbe,
  0xd5, 0x88, 0xc5, 0x3e, 0xf6, 0x9e, 0xf3, 0x3e, 0xb9, 0xe6, 0x18, 0xbf,
  0x0e, 0x7d, 0xc4, 0xbe, 0x76, 0x8e, 0x19, 0xbe, 0x54, 0xd4, 0x8c, 0xbe,
  0xa4, 0xaa, 0xb4, 0x3d, 0xf3, 0x38, 0xdd, 0x3e, 0xe8, 0x15, 0x0d, 0xbf,
  0xc3, 0x04, 0xb1, 0x3d, 0x5c, 0xef, 0x23, 0xbc, 0x9e, 0x55, 0x0a, 0x3e,
  0xa2, 0x81, 0x7f, 0x3d, 0x2e, 0x55, 0xd4, 0xbe, 0xf7, 0xa7, 0x9c, 0x3d,
  0xce, 0xdf, 0x5d, 0x3d, 0x00, 0xaf, 0x32, 0xbe, 0x47, 0x9c, 0x9f, 0x3e,
  0x17, 0x12, 0x93, 0xbd, 0xc7, 0x0b, 0x8a, 0xbe, 0xf1, 0xf5, 0x39, 0xbe,
  0xf4, 0x24, 0x4b, 0xbc, 0x2e, 0x36, 0xad, 0x3e, 0xdb, 0x6b, 0xe5, 0x3e,
  0x8d, 0x7c, 0xd9, 0xbd, 0x69, 0x94, 0x76, 0xbd, 0x35, 0x99, 0x59, 0x3d,
  0x95, 0x49, 0x27, 0xbe, 0xdc, 0xc9, 0x7a, 0x3e, 0x78, 0xbb, 0x12, 0xbd,
  0x87, 0x8e, 0x89, 0x3e, 0xa7, 0x1c, 0x56, 0xbe, 0xa8, 0x00, 0x0e, 0x3f,
  0x6f, 0x23, 0xa0, 0x3b, 0x6b, 0x2a, 0x0a, 0xbf, 0x9f, 0x32, 0x07, 0xbb,
  0xe4, 0x86, 0xbb, 0x3d, 0x0a, 0xd3, 0xd5, 0xbe, 0x95, 0x1c, 0x50, 0xbc,
  0x2b, 0x35, 0xaa, 0x3e, 0x23, 0x1b, 0x9d, 0xbd, 0x2d, 0xfc, 0x27, 0x3b,
  0x9f, 0x61, 0x4c, 0xbe, 0x04, 0x6f, 0xab, 0xbd, 0x38, 0x21, 0x9c, 0x3e,
  0x6f, 0x46, 0x09, 0xbe, 0x08, 0xd3, 0x00, 0x3e, 0x2e, 0xfc, 0xab, 0xbe,
  0x64, 0x58, 0xd0, 0x3e, 0x4d, 0xe1, 0x21, 0xbd, 0xb8, 0xb9, 0xb5, 0xbe,
  0xc1, 0xfb, 0x08, 0xbd, 0x56, 0x70, 0xd2, 0x3d, 0xf3, 0x50, 0x55, 0x3c,
  0x52, 0xec, 0x40, 0x3e, 0xab, 0xd3, 0xb6, 0x3e, 0x01, 0x62, 0x6a, 0xbd,
  0x48, 0xfb, 0x79, 0x3d, 0xd8, 0x3d, 0x03, 0xbe, 0x3b, 0xda, 0xf3, 0xbd,
  0x27, 0x75, 0xa0, 0x3e, 0xcb, 0x18, 0xf1, 0xbd, 0xc3, 0x83, 0xec, 0x3d,
  0xca, 0x62, 0x83, 0x3e, 0x35, 0x4b, 0x0b, 0x3e, 0x80, 0x87, 0x1c, 0xbe,
  0xca, 0xc5, 0x08, 0xbf, 0x15, 0xa9, 0x25, 0xbf, 0x7d, 0x44, 0x83, 0xbd,
  0xad, 0x24, 0xfa, 0xbc, 0x4c, 0x84, 0x59, 0x3e, 0x75, 0x8d, 0x60, 0x3e,
  0x81, 0xe3, 0x77, 0xbe, 0x8d, 0xf2, 0x22, 0xbd, 0xcc, 0x7b, 0x00, 0xbe,
  0x8f, 0x5e, 0xf1, 0xbb, 0x3b, 0x45, 0xc1, 0x3e, 0x8d, 0x7e, 0x19, 0xbe,
  0xc0, 0x35, 0x21, 0xbc, 0x2b, 0xd1, 0x5d, 0x3e, 0x59, 0x8b, 0x8b, 0x3d,
  0x81, 0x46, 0xff, 0xbd, 0xfe, 0x28, 0xf7, 0xbe, 0xb8, 0x99, 0x15, 0xbe,
  0x36, 0xad, 0x8a, 0x3c, 0x6c, 0x63, 0x20, 0x3d, 0x14, 0xce, 0x09, 0xbc,
  0x76, 0xe8, 0x27, 0x3f, 0x7a, 0xbf, 0x49, 0xbd, 0x41, 0xa4, 0x59, 0xbd,
  0xbd, 0x37, 0xe3, 0xbd, 0x54, 0x18, 0x62, 0x3b, 0x51, 0x2b, 0x11, 0x3f,
  0x69, 0x8f, 0x01, 0xbe, 0x6b, 0xb1, 0x02, 0xbd, 0xf9, 0x54, 0x96, 0x3e,
  0x4b, 0xfd, 0x5e, 0xbd, 0x3a, 0xc7, 0x3e, 0x3e, 0x42, 0xa9, 0x02, 0xbf,
  0xe6, 0x1f, 0xb3, 0xbe, 0xbd, 0x96, 0x1b, 0xbd, 0x24, 0x2d, 0xbd, 0xba,
  0x70, 0x9b, 0x22, 0x3e, 0x60, 0x24, 0xe0, 0x3e, 0x41, 0x90, 0x3c, 0x3d,
  0x29, 0x1a, 0xa9, 0x3d, 0x57, 0x53, 0x3d, 0x3e, 0xfb, 0xb7, 0x67, 0xba,
  0x28, 0xdd, 0x94, 0x3e, 0x1a, 0xb2, 0xe8, 0xbd, 0xfd, 0x60, 0x0f, 0xb9,
  0x8b, 0x05, 0x6a, 0x3d, 0xc6, 0x25, 0x9c, 0x3d, 0xa7, 0xac, 0x93, 0xbd,
  0x3b, 0x0c, 0x0e, 0xbf, 0xe3, 0x90, 0x8c, 0xbe, 0xa1, 0x29, 0x0d, 0xbd,
  0xbd, 0x15, 0x45, 0x39, 0xdf, 0x8d, 0xfa, 0x3d, 0x6d, 0x37, 0x55, 0x3e,
  0xb3, 0x31, 0x0b, 0xbe, 0x41, 0x40, 0xdf, 0x3d, 0x3e, 0xe8, 0x6b, 0xbe,
  0x31, 0x27, 0x18, 0x3e, 0xf6, 0xe5, 0xc1, 0x3d, 0x2e, 0x02, 0xba, 0xbd,
  0x29, 0x79, 0x97, 0xbd, 0x36, 0x7f, 0xfe, 0x3d, 0x49, 0xf0, 0x62, 0x3d,
  0xff, 0x62, 0xce, 0x3d, 0x95, 0x72, 0x2a, 0xbe, 0x72, 0x4c, 0xa8, 0xbd,
  0x5c, 0x49, 0x36, 0x3c, 0xf8, 0x17, 0x8f, 0x3d, 0xac, 0xc8, 0x46, 0x3d,
  0xb4, 0xcd, 0x70, 0xbd, 0xc6, 0x06, 0x43, 0xbe, 0x87, 0xf1, 0x3d, 0xbe,
  0x3f, 0xe2, 0x28, 0x3e, 0x61, 0x64, 0x6f, 0x3d, 0xa9, 0x2b, 0x8a, 0xbd,
  0x7f, 0xd8, 0xf6, 0xbd, 0x0b, 0x1d, 0x43, 0xbb, 0x79, 0x7b, 0xbd, 0xbd,
  0xff, 0xfd, 0x10, 0xbe, 0x57, 0x87, 0x80, 0x3d, 0xec, 0x2f, 0x7c, 0x3f,
  0x66, 0x3b, 0x04, 0xbd, 0x5c, 0x68, 0x3b, 0x3d, 0x53, 0x12, 0x59, 0x3d,
  0x63, 0xaa, 0xec, 0xbd, 0x08, 0x0f, 0xcb, 0x3d, 0xc0, 0xd5, 0x59, 0xbe,
  0xbe, 0x55, 0xdc, 0xbb, 0x6a, 0xda, 0xa0, 0x3d, 0x96, 0x46, 0x7c, 0x3d,
  0x7d, 0x65, 0xa0, 0xbd, 0x68, 0x29, 0xca, 0xbd, 0x88, 0xa3, 0xad, 0xbb,
  0x01, 0xd0, 0x5d, 0xbc, 0x9d, 0x91, 0x27, 0xbe, 0x4a, 0x10, 0x22, 0x3d,
  0xb8, 0x3a, 0x75, 0x3f, 0xc2, 0x20, 0x38, 0x3e, 0xd5, 0x36, 0xd1, 0x3b,
  0x63, 0xbf, 0xac, 0xbb, 0x8f, 0xeb, 0x1f, 0xbd, 0x4d, 0x5a, 0xe3, 0xbe,
  0x36, 0x78, 0x09, 0xbe, 0x32, 0x32, 0x8a, 0x3d, 0xd6, 0xdc, 0x42, 0x3d,
  0xf5, 0x00, 0x6e, 0xbc, 0x5a, 0x02, 0xbe, 0xbe, 0x9e, 0x83, 0x9d, 0xbc,
  0xb2, 0x3e, 0x10, 0xbe, 0x80, 0xfb, 0x66, 0x3c, 0xdb, 0x71, 0x09, 0x3c,
  0x8f, 0xf9, 0x08, 0xbe, 0xd6, 0x31, 0x06, 0x40, 0x9f, 0x32, 0x33, 0x3e,
  0x47, 0x86, 0xbc, 0x3b, 0x41, 0x79, 0xfb, 0xbc, 0x94, 0x59, 0x8d, 0x3b,
  0xe0, 0xe6, 0x7e, 0x3e, 0x0d, 0xaa, 0x99, 0xbd, 0x27, 0x46, 0x05, 0xbc,
  0xbb, 0xc1, 0x96, 0x3c, 0xe8, 0x50, 0x55, 0xbd, 0xbf, 0x18, 0x85, 0xbe,
  0xce, 0xd7, 0x18, 0xbd, 0xa0, 0xd0, 0x09, 0xbe, 0x06, 0x8a, 0x4f, 0x3e,
  0xfd, 0x40, 0x1e, 0xbd, 0x6f, 0xff, 0x62, 0xbd, 0xae, 0x5f, 0xb2, 0x3f,
  0x5a, 0xe4, 0x22, 0x3e, 0xa4, 0x6d, 0xa5, 0x3c, 0xef, 0x39, 0x5d, 0x3c,
  0x74, 0xe0, 0xad, 0x3d, 0x41, 0x61, 0x4e, 0xbe, 0xf1, 0xf7, 0x86, 0xbd,
  0xd9, 0x1b, 0xea, 0xbb, 0xf9, 0x3d, 0x29, 0xbd, 0xc7, 0x52, 0x73, 0xbd,
  0x8c, 0x35, 0x89, 0xbe, 0xbc, 0xe7, 0x14, 0xbc, 0x04, 0x07, 0x90, 0xbd,
  0x91, 0xcc, 0x01, 0x3e, 0xef, 0x44, 0xc5, 0x3c, 0xfc, 0x9c, 0xa3, 0x3d,
  0x7e, 0x66, 0xa1, 0x3f, 0xa5, 0x11, 0xbf, 0x3d, 0x3a, 0xc4, 0x10, 0x3c,
  0xc9, 0x75, 0x37, 0x3c, 0x16, 0x42, 0x68, 0x3e, 0x94, 0xfc, 0xb4, 0xbe,
  0xb2, 0x3e, 0xd1, 0xbd, 0x96, 0xf3, 0xc6, 0x3c, 0x2b, 0x63, 0x8d, 0xbd,
  0x06, 0xaf, 0xb0, 0x3b, 0xa0, 0xb3, 0xcd, 0xbe, 0x6c, 0xa7, 0xaf, 0xbc,
  0x30, 0xcd, 0x8b, 0xbc, 0x3d, 0x42, 0xf4, 0x3d, 0x14, 0x2b, 0xf8, 0xbc,
  0x42, 0x93, 0x9e, 0x3d, 0x2c, 0x41, 0x93, 0x3f, 0x2f, 0x4f, 0xc8, 0x3d,
  0xd9, 0xb7, 0x00, 0x3c, 0x24, 0xce, 0x6d, 0x3d, 0x6f, 0x9e, 0x8c, 0xbd,
  0xca, 0x63, 0xa6, 0x3d, 0x1b, 0x31, 0xa0, 0xbd, 0xbb, 0x1d, 0xdb, 0x3b,
  0x14, 0x51, 0x09, 0xbc, 0x63, 0x3d, 0x0c, 0xbd, 0x2a, 0x03, 0x70, 0xbd,
  0xb0, 0xe0, 0xa5, 0x3c, 0x3c, 0xcb, 0x20, 0x3d, 0x2d, 0x2e, 0xa5, 0x39,
  0xbd, 0xea, 0x6d, 0x3d, 0x56, 0x89, 0x24, 0x3d, 0x99, 0x94, 0xce, 0x3f,
  0xe7, 0xd2, 0x52, 0x3d, 0xa9, 0xd6, 0x3e, 0x3d, 0x6b, 0xac, 0x56, 0x3c,
  0xc4, 0x11, 0x64, 0xbe, 0x91, 0xc9, 0xd6, 0x3d, 0x81, 0x48, 0xce, 0xbd,
  0x92, 0xcd, 0xf7, 0x3d, 0x16, 0xf8, 0x7b, 0xbe, 0xd2, 0x51, 0x08, 0xbe,
  0x41, 0x97, 0x44, 0x3d, 0x43, 0x6d, 0x2a, 0xbd, 0xe8, 0x38, 0x20, 0xbd,
  0xca, 0x1a, 0x29, 0x3d, 0x0e, 0x28, 0x3d, 0x3d, 0xe5, 0x1c, 0xe7, 0x3b,
  0xf8, 0xf9, 0x85, 0xbb, 0x43, 0x6d, 0x6f, 0xbe, 0xaf, 0x54, 0xb9, 0xbd,
  0xba, 0x4f, 0xa9, 0x3d, 0x02, 0xf3, 0x45, 0xbe, 0x6a, 0x3a, 0xbf, 0x3d,
  0x68, 0x8b, 0xe3, 0xbc, 0x2d, 0xa6, 0x2f, 0x3d, 0x1e, 0xe6, 0x08, 0xbe,
  0x77, 0x9e, 0xa5, 0xbd, 0x6a, 0x49, 0x3f, 0xbe, 0xd8, 0x4b, 0xaf, 0xbe,
  0xa6, 0xa9, 0x55, 0xbd, 0x7a, 0xac, 0x3d, 0x3e, 0xf7, 0x3c, 0x0d, 0xba,
  0x82, 0xaf, 0x49, 0x3e, 0x75, 0xa2, 0xf6, 0xbd, 0x58, 0x8b, 0x7a, 0xbd,
  0x9a, 0x30, 0x31, 0xbd, 0x01, 0x4e, 0x18, 0x3a, 0x54, 0x11, 0x92, 0x3d,
  0xda, 0xe3, 0x54, 0xbe, 0x94, 0xdb, 0xdd, 0x3c, 0xdf, 0xec, 0x01, 0xbe,
  0xcf, 0x64, 0x1b, 0xbe, 0x78, 0x1c, 0xaa, 0x3d, 0xc5, 0xba, 0x20, 0x3d,
  0x17, 0xf3, 0x9b, 0xbc, 0x57, 0x5b, 0x91, 0xbd, 0x4b, 0xf3, 0x78, 0xbe,
  0x5a, 0x62, 0x6e, 0x3e, 0x9d, 0x49, 0x03, 0xbe, 0xfe, 0x8b, 0x94, 0xbe,
  0x80, 0xac, 0xc8, 0xbc, 0x5f, 0x45, 0x82, 0xbe, 0x8d, 0xce, 0x0e, 0xbd,
  0x69, 0x14, 0x9a, 0x3d, 0x03, 0x2d, 0xdb, 0xbc, 0x3c, 0x5d, 0xd2, 0xbd,
  0xd5, 0xb4, 0x8b, 0xbd, 0xcb, 0xe7, 0xc7, 0xbd, 0x1f, 0xde, 0xc6, 0xbb,
  0x33, 0x26, 0x8e, 0x3e, 0x52, 0x41, 0xde, 0xbd, 0xff, 0xf1, 0xcb, 0x3c,
  0x44, 0xca, 0x1c, 0xbe, 0xdd, 0xc5, 0xaf, 0x3e, 0x03, 0x9e, 0xff, 0x3d,
  0x31, 0x89, 0x75, 0xbd, 0xf6, 0x97, 0x0e, 0xbe, 0xf2, 0x67, 0x67, 0xbc,
  0x50, 0x9f, 0xf8, 0xbb, 0x24, 0x56, 0xc2, 0x3d, 0x78, 0xaf, 0x42, 0x3d,
  0x5c, 0x54, 0x12, 0xbe, 0x5c, 0xc5, 0x8f, 0x3d, 0x5d, 0xd1, 0x2b, 0xbe,
  0x84, 0x32, 0xb4, 0xbc, 0x1c, 0x33, 0x17, 0xbd, 0x4a, 0x6b, 0x3c, 0x3d,
  0x11, 0x58, 0x5b, 0xbd, 0xb4, 0xc3, 0xb5, 0xbe, 0x24, 0x44, 0x18, 0x3e,
  0x95, 0xb5, 0xe0, 0x3d, 0x76, 0x6c, 0x34, 0xbe, 0x69, 0x98, 0x97, 0x3d,
  0xed, 0x22, 0x91, 0xbe, 0xce, 0x0f, 0x16, 0xbe, 0x15, 0xfa, 0x84, 0xbe,
  0xd1, 0x89, 0xad, 0x3d, 0xb5, 0x7c, 0x6f, 0x3b, 0x53, 0x6b, 0x62, 0x3d,
  0x2b, 0x30, 0x57, 0xbe, 0x02, 0x54, 0x28, 0xbc, 0x93, 0x0b, 0x25, 0x3e,
  0xe1, 0x8d, 0x96, 0xbe, 0x9c, 0xa1, 0x98, 0xbc, 0x16, 0x3d, 0x0b, 0x3c,
  0xd2, 0x0c, 0x84, 0x3d, 0x00, 0x6d, 0x6f, 0x3e, 0xca, 0x6d, 0x99, 0x3d,
  0x34, 0x97, 0xf3, 0x3d, 0x1b, 0x72, 0xa7, 0xbe, 0x2d, 0xc2, 0x1a, 0xbe,
  0x58, 0xd3, 0x56, 0x3d, 0xf5, 0xcb, 0x09, 0xbe, 0x40, 0xe8, 0x12, 0xbd,
  0x0e, 0x9e, 0x0f, 0x3e, 0x0e, 0xb3, 0xe0, 0xbd, 0x75, 0xff, 0x06, 0xbe,
  0xe6, 0xef, 0xbe, 0xbd, 0xcc, 0xf4, 0xdb, 0xbd, 0x1c, 0xd6, 0x07, 0xbe,
  0xd3, 0x57, 0x9b, 0xbe, 0x6c, 0x20, 0x4a, 0x3e, 0x35, 0xb3, 0x99, 0xbd,
  0xc6, 0xda, 0xd7, 0xbd, 0xf7, 0xf6, 0xdd, 0xbe, 0x48, 0x49, 0x5a, 0xbe,
  0x9c, 0x09, 0xa1, 0x3e, 0x8b, 0x33, 0x59, 0xbe, 0x53, 0x96, 0x2c, 0x3e,
  0x3d, 0x7c, 0x68, 0xbe, 0x00, 0x87, 0x8a, 0xbd, 0xd5, 0xf6, 0x68, 0xbe,
  0x27, 0xb7, 0x0c, 0xbe, 0x4f, 0xeb, 0x88, 0x3d, 0x2d, 0x89, 0x89, 0x3d,
  0x86, 0x20, 0x58, 0xbe, 0x4b, 0x8c, 0x79, 0x3c, 0xab, 0x6e, 0xd7, 0x3c,
  0x3c, 0xda, 0xc6, 0x3e, 0x91, 0xd3, 0xd1, 0x3f, 0x0c, 0xa2, 0x94, 0xbe,
  0xc5, 0x2e, 0xe6, 0xbd, 0xaf, 0xe2, 0x05, 0xbe, 0x90, 0x56, 0xcb, 0x3d,
  0x9d, 0x3c, 0x0a, 0x3e, 0x93, 0xb6, 0xce, 0x3d, 0x86, 0x45, 0x08, 0x3d,
  0xd9, 0xd9, 0x9e, 0xbe, 0xdb, 0x93, 0x83, 0x3b, 0xaa, 0xe2, 0x92, 0x3e,
  0x66, 0x69, 0x0a, 0xbe, 0x45, 0x31, 0x6b, 0xbd, 0xeb, 0x20, 0x23, 0xbd,
  0xb5, 0xb7, 0x8d, 0xbd, 0xaf, 0x6e, 0xce, 0x3d, 0x12, 0x45, 0xd8, 0x3f,
  0x42, 0x6b, 0x01, 0xbe, 0xb6, 0xf7, 0x97, 0xbd, 0xca, 0x02, 0xcc, 0xbd,
  0xc1, 0xc1, 0x3c, 0x3e, 0x86, 0x3f, 0x82, 0xbd, 0x1a, 0xc3, 0x6d, 0xbe,
  0x67, 0x44, 0x0a, 0xbe, 0x57, 0x4e, 0x92, 0xbe, 0x19, 0x69, 0x66, 0xbd,
  0x5c, 0xce, 0x15, 0x3f, 0xfe, 0x8d, 0xc3, 0x3d, 0xe9, 0x9d, 0x57, 0xbe,
  0xc0, 0x3a, 0x1a, 0xbe, 0x13, 0x89, 0xe3, 0xbc, 0x97, 0xea, 0xc3, 0x3e,
  0x7e, 0x1e, 0x09, 0x40, 0xb3, 0xcf, 0xc6, 0x3d, 0x68, 0x71, 0xba, 0x3d,
  0xe1, 0x72, 0x87, 0xbc, 0x65, 0x05, 0x8e, 0x3c, 0x77, 0x23, 0x83, 0x3d,
  0x74, 0xe3, 0x8a, 0xbe, 0x32, 0x99, 0xa5, 0xbe, 0x2b, 0x6b, 0xb8, 0xbe,
  0x3f, 0x82, 0x36, 0xbe, 0x93, 0x3d, 0x2c, 0x3e, 0x51, 0xa6, 0x1e, 0xbe,
  0x45, 0xbf, 0x8b, 0xbe, 0x17, 0x66, 0x32, 0xbd, 0x27, 0xe4, 0x36, 0xbd,
  0xf7, 0x5c, 0x71, 0x3e, 0xc1, 0xdc, 0x0d, 0x40, 0xb0, 0x9d, 0xd8, 0xbd,
  0xc7, 0xa0, 0x56, 0x3d, 0xe4, 0xc2, 0x2e, 0xbe, 0xe8, 0x2a, 0x93, 0x3e,
  0x2b, 0xe2, 0x73, 0x3e, 0x1d, 0xb3, 0x87, 0xbd, 0xf5, 0x0f, 0x42, 0xbe,
  0x71, 0x03, 0xa2, 0xbe, 0xbf, 0xcb, 0xae, 0xbe, 0x8c, 0x1c, 0xef, 0xbc,
  0x26, 0x94, 0xe8, 0xbd, 0x65, 0xaa, 0xe0, 0x3c, 0x61, 0xea, 0x76, 0xbd,
  0x14, 0xf5, 0x90, 0xbc, 0x79, 0xf5, 0xb5, 0x3e, 0x6b, 0x25, 0x18, 0x40,
  0xb0, 0x2b, 0x09, 0xbe, 0x85, 0x2d, 0x81, 0xbe, 0x75, 0x20, 0x09, 0xbe,
  0x63, 0xaa, 0xa1, 0x3d, 0x20, 0x65, 0xe3, 0x3d, 0xe5, 0x4f, 0x1b, 0x3d,
  0x4e, 0x06, 0x23, 0xbe, 0xca, 0x96, 0xcf, 0xbe, 0x3e, 0x95, 0xa7, 0xbd,
  0x5f, 0x8b, 0x47, 0x3e, 0x4d, 0xc5, 0x1d, 0xbe, 0x1c, 0x0e, 0xef, 0xbb,
  0x7f, 0xba, 0x0d, 0xbe, 0xa4, 0xfc, 0xd7, 0x3c, 0x7d, 0x3f, 0x9c, 0x3d,
  0x19, 0x15, 0x98, 0x3f, 0x9d, 0x70, 0x32, 0x3d, 0x23, 0x12, 0x87, 0xbe,
  0x48, 0xb2, 0x11, 0xbc, 0x35, 0x52, 0xc8, 0x3d, 0x2f, 0xfd, 0x21, 0x3e,
  0x16, 0xa8, 0xfe, 0xbd, 0xc8, 0x2f, 0x04, 0xbd, 0xe1, 0x09, 0x42, 0xbe,
  0x18, 0xfb, 0xd4, 0xbd, 0x51, 0xdf, 0x29, 0x3e, 0xfb, 0x35, 0x42, 0xbb,
  0x04, 0x62, 0x3b, 0xbd, 0xa7, 0x5a, 0x8e, 0xbe, 0x08, 0xa5, 0xc0, 0xbd,
  0xd6, 0x21, 0x08, 0xbd, 0x4d, 0x4f, 0xc0, 0x3f, 0xa1, 0xdd, 0x0e, 0xbe,
  0xdf, 0xa2, 0x97, 0xbe, 0xdc, 0xe0, 0x02, 0x3d, 0x18, 0x56, 0xef, 0x3e,
  0x79, 0x5a, 0x1e, 0x3f, 0x2d, 0xf4, 0x4c, 0xbe, 0x60, 0x96, 0x21, 0x3e,
  0xe8, 0x3c, 0x1a, 0x3d, 0xfd, 0xbe, 0x6a, 0x3e, 0xe0, 0xe6, 0xa8, 0x3e,
  0x2d, 0xbe, 0x94, 0xbe, 0xa6, 0xd8, 0x82, 0x3e, 0x42, 0x99, 0xe4, 0xbe,
  0xa6, 0x0e, 0xfb, 0x3e, 0x47, 0x7a, 0xda, 0x3d, 0x0d, 0xeb, 0x89, 0xbe,
  0xfe, 0xd3, 0x7a, 0xbd, 0x41, 0x7f, 0x66, 0x3d, 0x70, 0x0c, 0xbf, 0xbe,
  0x6d, 0x7c, 0xbc, 0x3e, 0xcc, 0xf3, 0x6f, 0x3e, 0xa2, 0x49, 0xbd, 0xbc,
  0x1f, 0x38, 0xfb, 0x3d, 0x6b, 0xe1, 0xbd, 0xbd, 0x71, 0x2a, 0xb6, 0x3d,
  0x93, 0xf6, 0x56, 0x3e, 0x06, 0x06, 0xa6, 0xbe, 0x2b, 0xcc, 0x72, 0x3e,
  0xfe, 0x4b, 0x07, 0x3f, 0x4d, 0x81, 0x9c, 0x3d, 0x98, 0x71, 0x6c, 0x3e,
  0xef, 0xd1, 0xe6, 0xbe, 0x2c, 0x96, 0xa9, 0xbe, 0x29, 0xb3, 0x3a, 0xbe,
  0x3d, 0x7b, 0x81, 0xbe, 0xbc, 0xc4, 0xa6, 0x3e, 0x1d, 0x18, 0xfb, 0x3e,
  0xb3, 0x01, 0x01, 0xbd, 0x1c, 0x54, 0x9d, 0x3a, 0xb4, 0x6f, 0x21, 0xbe,
  0xdf, 0x5d, 0x39, 0x3e, 0xed, 0x38, 0xbb, 0x3e, 0x78, 0xc6, 0x13, 0xbf,
  0x50, 0xfd, 0xcc, 0x3d, 0x41, 0x97, 0xc9, 0x3e, 0xab, 0x0e, 0xf4, 0x3d,
  0xd0, 0xc6, 0x49, 0x3e, 0xe8, 0x38, 0x33, 0xbf, 0x39, 0x63, 0x4e, 0xbe,
  0x47, 0x46, 0x37, 0xbe, 0x38, 0xa1, 0x26, 0x3d, 0x00, 0xaa, 0x85, 0x3d,
  0xf1, 0x18, 0x00, 0x3f, 0x1f, 0xa6, 0x9a, 0xbd, 0xeb, 0xb9, 0x9a, 0x3d,
  0x44, 0x84, 0xc9, 0xbd, 0x3a, 0x40, 0x42, 0xbd, 0xae, 0x04, 0x8d, 0x3e,
  0xc7, 0xf7, 0xdf, 0xbe, 0xf1, 0x17, 0x80, 0x3d, 0x5d, 0x82, 0x4f, 0xbe,
  0x63, 0xaa, 0x52, 0x3e, 0x20, 0x64, 0xee, 0x3e, 0x19, 0x8b, 0x20, 0xbf,
  0xc5, 0xcb, 0xaa, 0xbc, 0x1c, 0x15, 0x8e, 0xbd, 0x87, 0x85, 0xd4, 0xbd,
  0x50, 0x6e, 0x94, 0x3e, 0x27, 0x97, 0x3a, 0x3f, 0xa1, 0x35, 0x1f, 0xbe,
  0x65, 0x0d, 0x45, 0x3e, 0xb3, 0x62, 0x49, 0xbe, 0xc2, 0x4f, 0xfa, 0x3d,
  0xbe, 0x87, 0x3a, 0xbd, 0x76, 0xf5, 0x89, 0xbe, 0xc5, 0x24, 0x2a, 0x3c,
  0xc7, 0x0f, 0x50, 0xbd, 0x27, 0x08, 0xcd, 0xbc, 0xfd, 0xe8, 0x41, 0x3e,
  0x7b, 0x66, 0xdb, 0xbe, 0xfc, 0x4e, 0x87, 0xbe, 0x92, 0x4c, 0xf2, 0xbd,
  0x56, 0x9a, 0x6c, 0xbe, 0x7c, 0x5b, 0x3e, 0x3e, 0xbc, 0x08, 0x2b, 0x3f,
  0xfd, 0x0a, 0x48, 0xbe, 0x8a, 0xe3, 0xb4, 0x3d, 0x8d, 0xaa, 0x87, 0xbe,
  0x72, 0x38, 0x4f, 0xbc, 0x42, 0x45, 0xbc, 0x3d, 0x3b, 0x52, 0xa5, 0xbe,
  0x59, 0x2d, 0x5c, 0x3e, 0x09, 0x1d, 0x57, 0xbe, 0x03, 0x35, 0xdc, 0x3d,
  0x53, 0x86, 0x3e, 0x3e, 0x47, 0xc1, 0x3a, 0xbf, 0x1c, 0xd0, 0x68, 0xbe,
  0x9c, 0xe0, 0x37, 0xbe, 0xee, 0x44, 0x68, 0xbe, 0xe8, 0xe1, 0x91, 0x3e,
  0x12, 0x53, 0xd8, 0x3e, 0x92, 0x93, 0x21, 0xbe, 0x98, 0x2c, 0x06, 0x3e,
  0xfe, 0xe6, 0x94, 0xbe, 0x7c, 0xee, 0x77, 0x3d, 0xd5, 0x09, 0x87, 0x3e,
  0x65, 0xb0, 0xf0, 0xbd, 0x9a, 0x85, 0x11, 0x3d, 0x23, 0xb9, 0xb3, 0xbd,
  0x3d, 0x53, 0xfb, 0xbd, 0x6c, 0x38, 0x03, 0x3f, 0xb2, 0x3a, 0x44, 0xbf,
  0x27, 0x00, 0xfc, 0xbd, 0xcf, 0x52, 0x75, 0xbe, 0x92, 0x3f, 0x3e, 0xbe,
  0xdf, 0xf7, 0x96, 0x3d, 0x08, 0xd0, 0x20, 0xbe, 0x5e, 0x20, 0xf5, 0xbc,
  0x16, 0xa3, 0x8e, 0x3d, 0x90, 0xd0, 0xc7, 0xbd, 0xb2, 0x53, 0x29, 0xbe,
  0xc5, 0xc3, 0x36, 0xbd, 0x11, 0x76, 0xc7, 0x3d, 0x2b, 0xf3, 0x5b, 0x3e,
  0xd3, 0x8a, 0xee, 0xbc, 0xe5, 0x5c, 0xb1, 0x3e, 0xfa, 0x67, 0xb1, 0xbd,
  0x1c, 0xb2, 0x58, 0x3e, 0xb6, 0x6f, 0x0d, 0xbc, 0xb3, 0x99, 0xff, 0x3d,
  0x11, 0xdc, 0x4a, 0xbd, 0xe1, 0x13, 0xc9, 0x3c, 0xf7, 0x4c, 0xd4, 0xbd,
  0x6c, 0x83, 0xc9, 0xbc, 0xcc, 0x04, 0xb0, 0x3d, 0xe0, 0x19, 0x8b, 0xbe,
  0x45, 0xb6, 0xe9, 0x3d, 0xdd, 0x35, 0x3a, 0x3e, 0x25, 0x3c, 0xb3, 0xbe,
  0x22, 0x95, 0x3e, 0x3e, 0x98, 0xa9, 0x4d, 0x3e, 0x34, 0x2e, 0xa7, 0x3d,
  0x6d, 0x9b, 0x2d, 0xbe, 0x4f, 0xbe, 0x14, 0x3e, 0xb4, 0xa6, 0xb2, 0xbe,
  0x2b, 0x70, 0x5c, 0xbd, 0x31, 0x4e, 0xba, 0x3d, 0xb0, 0x5d, 0x3b, 0x3e,
  0xf4, 0x8f, 0x7a, 0x3d, 0x77, 0x12, 0x3b, 0xbe, 0xb4, 0x12, 0x48, 0x3e,
  0x78, 0x06, 0x28, 0xbe, 0xb9, 0x85, 0xca, 0xbc, 0xf9, 0x13, 0x19, 0x3d,
  0xea, 0xe5, 0x71, 0xbe, 0xc4, 0x9c, 0xf9, 0x3d, 0x55, 0x69, 0xc2, 0x3d,
  0xf6, 0xfd, 0x7f, 0x3e, 0x18, 0x0a, 0xd5, 0xbd, 0xb1, 0x29, 0xb1, 0x3e,
  0x16, 0x90, 0x23, 0xbe, 0xf3, 0x18, 0x2d, 0x3d, 0xbf, 0x9c, 0x9e, 0xbd,
  0x6e, 0xdc, 0xb8, 0xbd, 0xb1, 0x43, 0x01, 0x3d, 0xa1, 0x1c, 0x0e, 0xbe,
  0x62, 0xb4, 0xff, 0x3d, 0xda, 0x15, 0x70, 0xbe, 0xc1, 0x82, 0x1e, 0x3e,
  0x67, 0x7d, 0xaf, 0x3d, 0x14, 0x79, 0xa8, 0xbd, 0xed, 0x1f, 0x83, 0xbd,
  0xf6, 0xbe, 0x92, 0x3e, 0x00, 0xd1, 0xec, 0xbd, 0x4a, 0xeb, 0x65, 0xbe,
  0x56, 0x15, 0x2a, 0x3e, 0x6a, 0xdc, 0x61, 0xbd, 0x89, 0x5b, 0x2d, 0xbd,
  0x40, 0xc7, 0x06, 0xbe, 0x31, 0xc1, 0x84, 0x3d, 0x90, 0xdd, 0x47, 0xbe,
  0xeb, 0x13, 0x08, 0xbe, 0xe0, 0xd2, 0x7c, 0x3d, 0x6e, 0x33, 0xb3, 0xbe,
  0x0c, 0x1c, 0x96, 0x3b, 0x59, 0x04, 0xb5, 0x3d, 0xfa, 0x21, 0x3e, 0xbe,
  0x1c, 0x0d, 0xc2, 0x3e, 0xb8, 0xe0, 0xe5, 0x3c, 0xea, 0xec, 0x61, 0x3d,
  0x2d, 0xcc, 0x86, 0x3e, 0x60, 0xac, 0x0a, 0x3d, 0x1d, 0x7e, 0xa2, 0xbd,
  0x63, 0x48, 0x2a, 0xbd, 0x22, 0xc7, 0xc1, 0x3d, 0x07, 0x34, 0x70, 0x3e,
  0x83, 0x9c, 0x97, 0xbc, 0x5c, 0x84, 0x6b, 0xbe, 0xca, 0x41, 0x65, 0xbd,
  0xa5, 0x97, 0x9e, 0xbe, 0x90, 0x20, 0x4e, 0x3d, 0x0e, 0xb4, 0xe4, 0x3d,
  0x5a, 0x63, 0x69, 0xbe, 0x11, 0xfb, 0xdf, 0x3d, 0x5e, 0xe5, 0x8d, 0x3d,
  0xbe, 0x5b, 0x56, 0xbe, 0x3b, 0x2f, 0x0a, 0x3e, 0x4d, 0x9e, 0x5c, 0x3e,
  0x9a, 0x17, 0xfa, 0x3c, 0x87, 0x9d, 0x71, 0xbe, 0xca, 0xb1, 0x8e, 0xbd,
  0xcb, 0xf0, 0xee, 0x3d, 0xc1, 0x48, 0x4e, 0xbe, 0xa5, 0xd7, 0x56, 0xbe,
  0xd4, 0x49, 0x02, 0x3d, 0x46, 0x5c, 0xa8, 0xbe, 0xda, 0x47, 0x3d, 0xbe,
  0x98, 0xde, 0x1e, 0x3e, 0xd5, 0x95, 0xe9, 0xbd, 0x26, 0x1e, 0x44, 0x3e,
  0x75, 0x48, 0x8c, 0xbe, 0x56, 0x8f, 0xe2, 0x3b, 0xfc, 0x58, 0x5a, 0x3e,
  0xf8, 0x8c, 0xab, 0x3d, 0x11, 0x65, 0xee, 0xbd, 0x42, 0x60, 0x0d, 0xbe,
  0x15, 0x6b, 0xb8, 0x3d, 0x00, 0xf4, 0x80, 0xbd, 0xc9, 0x35, 0xa0, 0x3d,
  0x30, 0x0e, 0xcd, 0xbe, 0x51, 0xea, 0xa4, 0xbd, 0xbd, 0x78, 0xda, 0x3a,
  0x53, 0x3e, 0xb1, 0x3d, 0x26, 0x8c, 0x22, 0xbd, 0xa4, 0x52, 0xbd, 0xbe,
  0x86, 0xb2, 0x6a, 0xbd, 0xc6, 0xa8, 0x56, 0xbe, 0x08, 0x3e, 0x5b, 0xbe,
  0x99, 0x73, 0x30, 0x3e, 0xe9, 0x7e, 0xe0, 0xbd, 0x88, 0x12, 0xe8, 0xbd,
  0x3c, 0x7b, 0x21, 0xbf, 0xf2, 0x27, 0x14, 0x3e, 0x9a, 0xb9, 0x8b, 0xbd,
  0x9a, 0xfa, 0x6c, 0xbe, 0x1d, 0x70, 0x89, 0xbd, 0xa3, 0x98, 0xb2, 0xbd,
  0x06, 0x18, 0x97, 0xbc, 0x4c, 0x70, 0x99, 0x3d, 0x57, 0x92, 0x6f, 0xbe,
  0x21, 0xcb, 0xab, 0xbe, 0x46, 0x11, 0x1c, 0xbe, 0xa9, 0x0f, 0x73, 0xbe,
  0x64, 0x3f, 0x09, 0xbe, 0x88, 0x9e, 0x6f, 0x3e, 0x14, 0xea, 0x27, 0x3e,
  0xad, 0xbf, 0x58, 0x3e, 0xf4, 0x42, 0x17, 0xbf, 0xe6, 0x95, 0x0e, 0x3d,
  0x7c, 0x52, 0xe4, 0xbd, 0xa8, 0x11, 0x18, 0xbd, 0x65, 0xce, 0xf6, 0xbd,
  0x58, 0x66, 0xef, 0xba, 0x20, 0xc2, 0x20, 0xbc, 0xa7, 0x13, 0xb4, 0xbc,
  0xb5, 0x4a, 0x94, 0xbd, 0x3b, 0xdc, 0x12, 0xbd, 0xd9, 0xe9, 0x14, 0xbe,
  0xc1, 0x71, 0x6f, 0x3b, 0xaa, 0xdd, 0x82, 0xbe, 0xf0, 0x8d, 0x5a, 0xbe,
  0x9a, 0x01, 0x43, 0xbe, 0xa0, 0x32, 0x90, 0x3e, 0xca, 0x27, 0x17, 0xbd,
  0x46, 0xf6, 0x88, 0x3d, 0x07, 0x6b, 0x10, 0x3e, 0xc3, 0xf6, 0x8b, 0x3d,
  0x82, 0x35, 0x5c, 0xbe, 0x80, 0xb4, 0xcf, 0xba, 0xb9, 0xf3, 0x21, 0xbe,
  0x43, 0x15, 0x37, 0xbd, 0xec, 0x29, 0xe1, 0x3d, 0xf3, 0x35, 0x2c, 0xbe,
  0xd8, 0xe5, 0x1b, 0xbe, 0xa7, 0x26, 0x1b, 0x3e, 0xda, 0x9f, 0x8c, 0xbe,
  0x29, 0x21, 0xeb, 0x3d, 0x87, 0xcd, 0xf9, 0xbc, 0x53, 0xdf, 0xb9, 0x3e,
  0x8b, 0xbe, 0x2f, 0xbd, 0xb6, 0x50, 0x01, 0xbe, 0x17, 0x60, 0xb1, 0x3d,
  0xeb, 0xe2, 0xf5, 0x3c, 0x3a, 0xd8, 0x15, 0xbe, 0x5e, 0x45, 0xd9, 0xbd,
  0x31, 0xfd, 0x17, 0xbe, 0x8f, 0x77, 0x0a, 0xbe, 0xbb, 0xf6, 0x60, 0xbc,
  0x4d, 0x7c, 0xb2, 0xbd, 0x5d, 0x96, 0xff, 0x3d, 0x3f, 0x4d, 0x2b, 0x3e,
  0xf2, 0x59, 0xa9, 0xbd, 0x3a, 0x22, 0x8f, 0xbd, 0x47, 0x61, 0x2b, 0x3e,
  0xde, 0x02, 0x8b, 0x3e, 0x6b, 0x40, 0xd3, 0x3d, 0xf3, 0xfc, 0x51, 0x3d,
  0x57, 0x4a, 0xcb, 0xbd, 0x3b, 0xd8, 0x08, 0xbd, 0xcd, 0x16, 0xde, 0xbe,
  0xc5, 0x7c, 0xa0, 0x3d, 0x2f, 0xa1, 0x2b, 0xbe, 0xea, 0x10, 0x31, 0xbe,
  0x92, 0x82, 0x89, 0x3e, 0xf0, 0x2f, 0x2f, 0xbe, 0x6f, 0xc3, 0xec, 0xbc,
  0xe1, 0xd9, 0xae, 0xbc, 0x90, 0x95, 0x80, 0x3d, 0x2d, 0xca, 0xbb, 0x3d,
  0x71, 0x0f, 0x74, 0xbe, 0x0d, 0xa4, 0x7e, 0x3e, 0xa0, 0xbb, 0xf7, 0x3c,
  0xbb, 0x0b, 0xa7, 0x3b, 0x54, 0x23, 0x8d, 0xbe, 0x3b, 0x57, 0xa8, 0xbd,
  0x37, 0x9d, 0x11, 0xbe, 0xe9, 0x0e, 0x5c, 0xbd, 0x19, 0x78, 0x9e, 0x3c,
  0x0f, 0x1e, 0xea, 0xbe, 0x91, 0xa1, 0xf4, 0x3d, 0x86, 0xdf, 0xfe, 0xbd,
  0xc0, 0x6f, 0x77, 0x3a, 0x66, 0x74, 0xf3, 0xbb, 0x2c, 0x52, 0x2a, 0xbe,
  0x91, 0x03, 0x4e, 0xbe, 0x0a, 0x09, 0xb2, 0xbd, 0x16, 0x46, 0x92, 0xbc,
  0x98, 0xf8, 0x90, 0x3a, 0x1b, 0xee, 0xd5, 0xbe, 0x8d, 0x0a, 0x9b, 0xbe,
  0x89, 0x62, 0x64, 0x3e, 0xc6, 0x1c, 0x7e, 0xbf, 0xff, 0x0f, 0x97, 0xbf,
  0x3a, 0x02, 0x03, 0xbe, 0x8c, 0xdb, 0x06, 0x3e, 0x0a, 0x19, 0x0b, 0x3d,
  0x8d, 0xea, 0x36, 0xbf, 0xbd, 0xe3, 0x83, 0xbd, 0xcd, 0xc1, 0xa3, 0xbe,
  0x10, 0x37, 0xec, 0xbd, 0x52, 0x95, 0x79, 0x3e, 0xbb, 0x1f, 0x79, 0x3f,
  0xcf, 0x5f, 0xbc, 0xbe, 0xe4, 0x98, 0x2a, 0xbf, 0xcc, 0x73, 0x18, 0x3e,
  0x56, 0x78, 0x07, 0x3d, 0x77, 0x4e, 0x98, 0x3e, 0x45, 0xf3, 0x15, 0x3e,
  0xd9, 0x56, 0x7e, 0xbe, 0x50, 0x02, 0x0a, 0xbe, 0x25, 0xe2, 0x8c, 0x3c,
  0x7e, 0xd4, 0x65, 0xbd, 0x84, 0x4d, 0xcd, 0x3b, 0xa0, 0xf7, 0xfb, 0xbd,
  0x17, 0xe4, 0x24, 0xbe, 0xd5, 0xe2, 0xe8, 0xbd, 0x15, 0x23, 0xfb, 0x3d,
  0xf0, 0xbf, 0x68, 0x3f, 0x4a, 0x76, 0x22, 0xbd, 0xf7, 0x69, 0x81, 0xbc,
  0x88, 0x3d, 0x48, 0x3d, 0xa5, 0xbb, 0xfe, 0xbc, 0x65, 0x7c, 0xe2, 0xbd,
  0xdd, 0x18, 0xe6, 0x3d, 0x87, 0xcc, 0x2d, 0x3d, 0x51, 0xa6, 0xfa, 0xbb,
  0x0d, 0x52, 0x66, 0x3c, 0xf6, 0x35, 0xff, 0xbb, 0xf6, 0xbd, 0xaa, 0x3c,
  0xcc, 0xbd, 0x27, 0xbe, 0xdf, 0x08, 0x15, 0xbe, 0x16, 0x45, 0x7d, 0xbe,
  0x0e, 0x85, 0x4e, 0xbd, 0xaa, 0x67, 0x39, 0x3f, 0x14, 0x19, 0xab, 0xbd,
  0x4d, 0x42, 0xb3, 0x3c, 0x1d, 0x3f, 0xf3, 0x3d, 0x97, 0x45, 0x62, 0x3d,
  0xdb, 0x39, 0x40, 0xbd, 0x30, 0x3a, 0x1c, 0x3e, 0xcc, 0x38, 0x0f, 0xbd,
  0x6f, 0xb5, 0x34, 0xbd, 0xa2, 0x3e, 0xe6, 0xbc, 0xa8, 0xc3, 0xae, 0xbd,
  0x47, 0x53, 0x21, 0x3d, 0x46, 0x6a, 0x1b, 0xbe, 0x74, 0xdd, 0x38, 0x3d,
  0x1d, 0xb8, 0xd6, 0xbd, 0x71, 0xd1, 0x10, 0xbd, 0x36, 0x60, 0x49, 0x3f,
  0x50, 0xa9, 0x14, 0x3c, 0x65, 0xad, 0x1a, 0x3c, 0x39, 0x76, 0x8e, 0x3d,
  0x44, 0x45, 0xa4, 0x3d, 0x9a, 0x04, 0xf8, 0x3d, 0x86, 0x8d, 0xd9, 0x3d,
  0x12, 0x1c, 0xd0, 0xbb, 0x3d, 0x9b, 0x21, 0x3c, 0x31, 0xfc, 0x57, 0x3d,
  0x77, 0x3f, 0xb1, 0xbd, 0x3b, 0x4b, 0x8b, 0x3c, 0x66, 0x1e, 0x77, 0xbe,
  0x54, 0xdf, 0x23, 0x3d, 0xfe, 0xde, 0x2d, 0xbe, 0x24, 0x4f, 0x73, 0x3d,
  0x70, 0x9a, 0x44, 0x3f, 0xc0, 0x0d, 0x8d, 0xbc, 0x07, 0x80, 0xf9, 0x3c,
  0x64, 0xdf, 0x81, 0xbd, 0x27, 0x59, 0x7a, 0x3c, 0x41, 0x68, 0x1d, 0x3e,
  0x4b, 0xa8, 0x0c, 0x3d, 0x52, 0xd3, 0x6f, 0xbc, 0x70, 0xb9, 0xca, 0x3c,
  0x02, 0x7c, 0x6a, 0x3b, 0x60, 0x60, 0x25, 0xbd, 0xad, 0xbe, 0x2c, 0xbc,
  0x96, 0x14, 0xff, 0xbd, 0x2d, 0xef, 0x39, 0xbd, 0xbf, 0x7e, 0x42, 0xbe,
  0x4e, 0x60, 0x1c, 0xbd, 0x48, 0x51, 0x3a, 0x3f, 0x68, 0x0b, 0x60, 0xbc,
  0x6f, 0xec, 0x69, 0x3d, 0x40, 0x78, 0xdb, 0xbd, 0x5f, 0x4a, 0x43, 0xbe,
  0xbd, 0x7f, 0x7e, 0x3c, 0x45, 0x43, 0xe8, 0x3c, 0xfb, 0x9f, 0x39, 0xbc,
  0x6f, 0xf2, 0x58, 0x3c, 0xef, 0x9f, 0x5d, 0xbd, 0xd7, 0xf7, 0x35, 0x3d,
  0x3d, 0x33, 0x8e, 0x3c, 0xbf, 0xf2, 0xf3, 0xbc, 0xcb, 0x1b, 0x12, 0x3d,
  0x20, 0x9d, 0x9d, 0xbd, 0x3a, 0x00, 0xd9, 0xbd, 0x44, 0xb7, 0x7e, 0x3f,
  0x86, 0x58, 0xa7, 0xbb, 0xc1, 0x4b, 0x9f, 0x3d, 0x89, 0xc1, 0xa7, 0xbd,
  0xc3, 0x27, 0xc4, 0xbd, 0xf4, 0x96, 0x77, 0xbe, 0x12, 0x2a, 0xbc, 0xbd,
  0x95, 0x59, 0xec, 0xbe, 0xb6, 0xf5, 0xd7, 0xbe, 0x99, 0xad, 0x90, 0x3d,
  0x75, 0x70, 0xb6, 0xbc, 0x0a, 0x75, 0x08, 0xbf, 0xf0, 0xd7, 0x09, 0xbe,
  0xaa, 0x7e, 0x21, 0xbe, 0xaa, 0xa3, 0x00, 0x3e, 0xdf, 0x2f, 0x38, 0x3c,
  0x7f, 0x21, 0x10, 0x3f, 0x35, 0x1c, 0xd3, 0xbe, 0x8c, 0xc3, 0x06, 0xbf,
  0xfc, 0x7c, 0xf2, 0x3c, 0x7b, 0x3a, 0x33, 0xbc, 0xd4, 0xd5, 0xcc, 0xbe,
  0xd1, 0x57, 0xed, 0x3d, 0xcc, 0x4d, 0x96, 0xbe, 0xfb, 0xe1, 0xdc, 0xbe,
  0x69, 0xf5, 0x2a, 0xbb, 0x8a, 0x92, 0xb4, 0x3d, 0x3d, 0xc6, 0x3f, 0xbc,
  0x0d, 0x4e, 0x7c, 0xba, 0xb2, 0x62, 0x21, 0xbd, 0x6b, 0xe2, 0x6e, 0xbe,
  0x88, 0x8d, 0x4a, 0xbd, 0x6a, 0xc2, 0x45, 0x3f, 0x51, 0xc9, 0xe2, 0xbe,
  0xa9, 0x3c, 0x03, 0xbe, 0xad, 0xb5, 0xc9, 0xbc, 0xd7, 0x18, 0x3f, 0x3e,
  0xdd, 0xaa, 0x50, 0xbd, 0xc5, 0x9a, 0xd8, 0x3d, 0x8e, 0x61, 0x14, 0xbd,
  0x7b, 0xbd, 0xe1, 0xbd, 0x8d, 0x7f, 0xab, 0xbc, 0xa1, 0x71, 0x91, 0x3d,
  0xaf, 0xb7, 0x27, 0x3c, 0x6c, 0x73, 0xf7, 0xbc, 0xe8, 0xd6, 0x0b, 0xbe,
  0x13, 0xea, 0xdd, 0xbd, 0x95, 0x2c, 0xa2, 0xbe, 0xf4, 0x1d, 0x60, 0x3f,
  0x9a, 0x4b, 0x50, 0xbe, 0xe4, 0x81, 0x26, 0x3d, 0x60, 0x85, 0x83, 0xbc,
  0xa7, 0xa5, 0xe8, 0x3c, 0xda, 0x89, 0x36, 0x3e, 0xc9, 0x9b, 0xae, 0x3d,
  0x6e, 0x95, 0x4b, 0x3c, 0xa3, 0x07, 0x31, 0x3d, 0xc6, 0x66, 0x84, 0xbd,
  0x1d, 0x70, 0x82, 0x3d, 0x2a, 0x26, 0x45, 0x3b, 0x6e, 0xf8, 0xc5, 0xbd,
  0x78, 0x46, 0x09, 0xbe, 0xb7, 0x59, 0x4e, 0xbe, 0xa7, 0x11, 0x14, 0xbe,
  0x6f, 0xd6, 0x2c, 0x3f, 0xf4, 0x34, 0x5e, 0xbe, 0x50, 0x63, 0xcb, 0x3d,
  0x78, 0xc6, 0x51, 0xbe, 0x40, 0x50, 0x3d, 0x3e, 0xad, 0xda, 0x43, 0x3e,
  0x70, 0x61, 0x02, 0x3e, 0x21, 0xea, 0x00, 0xbd, 0x34, 0x91, 0xd7, 0x3c,
  0x49, 0x12, 0xc3, 0xbd, 0x0f, 0xff, 0x6d, 0x3d, 0x94, 0xa2, 0x0c, 0x3d,
  0xba, 0xb8, 0x52, 0x3b, 0xf4, 0x32, 0x74, 0xbd, 0x53, 0x3d, 0x6e, 0x3d,
  0x85, 0x10, 0x15, 0xbe, 0xa2, 0xca, 0x3a, 0x3f, 0x2e, 0x22, 0xfd, 0xbd,
  0xa3, 0x7e, 0xda, 0x3d, 0x9e, 0xee, 0x43, 0xbd, 0xe9, 0x7b, 0x86, 0xbe,
  0x8c, 0xe6, 0xa5, 0xbd, 0xbe, 0xe9, 0x85, 0x3e, 0xdb, 0xd4, 0xd7, 0x3a,
  0xa8, 0x3c, 0x3a, 0x3a, 0x72, 0x00, 0xe5, 0xbb, 0xdd, 0xa8, 0x81, 0x3d,
  0x60, 0xf6, 0xbe, 0xbd, 0x92, 0xd8, 0x1a, 0xbe, 0x68, 0xed, 0xcc, 0xbd,
  0x28, 0x32, 0x77, 0x3c, 0x6f, 0xff, 0xb2, 0xba, 0x8b, 0x5d, 0x3a, 0x3f,
  0xde, 0xbf, 0xd6, 0xbd, 0x11, 0x05, 0xb4, 0x3d, 0x70, 0x5c, 0xf1, 0xbb,
  0xd2, 0xae, 0x9e, 0x3e, 0x22, 0x4f, 0x0d, 0x3d, 0x57, 0x2b, 0x5b, 0xbd,
  0xd0, 0xb1, 0xf3, 0xbe, 0x70, 0x90, 0x7e, 0xbd, 0x2f, 0xaf, 0x37, 0xbd,
  0xa1, 0x8e, 0xff, 0x3d, 0xe5, 0x9d, 0x67, 0xbe, 0x27, 0x3d, 0x07, 0xbd,
  0xfe, 0xe7, 0xf9, 0x3c, 0xd3, 0xcf, 0x1f, 0x3d, 0x0f, 0x07, 0x60, 0x3d,
  0x68, 0x92, 0xe8, 0x3e, 0xed, 0xa9, 0x69, 0xbe, 0xbc, 0x9f, 0x08, 0xbe,
  0xad, 0xfa, 0x9a, 0xbc, 0x50, 0xf6, 0x39, 0xbe, 0x6d, 0xe7, 0x78, 0x3c,
  0xb2, 0xb0, 0x88, 0xbd, 0xf2, 0xa8, 0x13, 0xbf, 0x94, 0x77, 0x23, 0x3e,
  0xaa, 0x89, 0xae, 0xbe, 0x14, 0xa3, 0xc6, 0xbd, 0x5d, 0x23, 0xcd, 0xbd,
  0x15, 0x78, 0xac, 0xbd, 0x93, 0xb7, 0x7d, 0xbd, 0x57, 0xab, 0xfa, 0xbd,
  0x1b, 0xbd, 0x07, 0x3d, 0xb1, 0xd2, 0xf0, 0xbc, 0x2c, 0xe0, 0x07, 0xbe,
  0x60, 0xc9, 0x02, 0x3e, 0xb7, 0x06, 0xa1, 0xbe, 0x9c, 0x20, 0xd1, 0xbc,
  0x8c, 0xd6, 0x36, 0xbd, 0x41, 0x34, 0xb5, 0xba, 0x1d, 0xdc, 0x67, 0xbe,
  0x73, 0x06, 0x14, 0x3e, 0x9e, 0x36, 0x62, 0xbe, 0xb3, 0x47, 0x31, 0xbe,
  0x7f, 0x97, 0x1e, 0xbe, 0x3e, 0x48, 0x04, 0xbe, 0xf6, 0xef, 0x6f, 0xbd,
  0x93, 0xa0, 0x86, 0xbd, 0x0b, 0x07, 0x0d, 0xbe, 0xcc, 0xf9, 0x12, 0x3e,
  0x7e, 0x3a, 0x02, 0x3d, 0x1d, 0x90, 0xc4, 0xbc, 0x20, 0xea, 0x05, 0xbe,
  0x92, 0x8e, 0xc7, 0x3c, 0xc6, 0x70, 0xa0, 0xbd, 0xfe, 0x66, 0xd6, 0x3d,
  0xb3, 0x0f, 0xfc, 0xbd, 0xac, 0x50, 0x85, 0x3c, 0x0e, 0x0e, 0x1b, 0xbe,
  0x68, 0x36, 0xaa, 0xbd, 0xd3, 0x33, 0x3b, 0xbd, 0xdb, 0x83, 0xde, 0xbd,
  0x49, 0xd8, 0x5b, 0xbd, 0xea, 0xa2, 0x2e, 0xbd, 0x9f, 0xe5, 0x90, 0xbe,
  0xce, 0xd8, 0xcd, 0xbd, 0xb6, 0xbd, 0xba, 0x3d, 0x4b, 0x68, 0x82, 0xbd,
  0x75, 0x45, 0x22, 0xbe, 0x1f, 0x5e, 0xa3, 0xbd, 0xd9, 0xa9, 0xb4, 0xbd,
  0xb2, 0x01, 0xf3, 0x3d, 0x95, 0x2b, 0xd5, 0xbc, 0xf3, 0x88, 0xd8, 0x3b,
  0x87, 0x50, 0x10, 0xbe, 0x9f, 0xcb, 0x06, 0xbe, 0xb8, 0xfc, 0xed, 0x3c,
  0xf4, 0x6b, 0x18, 0xbe, 0xd6, 0x9b, 0xc5, 0xbd, 0x25, 0x3c, 0x70, 0x3b,
  0x10, 0x93, 0x83, 0x3d, 0x12, 0x7c, 0x21, 0xbd, 0xf1, 0x32, 0xcd, 0x3d,
  0x5e, 0x41, 0x29, 0xbd, 0xd4, 0x98, 0x10, 0xbe, 0x57, 0x5a, 0x85, 0xbc,
  0x79, 0xa1, 0x44, 0x3d, 0x3c, 0xbd, 0x52, 0x3e, 0xcc, 0x45, 0x35, 0xbd,
  0xd6, 0x59, 0xb6, 0xbd, 0x4d, 0xa9, 0x72, 0xbe, 0xfc, 0x9a, 0x24, 0xbe,
  0xf3, 0x36, 0x21, 0x3c, 0x22, 0x6a, 0x1c, 0xbe, 0x33, 0x16, 0xa2, 0xbd,
  0x59, 0x9b, 0x0d, 0xbd, 0xc8, 0x1c, 0x7d, 0x3e, 0xc7, 0x5d, 0xd5, 0x3d,
  0x6c, 0xa5, 0x97, 0x3d, 0x1e, 0x3b, 0x98, 0x3b, 0x04, 0x1b, 0xcb, 0xbd,
  0x6d, 0xe9, 0x1f, 0xbd, 0xfe, 0x3c, 0xa5, 0x3b, 0xa8, 0xac, 0xbb, 0x3c,
  0xb7, 0x31, 0x90, 0xbc, 0x06, 0xb2, 0x27, 0xbe, 0xbf, 0xed, 0xd6, 0xbd,
  0x7f, 0x36, 0x50, 0xbe, 0x25, 0x0a, 0x72, 0xbb, 0x60, 0xac, 0x0b, 0xbe,
  0xae, 0x10, 0x5d, 0xbb, 0x13, 0x44, 0x61, 0x3c, 0xc5, 0xeb, 0xf8, 0x3d,
  0x66, 0xb8, 0x25, 0xbe, 0x03, 0x59, 0xe5, 0x3c, 0xef, 0x4a, 0x01, 0x3c,
  0x46, 0x56, 0x34, 0x3d, 0xd1, 0x87, 0x47, 0x3d, 0xdc, 0xae, 0x5a, 0xbd,
  0xb7, 0x6c, 0x7d, 0x3d, 0x30, 0x1b, 0x2f, 0xbc, 0xf9, 0x7f, 0x7b, 0xbd,
  0xba, 0x8b, 0x38, 0x3d, 0x4c, 0xbd, 0x34, 0xbd, 0x8c, 0xf2, 0x70, 0x3b,
  0x7f, 0x74, 0xf6, 0xbd, 0xc4, 0x57, 0x17, 0xbe, 0x81, 0x16, 0x29, 0x3e,
  0x7f, 0x4c, 0x0a, 0xbd, 0x32, 0xc7, 0x83, 0xbd, 0x35, 0x93, 0x05, 0xbe,
  0xa0, 0x36, 0x96, 0xba, 0x67, 0x07, 0xc2, 0x3d, 0x47, 0xc1, 0x0b, 0x3e,
  0x51, 0x8b, 0x87, 0x3e, 0x55, 0xed, 0x37, 0xbd, 0x26, 0x74, 0x02, 0x3e,
  0x6a, 0x3a, 0x19, 0xbf, 0x81, 0x7f, 0xa2, 0xbe, 0xe9, 0xae, 0x9f, 0x3e,
  0xa1, 0x0b, 0x85, 0xbe, 0x8c, 0x10, 0x8e, 0x3e, 0x58, 0xcf, 0xa1, 0xbe,
  0x9d, 0xf4, 0x21, 0x3e, 0xfe, 0x27, 0x1a, 0x3d, 0xb6, 0x2c, 0xc1, 0xbe,
  0xdc, 0x41, 0x27, 0x3d, 0x95, 0x3b, 0x86, 0xbe, 0x17, 0x96, 0x38, 0xbe,
  0x4e, 0xfb, 0x15, 0x3e, 0xd4, 0xde, 0x0e, 0x3e, 0x22, 0xaa, 0x98, 0x3d,
  0xa4, 0x87, 0x33, 0xbc, 0x01, 0x42, 0x80, 0xbe, 0x47, 0xf5, 0x87, 0xbb,
  0x5b, 0xe9, 0xde, 0x3d, 0x90, 0x15, 0x09, 0x3e, 0x61, 0xbf, 0x0c, 0x3e,
  0x75, 0x0e, 0xa4, 0xbd, 0x3b, 0xa7, 0x50, 0x3e, 0xc1, 0xa1, 0x3c, 0x3d,
  0x05, 0xb2, 0x2c, 0xbe, 0x03, 0xdd, 0x0f, 0xbd, 0x0f, 0x6a, 0x06, 0xbe,
  0xad, 0xdd, 0x3f, 0xbc, 0x17, 0x45, 0x92, 0xbc, 0x8d, 0x89, 0x53, 0x3e,
  0x70, 0x1a, 0xad, 0xbe, 0xbf, 0xe1, 0x24, 0x3e, 0x21, 0x6a, 0xbe, 0x3d,
  0x3e, 0xc3, 0x19, 0xbd, 0xe4, 0xf2, 0xa0, 0x3e, 0x50, 0xe6, 0xae, 0xbd,
  0x1b, 0x1f, 0x68, 0x3e, 0x74, 0x95, 0x0f, 0xbb, 0xec, 0x5e, 0x69, 0x3e,
  0xa2, 0xa3, 0xf6, 0xbc, 0x04, 0xf4, 0xae, 0xbe, 0x59, 0x5b, 0xd0, 0x3d,
  0xd4, 0x8c, 0x17, 0xbe, 0xa5, 0xf8, 0x07, 0xbd, 0xce, 0x70, 0x40, 0xbd,
  0x85, 0x22, 0xf4, 0x3e, 0xff, 0xc1, 0x72, 0xbb, 0xee, 0xfa, 0xbb, 0xbd,
  0x04, 0x74, 0xc9, 0xbd, 0xfd, 0x35, 0xb7, 0xbd, 0x12, 0x81, 0xbb, 0x3e,
  0xfb, 0xd0, 0x32, 0xbc, 0x41, 0x09, 0xdc, 0x3d, 0x8f, 0xbd, 0x9c, 0x3c,
  0x87, 0x29, 0x7f, 0x3e, 0x37, 0xd9, 0x0b, 0x3e, 0xa1, 0xd4, 0x98, 0xbe,
  0xbd, 0x8f, 0x90, 0x3c, 0x15, 0x21, 0x58, 0xbe, 0xfd, 0x8d, 0x5b, 0xbd,
  0x41, 0x5d, 0x6d, 0x3d, 0x38, 0x49, 0x92, 0x3e, 0x9f, 0x17, 0xaf, 0xbd,
  0x18, 0x73, 0xcd, 0xbd, 0x04, 0xd1, 0xdf, 0xbd, 0x00, 0xfc, 0x39, 0xbe,
  0x01, 0x2f, 0x68, 0x3e, 0x4a, 0x27, 0x71, 0xbe, 0x50, 0x83, 0xd1, 0x3c,
  0x27, 0xdf, 0xb2, 0x3d, 0xba, 0x76, 0x63, 0x3e, 0x83, 0xb3, 0x52, 0xbd,
  0x96, 0xfa, 0xa1, 0xbe, 0xa5, 0x74, 0xda, 0xbd, 0x17, 0xf4, 0xd9, 0xbd,
  0xfc, 0x0b, 0xa6, 0xba, 0x9c, 0xec, 0xd1, 0x3e, 0xdd, 0x9b, 0x20, 0x3e,
  0x44, 0x6f, 0x7d, 0xbe, 0x54, 0x05, 0x04, 0x3e, 0x90, 0x92, 0x8c, 0xbe,
  0xc6, 0xd6, 0xb8, 0xbd, 0xec, 0xbe, 0xfa, 0x3d, 0xc3, 0x0a, 0xa1, 0xbe,
  0x8b, 0xf3, 0x01, 0x3e, 0xe3, 0xd8, 0x2d, 0xbd, 0x3a, 0x37, 0x82, 0x3e,
  0x32, 0x31, 0x1e, 0xbb, 0x5f, 0x79, 0x3d, 0xbe, 0xe5, 0xa3, 0x8e, 0x3d,
  0xe8, 0xca, 0xdd, 0xbe, 0x48, 0x5a, 0xc9, 0xbb, 0x8b, 0xfd, 0x67, 0x3e,
  0x74, 0xa9, 0xc7, 0x3e, 0x51, 0x24, 0x96, 0xbe, 0x4f, 0x81, 0x9f, 0xbc,
  0xee, 0x52, 0xc9, 0xbe, 0x65, 0xf0, 0xdd, 0x3c, 0x5d, 0xa1, 0x9d, 0x3e,
  0xe2, 0xff, 0xe8, 0xbd, 0xca, 0x5a, 0x01, 0x3d, 0x00, 0x00, 0xc9, 0xbd,
  0x45, 0xe0, 0xa1, 0x3e, 0x3d, 0x94, 0x8a, 0x3d, 0xb6, 0xc0, 0xac, 0xbe,
  0xe5, 0xba, 0xe9, 0xbc, 0xcb, 0x7c, 0x80, 0x3d, 0xa4, 0x6a, 0x5a, 0xbe,
  0xb7, 0x76, 0xcc, 0x3b, 0xfb, 0x20, 0xc1, 0x3d, 0x92, 0x50, 0xe1, 0xbd,
  0xa5, 0x11, 0x71, 0xbe, 0x0a, 0x15, 0xa8, 0xbd, 0x4c, 0x88, 0xf7, 0x3d,
  0x18, 0x36, 0x39, 0x3e, 0x67, 0xb3, 0x00, 0xbf, 0x4e, 0xc7, 0x6a, 0xbe,
  0xb5, 0x5b, 0x9f, 0x3c, 0xd7, 0x83, 0x22, 0xbe, 0x77, 0x3c, 0x48, 0x3e,
  0xdf, 0xf3, 0xfd, 0x3f, 0xd6, 0x53, 0x66, 0x3e, 0x85, 0x8a, 0xb3, 0xbe,
  0x5b, 0x3e, 0xb1, 0xbc, 0xd4, 0x1b, 0xcd, 0x3d, 0x72, 0x93, 0x04, 0x3f,
  0x6b, 0x6c, 0xdd, 0xbc, 0xfe, 0x03, 0x8d, 0x3d, 0xfc, 0xab, 0x5f, 0xbe,
  0x85, 0x05, 0x13, 0x3e, 0x63, 0x9b, 0xd3, 0x3e, 0x11, 0x0f, 0x16, 0xbe,
  0xb2, 0xb3, 0x5c, 0xbd, 0x48, 0x8b, 0x84, 0x39, 0x62, 0x93, 0x77, 0xbe,
  0xc0, 0x68, 0x62, 0x3d, 0xa8, 0xd5, 0xf1, 0x3f, 0xdf, 0xdb, 0x2d, 0xbb,
  0x62, 0x69, 0xd4, 0xbe, 0x95, 0x6a, 0x78, 0x3d, 0xbb, 0xc3, 0x15, 0xbe,
  0x4b, 0x7c, 0x08, 0x3f, 0x09, 0x7f, 0xc7, 0x3d, 0x30, 0x49, 0x26, 0x3e,
  0xcc, 0x0d, 0xba, 0xbe, 0xf3, 0xfd, 0x9f, 0xbd, 0x42, 0xe1, 0x05, 0x3f,
  0x6e, 0x6a, 0x23, 0xbe, 0xb0, 0xf5, 0x51, 0xbe, 0x56, 0xa4, 0x5c, 0x3e,
  0xf4, 0x0a, 0xe6, 0xbe, 0x51, 0xc2, 0x6d, 0x3e, 0x37, 0x0c, 0xd0, 0x3f,
  0x5f, 0x1e, 0xaf, 0x3e, 0x8f, 0x79, 0x5a, 0xbe, 0xb7, 0x3f, 0xbc, 0x3d,
  0x38, 0x69, 0x31, 0xbe, 0x80, 0xce, 0xaf, 0x3e, 0x58, 0x50, 0x3f, 0xbb,
  0x7f, 0xf0, 0x19, 0xbe, 0xc5, 0x5f, 0x87, 0xbe, 0xc9, 0xcc, 0x70, 0xbe,
  0x01, 0xd5, 0x23, 0x3f, 0x26, 0x54, 0xd0, 0x3d, 0xf8, 0x34, 0x78, 0xbe,
  0x64, 0x92, 0x1f, 0xbe, 0x93, 0x09, 0x1a, 0xbe, 0xd8, 0x16, 0x3d, 0x3e,
  0x1f, 0x47, 0x18, 0x40, 0x6e, 0xaa, 0x1a, 0x3d, 0xd3, 0xbb, 0xf6, 0xbc,
  0x40, 0x05, 0x9e, 0x3c, 0xd0, 0x5b, 0x4d, 0x3c, 0xb9, 0x07, 0xa6, 0x3e,
  0x3c, 0x1f, 0xd7, 0xbd, 0xb7, 0xdc, 0x3a, 0xbe, 0x47, 0x32, 0xe4, 0xbe,
  0x33, 0x9a, 0x36, 0xbe, 0x00, 0x19, 0xa9, 0x3e, 0x35, 0xac, 0xa6, 0xbe,
  0xe6, 0xba, 0xbd, 0xbd, 0xb2, 0x2f, 0xb9, 0x3e, 0x83, 0x55, 0xa4, 0x3c,
  0x80, 0x9e, 0x8a, 0x3e, 0x5a, 0xda, 0x09, 0x40, 0x89, 0x71, 0x02, 0xbe,
  0xd1, 0x53, 0xc8, 0xbe, 0xd3, 0xae, 0x9b, 0xbd, 0xe2, 0xd5, 0x2d, 0x3e,
  0x2c, 0x21, 0xfc, 0x3e, 0xf0, 0x95, 0x4e, 0xbe, 0x58, 0x4a, 0x39, 0xbc,
  0x1d, 0xda, 0xf3, 0xbe, 0x49, 0x77, 0x0d, 0xbf, 0xae, 0x19, 0xc0, 0x3e,
  0xab, 0x51, 0x7f, 0xbe, 0xf0, 0xae, 0x06, 0xbe, 0xb2, 0x4b, 0x67, 0x3e,
  0xfe, 0x89, 0x79, 0xbd, 0x44, 0xc1, 0xd3, 0x3e, 0x73, 0x02, 0xe9, 0x3f,
  0xd4, 0x07, 0xb1, 0xbe, 0x36, 0xe1, 0xb9, 0xbd, 0x9a, 0x01, 0x1f, 0xbe,
  0x4e, 0xe5, 0x33, 0x3d, 0x8a, 0xf4, 0x2a, 0x3e, 0x10, 0x7d, 0xd5, 0xbd,
  0xe5, 0x26, 0xd8, 0x3d, 0x2f, 0x03, 0xe1, 0x3c, 0x9d, 0x2a, 0x8f, 0xbe,
  0xb3, 0x53, 0xf6, 0xbc, 0x4a, 0x69, 0x03, 0xbe, 0x2d, 0x43, 0x3f, 0xbe,
  0x27, 0xb1, 0x16, 0xbe, 0xb5, 0xee, 0x6a, 0xbe, 0xbd, 0xdc, 0x95, 0x3d,
  0x50, 0x5e, 0x04, 0x40, 0x42, 0x85, 0x4a, 0xbe, 0x30, 0x33, 0xe4, 0xbd,
  0xbb, 0xec, 0xe2, 0xbd, 0x3f, 0x82, 0x98, 0x3c, 0xdc, 0x2e, 0x8b, 0xbe,
  0x11, 0x23, 0x40, 0x3d, 0xe3, 0x2b, 0x7a, 0xbe, 0x9d, 0x00, 0x90, 0xbe,
  0x2a, 0xf5, 0xe3, 0xbe, 0x7d, 0xa7, 0x9b, 0x3e, 0xae, 0x98, 0xca, 0xbe,
  0x54, 0xae, 0xec, 0xbd, 0x37, 0x82, 0xfe, 0xbd, 0x4b, 0x88, 0x18, 0x3d,
  0xc2, 0xb2, 0x70, 0x3e, 0x1a, 0xc6, 0xea, 0x3f, 0x3a, 0x73, 0x34, 0xbe,
  0x10, 0xc9, 0x8e, 0xbe, 0x6d, 0xfa, 0x1f, 0xbe, 0x25, 0xa3, 0x86, 0xbb,
  0x78, 0x73, 0x09, 0x3d, 0x7f, 0x14, 0xd3, 0xbd, 0x4a, 0x2c, 0x8e, 0xbe,
  0x8a, 0x04, 0x8f, 0xbe, 0xbc, 0x19, 0x8b, 0xbc, 0x6a, 0x16, 0xe8, 0x3e,
  0xf8, 0x26, 0x87, 0xbe, 0xb3, 0x18, 0xe7, 0xb9, 0x9e, 0x16, 0xe8, 0xbd,
  0xc2, 0x62, 0x19, 0xbe, 0x5d, 0xd1, 0xbe, 0x3e, 0x33, 0xb8, 0xa8, 0x3f,
  0x66, 0x86, 0x2a, 0x3d, 0x94, 0xc6, 0x4e, 0xbe, 0x7e, 0x50, 0x91, 0xbd,
  0xa2, 0x59, 0xf1, 0x3d, 0x9e, 0xc8, 0x23, 0x3f, 0xc0, 0xb8, 0x06, 0x3c,
  0xd1, 0x4b, 0x54, 0xbe, 0x90, 0xdb, 0x94, 0xbe, 0x82, 0xbd, 0x3e, 0xbb,
  0x57, 0xc3, 0x03, 0x3f, 0x5f, 0x6c, 0x73, 0xbe, 0xb2, 0x54, 0xa3, 0xbe,
  0x09, 0xb1, 0x5e, 0xbd, 0x0d, 0xbc, 0xeb, 0xbd, 0xfb, 0x91, 0xb1, 0x3d,
  0x1a, 0x23, 0x06, 0x40, 0xff, 0xe7, 0x4e, 0xbe, 0xc8, 0x03, 0x9e, 0xbe,
  0x86, 0x6e, 0x21, 0x3d, 0xaa, 0xe5, 0xb6, 0x3e, 0x37, 0xc7, 0x18, 0x3f,
  0xb6, 0x4b, 0xf0, 0xbd, 0xf9, 0xd8, 0x87, 0xbe, 0x91, 0x36, 0x6c, 0xbe,
  0x7e, 0xa6, 0x92, 0xbd, 0x7e, 0x0e, 0x62, 0xbe, 0xbf, 0x4a, 0x11, 0x3c,
  0x94, 0xca, 0x44, 0xbe, 0x8f, 0xaf, 0x11, 0xbd, 0xa0, 0x5d, 0xf6, 0xbd,
  0x53, 0xed, 0xa0, 0x3e, 0xdf, 0xd2, 0xe5, 0x3f, 0x1a, 0xab, 0xc5, 0x3d,
  0xc1, 0xb2, 0x93, 0xbe, 0x37, 0xc9, 0x37, 0x3c, 0x72, 0x80, 0x56, 0x3e,
  0x8b, 0x17, 0x43, 0x3f, 0x84, 0xfb, 0x7c, 0xbc, 0xc3, 0x97, 0x48, 0xbd,
  0xf9, 0x3d, 0xde, 0xbd, 0x2e, 0xc7, 0x9b, 0x3b, 0xe2, 0xeb, 0x99, 0x3e,
  0x46, 0xb1, 0x1e, 0xbe, 0xe3, 0x2c, 0x64, 0xbe, 0xaf, 0x42, 0x67, 0xbc,
  0xb8, 0xca, 0x51, 0xbe, 0x61, 0x25, 0x03, 0x3f, 0x45, 0x17, 0xcb, 0x3f,
  0x5a, 0x3e, 0x4c, 0xbd, 0x10, 0x83, 0x32, 0xbe, 0x5a, 0x5e, 0x4b, 0xbd,
  0x06, 0x91, 0xed, 0xba, 0x66, 0xf3, 0xd9, 0x3c, 0x0b, 0x11, 0x14, 0x3d,
  0xe5, 0xf1, 0xa4, 0xbd, 0x70, 0x56, 0xa5, 0xbe, 0xbb, 0xb2, 0xe8, 0xbd,
  0xec, 0x65, 0x80, 0x3d, 0x57, 0x07, 0xec, 0xbc, 0xc2, 0xd7, 0x57, 0xbe,
  0x27, 0xcf, 0xcf, 0xbd, 0xf3, 0xb4, 0x82, 0x3d, 0xda, 0x6a, 0x4f, 0x3d,
  0x4d, 0x6d, 0xb0, 0x3f, 0x2d, 0x43, 0xe4, 0xbd, 0x06, 0x35, 0x9d, 0xbe,
  0x49, 0xe4, 0x29, 0xbe, 0x88, 0xf8, 0xd3, 0x3e, 0xf4, 0xbb, 0x65, 0xbe,
  0x13, 0x0f, 0xb0, 0xbd, 0x93, 0x5d, 0x8c, 0xbd, 0xe9, 0xe3, 0xcc, 0xbe,
  0x7e, 0x91, 0x24, 0xbe, 0x4c, 0xaf, 0xcf, 0x3e, 0x67, 0xfc, 0xcf, 0xbd,
  0xb0, 0x61, 0x3c, 0xbe, 0x8f, 0x4d, 0x32, 0xbe, 0x03, 0x65, 0x20, 0xbd,
  0x9e, 0x89, 0x25, 0xbd, 0x86, 0x5a, 0xb5, 0x3f, 0x8b, 0xca, 0x39, 0xbe,
  0x2b, 0xce, 0x65, 0xbe, 0x25, 0xe4, 0x59, 0xbd, 0x5e, 0xfd, 0xff, 0xff,
  0x10, 0x00, 0x00, 0x00, 0x07, 0x00, 0x00, 0x00, 0x14, 0x00, 0x00, 0x00,
  0x2c, 0x00, 0x00, 0x00, 0x02, 0x00, 0x00, 0x00, 0x10, 0x00, 0x00, 0x00,
  0x70, 0x00, 0x00, 0x00, 0x17, 0x00, 0x00, 0x00, 0x73, 0x65, 0x71, 0x75,
  0x65, 0x6e, 0x74, 0x69, 0x61, 0x6c, 0x2f, 0x64, 0x65, 0x6e, 0x73, 0x65,
  0x2f, 0x4d, 0x61, 0x74, 0x4d, 0x75, 0x6c, 0x00, 0xc8, 0xfc, 0xff, 0xff,
  0xd2, 0xfd, 0xff, 0xff, 0x04, 0x00, 0x00, 0x00, 0x08, 0x00, 0x00, 0x00,
  0xff, 0xff, 0xff, 0xff, 0x70, 0x00, 0x00, 0x00, 0x00, 0x00, 0x0e, 0x00,
  0x18, 0x00, 0x08, 0x00, 0x07, 0x00, 0x0c, 0x00, 0x10, 0x00, 0x14, 0x00,
  0x0e, 0x00, 0x00, 0x00, 0x00, 0x00, 0x00, 0x02, 0x10, 0x00, 0x00, 0x00,
  0x06, 0x00, 0x00, 0x00, 0x10, 0x00, 0x00, 0x00, 0x2c, 0x00, 0x00, 0x00,
  0x01, 0x00, 0x00, 0x00, 0x02, 0x00, 0x00, 0x00, 0x18, 0x00, 0x00, 0x00,
  0x73, 0x65, 0x71, 0x75, 0x65, 0x6e, 0x74, 0x69, 0x61, 0x6c, 0x2f, 0x66,
  0x6c, 0x61, 0x74, 0x74, 0x65, 0x6e, 0x2f, 0x43, 0x6f, 0x6e, 0x73, 0x74,
  0x00, 0x00, 0x00, 0x00, 0x30, 0xfd, 0xff, 0xff, 0x3a, 0xfe, 0xff, 0xff,
  0x04, 0x00, 0x00, 0x00, 0x14, 0x00, 0x00, 0x00, 0x1e, 0x8d, 0xfa, 0xbf,
  0x57, 0x22, 0x42, 0x40, 0x84, 0xa9, 0xb3, 0xbf, 0x30, 0x70, 0x4b, 0xbf,
  0x42, 0x25, 0x30, 0x3e, 0x26, 0xfe, 0xff, 0xff, 0x10, 0x00, 0x00, 0x00,
  0x05, 0x00, 0x00, 0x00, 0x10, 0x00, 0x00, 0x00, 0x44, 0x00, 0x00, 0x00,
  0x01, 0x00, 0x00, 0x00, 0x05, 0x00, 0x00, 0x00, 0x32, 0x00, 0x00, 0x00,
  0x73, 0x65, 0x71, 0x75, 0x65, 0x6e, 0x74, 0x69, 0x61, 0x6c, 0x2f, 0x64,
  0x65, 0x6e, 0x73, 0x65, 0x5f, 0x31, 0x2f, 0x42, 0x69, 0x61, 0x73, 0x41,
  0x64, 0x64, 0x2f, 0x52, 0x65, 0x61, 0x64, 0x56, 0x61, 0x72, 0x69, 0x61,
  0x62, 0x6c, 0x65, 0x4f, 0x70, 0x2f, 0x72, 0x65, 0x73, 0x6f, 0x75, 0x72,
  0x63, 0x65, 0x00, 0x00, 0xa8, 0xfd, 0xff, 0xff, 0xb2, 0xfe, 0xff, 0xff,
  0x04, 0x00, 0x00, 0x00, 0x40, 0x00, 0x00, 0x00, 0x17, 0x9c, 0xde, 0x3f,
  0xfe, 0x6f, 0xef, 0x3c, 0x0c, 0x78, 0x80, 0x3f, 0x42, 0x11, 0xf1, 0x3f,
  0xa9, 0x94, 0xb9, 0x3e, 0x67, 0x20, 0x2e, 0x3e, 0x26, 0xc7, 0x8d, 0x3f,
  0x40, 0x19, 0x48, 0x3f, 0x22, 0x84, 0x83, 0x3f, 0x9c, 0xc9, 0x84, 0xbe,
  0x50, 0x44, 0x6d, 0x3f, 0xcb, 0x61, 0x08, 0x3f, 0x00, 0x5b, 0x3f, 0x40,
  0x94, 0x60, 0x7b, 0x3f, 0x56, 0xa5, 0x9f, 0x3f, 0x8d, 0xee, 0x60, 0x3f,
  0xca, 0xfe, 0xff, 0xff, 0x10, 0x00, 0x00, 0x00, 0x04, 0x00, 0x00, 0x00,
  0x10, 0x00, 0x00, 0x00, 0x44, 0x00, 0x00, 0x00, 0x01, 0x00, 0x00, 0x00,
  0x10, 0x00, 0x00, 0x00, 0x30, 0x00, 0x00, 0x00, 0x73, 0x65, 0x71, 0x75,
  0x65, 0x6e, 0x74, 0x69, 0x61, 0x6c, 0x2f, 0x64, 0x65, 0x6e, 0x73, 0x65,
  0x2f, 0x42, 0x69, 0x61, 0x73, 0x41, 0x64, 0x64, 0x2f, 0x52, 0x65, 0x61,
  0x64, 0x56, 0x61, 0x72, 0x69, 0x61, 0x62, 0x6c, 0x65, 0x4f, 0x70, 0x2f,
  0x72, 0x65, 0x73, 0x6f, 0x75, 0x72, 0x63, 0x65, 0x00, 0x00, 0x00, 0x00,
  0x4c, 0xfe, 0xff, 0xff, 0x56, 0xff, 0xff, 0xff, 0x04, 0x00, 0x00, 0x00,
  0x40, 0x00, 0x00, 0x00, 0x33, 0x96, 0x0c, 0x3f, 0x55, 0x36, 0xf2, 0x3f,
  0x93, 0x07, 0x7d, 0xbf, 0x3f, 0x8c, 0x24, 0xbe, 0x6f, 0x35, 0x5d, 0xbf,
  0xca, 0xb0, 0x44, 0x3f, 0x62, 0x4c, 0x11, 0x3f, 0xa6, 0xb0, 0xaf, 0xbf,
  0x31, 0x30, 0x15, 0x3f, 0xea, 0x76, 0xa7, 0x3e, 0xb4, 0xb8, 0x65, 0x3e,
  0x12, 0xc4, 0x8f, 0x3e, 0xa5, 0xb5, 0x7d, 0x40, 0xde, 0x14, 0xa9, 0xbe,
  0x34, 0x54, 0x1e, 0xbf, 0x59, 0xe1, 0x34, 0x3e, 0x6e, 0xff, 0xff, 0xff,
  0x10, 0x00, 0x00, 0x00, 0x03, 0x00, 0x00, 0x00, 0x10, 0x00, 0x00, 0x00,
  0x48, 0x00, 0x00, 0x00, 0x01, 0x00, 0x00, 0x00, 0x10, 0x00, 0x00, 0x00,
  0x33, 0x00, 0x00, 0x00, 0x73, 0x65, 0x71, 0x75, 0x65, 0x6e, 0x74, 0x69,
  0x61, 0x6c, 0x2f, 0x63, 0x6f, 0x6e, 0x76, 0x32, 0x64, 0x5f, 0x31, 0x2f,
  0x42, 0x69, 0x61, 0x73, 0x41, 0x64, 0x64, 0x2f, 0x52, 0x65, 0x61, 0x64,
  0x56, 0x61, 0x72, 0x69, 0x61, 0x62, 0x6c, 0x65, 0x4f, 0x70, 0x2f, 0x72,
  0x65, 0x73, 0x6f, 0x75, 0x72, 0x63, 0x65, 0x00, 0x04, 0x00, 0x06, 0x00,
  0x04, 0x00, 0x00, 0x00, 0x00, 0x00, 0x06, 0x00, 0x08, 0x00, 0x04, 0x00,
  0x06, 0x00, 0x00, 0x00, 0x04, 0x00, 0x00, 0x00, 0x20, 0x00, 0x00, 0x00,
  0x3b, 0x7e, 0x26, 0xc0, 0x04, 0x2c, 0x40, 0x3f, 0x22, 0x7a, 0x1c, 0xc0,
  0x0e, 0xf5, 0xc4, 0xbf, 0xe3, 0xb3, 0x21, 0xbe, 0x8c, 0x28, 0xe4, 0x3d,
  0xb6, 0x5c, 0xbe, 0x3e, 0xf8, 0x0f, 0xbf, 0xbf, 0x00, 0x00, 0x0e, 0x00,
  0x14, 0x00, 0x04, 0x00, 0x00, 0x00, 0x08, 0x00, 0x0c, 0x00, 0x10, 0x00,
  0x0e, 0x00, 0x00, 0x00, 0x10, 0x00, 0x00, 0x00, 0x02, 0x00, 0x00, 0x00,
  0x10, 0x00, 0x00, 0x00, 0x44, 0x00, 0x00, 0x00, 0x01, 0x00, 0x00, 0x00,
  0x08, 0x00, 0x00, 0x00, 0x31, 0x00, 0x00, 0x00, 0x73, 0x65, 0x71, 0x75,
  0x65, 0x6e, 0x74, 0x69, 0x61, 0x6c, 0x2f, 0x63, 0x6f, 0x6e, 0x76, 0x32,
  0x64, 0x2f, 0x42, 0x69, 0x61, 0x73, 0x41, 0x64, 0x64, 0x2f, 0x52, 0x65,
  0x61, 0x64, 0x56, 0x61, 0x72, 0x69, 0x61, 0x62, 0x6c, 0x65, 0x4f, 0x70,
  0x2f, 0x72, 0x65, 0x73, 0x6f, 0x75, 0x72, 0x63, 0x65, 0x00, 0x00, 0x00,
  0x90, 0xff, 0xff, 0xff, 0x14, 0x00, 0x18, 0x00, 0x04, 0x00, 0x00, 0x00,
  0x08, 0x00, 0x0c, 0x00, 0x10, 0x00, 0x00, 0x00, 0x00, 0x00, 0x14, 0x00,
  0x14, 0x00, 0x00, 0x00, 0x14, 0x00, 0x00, 0x00, 0x01, 0x00, 0x00, 0x00,
  0x20, 0x00, 0x00, 0x00, 0x44, 0x00, 0x00, 0x00, 0x2c, 0x00, 0x00, 0x00,
  0x04, 0x00, 0x00, 0x00, 0x01, 0x00, 0x00, 0x00, 0x40, 0x00, 0x00, 0x00,
  0x03, 0x00, 0x00, 0x00, 0x01, 0x00, 0x00, 0x00, 0x0c, 0x00, 0x00, 0x00,
  0x63, 0x6f, 0x6e, 0x76, 0x32, 0x64, 0x5f, 0x69, 0x6e, 0x70, 0x75, 0x74,
  0x00, 0x00, 0x00, 0x00, 0x04, 0x00, 0x00, 0x00, 0xff, 0xff, 0xff, 0xff,
  0x40, 0x00, 0x00, 0x00, 0x03, 0x00, 0x00, 0x00, 0x01, 0x00, 0x00, 0x00,
  0xfc, 0xff, 0xff, 0xff, 0x04, 0x00, 0x04, 0x00, 0x04, 0x00, 0x00, 0x00
};

unsigned int model_tflite_len = 13188;// Fill the int in `src/model.cc` here