#include "magic_wand_model_data.h"

// We need to keep the data array aligned on some architectures.
#ifdef __has_attribute
#define HAVE_ATTRIBUTE(x) __has_attribute(x)
#else
#define HAVE_ATTRIBUTE(x) 0
#endif
#if HAVE_ATTRIBUTE(aligned) || (defined(__GNUC__) && !defined(__clang__))
#define DATA_ALIGN_ATTRIBUTE __attribute__((aligned(4)))
#else
#define DATA_ALIGN_ATTRIBUTE
#endif

const unsigned char g_magic_wand_model_data[] DATA_ALIGN_ATTRIBUTE = {
  0x1c, 0x00, 0x00, 0x00, 0x54, 0x46, 0x4c, 0x33, 0x14, 0x00, 0x20, 0x00,
  0x04, 0x00, 0x08, 0x00, 0x0c, 0x00, 0x10, 0x00, 0x14, 0x00, 0x00, 0x00,
  0x18, 0x00, 0x1c, 0x00, 0x14, 0x00, 0x00, 0x00, 0x03, 0x00, 0x00, 0x00,
  0x18, 0x00, 0x00, 0x00, 0x2c, 0x00, 0x00, 0x00, 0xd8, 0x00, 0x00, 0x00,
  0x2c, 0x00, 0x00, 0x00, 0x80, 0x00, 0x00, 0x00, 0x78, 0x00, 0x00, 0x00,
  0x05, 0x00, 0x00, 0x00, 0x28, 0x07, 0x00, 0x00, 0x44, 0x06, 0x00, 0x00,
  0xbc, 0x03, 0x00, 0x00, 0xf8, 0x02, 0x00, 0x00, 0xac, 0x01, 0x00, 0x00,
  0x01, 0x00, 0x00, 0x00, 0xd0, 0x00, 0x00, 0x00, 0x14, 0x00, 0x00, 0x00,
  0x98, 0x32, 0x00, 0x00, 0x94, 0x32, 0x00, 0x00, 0x8c, 0x31, 0x00, 0x00,
  0xd8, 0x30, 0x00, 0x00, 0x30, 0x30, 0x00, 0x00, 0xbc, 0x2f, 0x00, 0x00,
  0x50, 0x2f, 0x00, 0x00, 0x00, 0x13, 0x00, 0x00, 0xec, 0x11, 0x00, 0x00,
  0x10, 0x10, 0x00, 0x00, 0xb4, 0x07, 0x00, 0x00, 0x6c, 0x32, 0x00, 0x00,
  0x68, 0x32, 0x00, 0x00, 0x64, 0x32, 0x00, 0x00, 0x60, 0x32, 0x00, 0x00,
  0x5c, 0x32, 0x00, 0x00, 0x58, 0x32, 0x00, 0x00, 0x54, 0x32, 0x00, 0x00,
  0x50, 0x32, 0x00, 0x00, 0x3c, 0x00, 0x00, 0x00, 0x00, 0x00, 0x00, 0x00,
  0x01, 0x00, 0x00, 0x00, 0x0c, 0x00, 0x00, 0x00, 0x08, 0x00, 0x0c, 0x00,
  0x04, 0x00, 0x08, 0x00, 0x08, 0x00, 0x00, 0x00, 0x08, 0x00, 0x00, 0x00,
  0x13, 0x00, 0x00, 0x00, 0x13, 0x00, 0x00, 0x00, 0x6d, 0x69, 0x6e, 0x5f,
  0x72, 0x75, 0x6e, 0x74, 0x69, 0x6d, 0x65, 0x5f, 0x76, 0x65, 0x72, 0x73,
  0x69, 0x6f, 0x6e, 0x00, 0xfa, 0xce, 0xff, 0xff, 0x04, 0x00, 0x00, 0x00,
  0x10, 0x00, 0x00, 0x00, 0x31, 0x2e, 0x35, 0x2e, 0x30, 0x00, 0x00, 0x00,
  0x00, 0x00, 0x00, 0x00, 0x00, 0x00, 0x00, 0x00, 0x0f, 0x00, 0x00, 0x00,
  0x4d, 0x4c, 0x49, 0x52, 0x20, 0x43, 0x6f, 0x6e, 0x76, 0x65, 0x72, 0x74,
  0x65, 0x64, 0x2e, 0x00, 0x00, 0x00, 0x0e, 0x00, 0x18, 0x00, 0x04, 0x00,
  0x08, 0x00, 0x0c, 0x00, 0x10, 0x00, 0x14, 0x00, 0x0e, 0x00, 0x00, 0x00,
  0x14, 0x00, 0x00, 0x00, 0x5c, 0x00, 0x00, 0x00, 0x60, 0x00, 0x00, 0x00,
  0x64, 0x00, 0x00, 0x00, 0x84, 0x00, 0x00, 0x00, 0x12, 0x00, 0x00, 0x00,
  0x58, 0x31, 0x00, 0x00, 0xe8, 0x30, 0x00, 0x00, 0x44, 0x30, 0x00, 0x00,
  0x9c, 0x2f, 0x00, 0x00, 0xf4, 0x2e, 0x00, 0x00, 0x94, 0x2e, 0x00, 0x00,
  0x2c, 0x2e, 0x00, 0x00, 0xd8, 0x11, 0x00, 0x00, 0xbc, 0x10, 0x00, 0x00,
  0xe0, 0x0e, 0x00, 0x00, 0x0c, 0x06, 0x00, 0x00, 0x28, 0x05, 0x00, 0x00,
  0xe8, 0x03, 0x00, 0x00, 0x3c, 0x03, 0x00, 0x00, 0x98, 0x02, 0x00, 0x00,
  0xd4, 0x01, 0x00, 0x00, 0x10, 0x01, 0x00, 0x00, 0x84, 0x00, 0x00, 0x00,
  0x01, 0x00, 0x00, 0x00, 0x00, 0x00, 0x00, 0x00, 0x01, 0x00, 0x00, 0x00,
  0x11, 0x00, 0x00, 0x00, 0x08, 0x00, 0x00, 0x00, 0x74, 0x05, 0x00, 0x00,
  0x94, 0x04, 0x00, 0x00, 0x78, 0x03, 0x00, 0x00, 0xbc, 0x02, 0x00, 0x00,
  0x30, 0x02, 0x00, 0x00, 0x50, 0x01, 0x00, 0x00, 0xa8, 0x00, 0x00, 0x00,
  0x10, 0x00, 0x00, 0x00, 0x04, 0x00, 0x00, 0x00, 0x6d, 0x61, 0x69, 0x6e,
  0x00, 0x00, 0x00, 0x00, 0x7a, 0xff, 0xff, 0xff, 0x00, 0x00, 0x00, 0x09,
  0x04, 0x00, 0x00, 0x00, 0x1c, 0x00, 0x00, 0x00, 0x10, 0x00, 0x00, 0x00,
  0x04, 0x00, 0x00, 0x00, 0xf6, 0xcf, 0xff, 0xff, 0x00, 0x00, 0x80, 0x3f,
  0x01, 0x00, 0x00, 0x00, 0x11, 0x00, 0x00, 0x00, 0x01, 0x00, 0x00, 0x00,
  0x10, 0x00, 0x00, 0x00, 0xa0, 0xfa, 0xff, 0xff, 0x19, 0x00, 0x00, 0x00,
  0x00, 0x00, 0x00, 0x19, 0x01, 0x00, 0x00, 0x00, 0x84, 0xcf, 0xff, 0xff,
  0x14, 0x00, 0x00, 0x00, 0x12, 0x00, 0x00, 0x00, 0x18, 0x00, 0x00, 0x00,
  0x30, 0x00, 0x00, 0x00, 0x20, 0x00, 0x00, 0x00, 0x02, 0x00, 0x00, 0x00,
  0x01, 0x00, 0x00, 0x00, 0x03, 0x00, 0x00, 0x00, 0x08, 0x00, 0x00, 0x00,
  0x49, 0x64, 0x65, 0x6e, 0x74, 0x69, 0x74, 0x79, 0x00, 0x00, 0x00, 0x00,
  0x02, 0x00, 0x00, 0x00, 0xff, 0xff, 0xff, 0xff, 0x03, 0x00, 0x00, 0x00,
  0x68, 0xd0, 0xff, 0xff, 0x00, 0x00, 0x0e, 0x00, 0x18, 0x00, 0x08, 0x00,
  0x0c, 0x00, 0x10, 0x00, 0x07, 0x00, 0x14, 0x00, 0x0e, 0x00, 0x00, 0x00,
  0x00, 0x00, 0x00, 0x08, 0x03, 0x00, 0x00, 0x00, 0x18, 0x00, 0x00, 0x00,
  0x0c, 0x00, 0x00, 0x00, 0x04, 0x00, 0x00, 0x00, 0x84, 0xcf, 0xff, 0xff,
  0x01, 0x00, 0x00, 0x00, 0x10, 0x00, 0x00, 0x00, 0x03, 0x00, 0x00, 0x00,
  0x0f, 0x00, 0x00, 0x00, 0x07, 0x00, 0x00, 0x00, 0x04, 0x00, 0x00, 0x00,
  0x0c, 0xd0, 0xff, 0xff, 0x14, 0x00, 0x00, 0x00, 0x11, 0x00, 0x00, 0x00,
  0x18, 0x00, 0x00, 0x00, 0x5c, 0x00, 0x00, 0x00, 0x4c, 0x00, 0x00, 0x00,
  0x02, 0x00, 0x00, 0x00, 0x01, 0x00, 0x00, 0x00, 0x03, 0x00, 0x00, 0x00,
  0x34, 0x00, 0x00, 0x00, 0x73, 0x65, 0x71, 0x75, 0x65, 0x6e, 0x74, 0x69,
  0x61, 0x6c, 0x2f, 0x64, 0x65, 0x6e, 0x73, 0x65, 0x5f, 0x31, 0x2f, 0x4d,
  0x61, 0x74, 0x4d, 0x75, 0x6c, 0x3b, 0x73, 0x65, 0x71, 0x75, 0x65, 0x6e,
  0x74, 0x69, 0x61, 0x6c, 0x2f, 0x64, 0x65, 0x6e, 0x73, 0x65, 0x5f, 0x31,
  0x2f, 0x42, 0x69, 0x61, 0x73, 0x41, 0x64, 0x64, 0x00, 0x00, 0x00, 0x00,
  0x02, 0x00, 0x00, 0x00, 0xff, 0xff, 0xff, 0xff, 0x03, 0x00, 0x00, 0x00,
  0x0c, 0xd0, 0xff, 0xff, 0xda, 0xfc, 0xff, 0xff, 0x00, 0x00, 0x00, 0x08,
  0x03, 0x00, 0x00, 0x00, 0x24, 0x00, 0x00, 0x00, 0x18, 0x00, 0x00, 0x00,
  0x0c, 0x00, 0x00, 0x00, 0x00, 0x00, 0x06, 0x00, 0x08, 0x00, 0x07, 0x00,
  0x06, 0x00, 0x00, 0x00, 0x00, 0x00, 0x00, 0x01, 0x01, 0x00, 0x00, 0x00,
  0x0f, 0x00, 0x00, 0x00, 0x03, 0x00, 0x00, 0x00, 0x0e, 0x00, 0x00, 0x00,
  0x06, 0x00, 0x00, 0x00, 0x03, 0x00, 0x00, 0x00, 0xe8, 0xfb, 0xff, 0xff,
  0x09, 0x00, 0x00, 0x00, 0x00, 0x00, 0x00, 0x09, 0x01, 0x00, 0x00, 0x00,
  0xcc, 0xd0, 0xff, 0xff, 0x14, 0x00, 0x00, 0x00, 0x10, 0x00, 0x00, 0x00,
  0x18, 0x00, 0x00, 0x00, 0x6c, 0x00, 0x00, 0x00, 0x5c, 0x00, 0x00, 0x00,
  0x02, 0x00, 0x00, 0x00, 0x01, 0x00, 0x00, 0x00, 0x10, 0x00, 0x00, 0x00,
  0x46, 0x00, 0x00, 0x00, 0x73, 0x65, 0x71, 0x75, 0x65, 0x6e, 0x74, 0x69,
  0x61, 0x6c, 0x2f, 0x64, 0x65, 0x6e, 0x73, 0x65, 0x2f, 0x4d, 0x61, 0x74,
  0x4d, 0x75, 0x6c, 0x3b, 0x73, 0x65, 0x71, 0x75, 0x65, 0x6e, 0x74, 0x69,
  0x61, 0x6c, 0x2f, 0x64, 0x65, 0x6e, 0x73, 0x65, 0x2f, 0x52, 0x65, 0x6c,
  0x75, 0x3b, 0x73, 0x65, 0x71, 0x75, 0x65, 0x6e, 0x74, 0x69, 0x61, 0x6c,
  0x2f, 0x64, 0x65, 0x6e, 0x73, 0x65, 0x2f, 0x42, 0x69, 0x61, 0x73, 0x41,
  0x64, 0x64, 0x00, 0x00, 0x02, 0x00, 0x00, 0x00, 0xff, 0xff, 0xff, 0xff,
  0x10, 0x00, 0x00, 0x00, 0xec, 0xd1, 0xff, 0xff, 0x00, 0x00, 0x0a, 0x00,
  0x10, 0x00, 0x04, 0x00, 0x08, 0x00, 0x0c, 0x00, 0x0a, 0x00, 0x00, 0x00,
  0x02, 0x00, 0x00, 0x00, 0x10, 0x00, 0x00, 0x00, 0x04, 0x00, 0x00, 0x00,
  0x01, 0x00, 0x00, 0x00, 0x0e, 0x00, 0x00, 0x00, 0x02, 0x00, 0x00, 0x00,
  0x0d, 0x00, 0x00, 0x00, 0x05, 0x00, 0x00, 0x00, 0xa8, 0xfc, 0xff, 0xff,
  0x16, 0x00, 0x00, 0x00, 0x00, 0x00, 0x00, 0x16, 0x01, 0x00, 0x00, 0x00,
  0x8c, 0xd1, 0xff, 0xff, 0x14, 0x00, 0x00, 0x00, 0x0f, 0x00, 0x00, 0x00,
  0x18, 0x00, 0x00, 0x00, 0x40, 0x00, 0x00, 0x00, 0x30, 0x00, 0x00, 0x00,
  0x02, 0x00, 0x00, 0x00, 0x01, 0x00, 0x00, 0x00, 0x70, 0x00, 0x00, 0x00,
  0x1a, 0x00, 0x00, 0x00, 0x73, 0x65, 0x71, 0x75, 0x65, 0x6e, 0x74, 0x69,
  0x61, 0x6c, 0x2f, 0x66, 0x6c, 0x61, 0x74, 0x74, 0x65, 0x6e, 0x2f, 0x52,
  0x65, 0x73, 0x68, 0x61, 0x70, 0x65, 0x00, 0x00, 0x02, 0x00, 0x00, 0x00,
  0xff, 0xff, 0xff, 0xff, 0x70, 0x00, 0x00, 0x00, 0x70, 0xd1, 0xff, 0xff,
  0x3e, 0xfe, 0xff, 0xff, 0x00, 0x00, 0x00, 0x05, 0x01, 0x00, 0x00, 0x00,
  0x38, 0x00, 0x00, 0x00, 0x2c, 0x00, 0x00, 0x00, 0x14, 0x00, 0x00, 0x00,
  0x00, 0x00, 0x0e, 0x00, 0x14, 0x00, 0x00, 0x00, 0x10, 0x00, 0x0c, 0x00,
  0x08, 0x00, 0x04, 0x00, 0x0e, 0x00, 0x00, 0x00, 0x03, 0x00, 0x00, 0x00,
  0x01, 0x00, 0x00, 0x00, 0x03, 0x00, 0x00, 0x00, 0x01, 0x00, 0x00, 0x00,
  0x01, 0x00, 0x00, 0x00, 0x0d, 0x00, 0x00, 0x00, 0x01, 0x00, 0x00, 0x00,
  0x0c, 0x00, 0x00, 0x00, 0x2c, 0xd2, 0xff, 0xff, 0x14, 0x00, 0x00, 0x00,
  0x0e, 0x00, 0x00, 0x00, 0x20, 0x00, 0x00, 0x00, 0x58, 0x00, 0x00, 0x00,
  0x40, 0x00, 0x00, 0x00, 0x04, 0x00, 0x00, 0x00, 0x01, 0x00, 0x00, 0x00,
  0x07, 0x00, 0x00, 0x00, 0x01, 0x00, 0x00, 0x00, 0x10, 0x00, 0x00, 0x00,
  0x22, 0x00, 0x00, 0x00, 0x73, 0x65, 0x71, 0x75, 0x65, 0x6e, 0x74, 0x69,
  0x61, 0x6c, 0x2f, 0x6d, 0x61, 0x78, 0x5f, 0x70, 0x6f, 0x6f, 0x6c, 0x69,
  0x6e, 0x67, 0x32, 0x64, 0x5f, 0x31, 0x2f, 0x4d, 0x61, 0x78, 0x50, 0x6f,
  0x6f, 0x6c, 0x00, 0x00, 0x04, 0x00, 0x00, 0x00, 0xff, 0xff, 0xff, 0xff,
  0x07, 0x00, 0x00, 0x00, 0x01, 0x00, 0x00, 0x00, 0x10, 0x00, 0x00, 0x00,
  0x28, 0xd2, 0xff, 0xff, 0x1a, 0xfe, 0xff, 0xff, 0x00, 0x00, 0x00, 0x01,
  0x24, 0x00, 0x00, 0x00, 0x18, 0x00, 0x00, 0x00, 0x04, 0x00, 0x00, 0x00,
  0x0c, 0xfe, 0xff, 0xff, 0x01, 0x00, 0x00, 0x00, 0x01, 0x00, 0x00, 0x00,
  0x00, 0x00, 0x00, 0x01, 0x01, 0x00, 0x00, 0x00, 0x0c, 0x00, 0x00, 0x00,
  0x03, 0x00, 0x00, 0x00, 0x0b, 0x00, 0x00, 0x00, 0x09, 0x00, 0x00, 0x00,
  0x02, 0x00, 0x00, 0x00, 0xd4, 0xd2, 0xff, 0xff, 0x14, 0x00, 0x00, 0x00,
  0x0d, 0x00, 0x00, 0x00, 0x20, 0x00, 0x00, 0x00, 0xb8, 0x00, 0x00, 0x00,
  0xa0, 0x00, 0x00, 0x00, 0x04, 0x00, 0x00, 0x00, 0x01, 0x00, 0x00, 0x00,
  0x15, 0x00, 0x00, 0x00, 0x01, 0x00, 0x00, 0x00, 0x10, 0x00, 0x00, 0x00,
  0x83, 0x00, 0x00, 0x00, 0x73, 0x65, 0x71, 0x75, 0x65, 0x6e, 0x74, 0x69,
  0x61, 0x6c, 0x2f, 0x63, 0x6f, 0x6e, 0x76, 0x32, 0x64, 0x5f, 0x31, 0x2f,
  0x52, 0x65, 0x6c, 0x75, 0x3b, 0x73, 0x65, 0x71, 0x75, 0x65, 0x6e, 0x74,
  0x69, 0x61, 0x6c, 0x2f, 0x63, 0x6f, 0x6e, 0x76, 0x32, 0x64, 0x5f, 0x31,
  0x2f, 0x42, 0x69, 0x61, 0x73, 0x41, 0x64, 0x64, 0x3b, 0x73, 0x65, 0x71,
  0x75, 0x65, 0x6e, 0x74, 0x69, 0x61, 0x6c, 0x2f, 0x63, 0x6f, 0x6e, 0x76,
  0x32, 0x64, 0x5f, 0x31, 0x2f, 0x43, 0x6f, 0x6e, 0x76, 0x32, 0x44, 0x3b,
  0x73, 0x65, 0x71, 0x75, 0x65, 0x6e, 0x74, 0x69, 0x61, 0x6c, 0x2f, 0x63,
  0x6f, 0x6e, 0x76, 0x32, 0x64, 0x5f, 0x31, 0x2f, 0x42, 0x69, 0x61, 0x73,
  0x41, 0x64, 0x64, 0x2f, 0x52, 0x65, 0x61, 0x64, 0x56, 0x61, 0x72, 0x69,
  0x61, 0x62, 0x6c, 0x65, 0x4f, 0x70, 0x2f, 0x72, 0x65, 0x73, 0x6f, 0x75,
  0x72, 0x63, 0x65, 0x00, 0x04, 0x00, 0x00, 0x00, 0xff, 0xff, 0xff, 0xff,
  0x15, 0x00, 0x00, 0x00, 0x01, 0x00, 0x00, 0x00, 0x10, 0x00, 0x00, 0x00,
  0x40, 0xd4, 0xff, 0xff, 0x00, 0x00, 0x0e, 0x00, 0x1a, 0x00, 0x08, 0x00,
  0x0c, 0x00, 0x10, 0x00, 0x07, 0x00, 0x14, 0x00, 0x0e, 0x00, 0x00, 0x00,
  0x00, 0x00, 0x00, 0x05, 0x01, 0x00, 0x00, 0x00, 0x3c, 0x00, 0x00, 0x00,
  0x30, 0x00, 0x00, 0x00, 0x14, 0x00, 0x00, 0x00, 0x00, 0x00, 0x0e, 0x00,
  0x18, 0x00, 0x17, 0x00, 0x10, 0x00, 0x0c, 0x00, 0x08, 0x00, 0x04, 0x00,
  0x0e, 0x00, 0x00, 0x00, 0x03, 0x00, 0x00, 0x00, 0x03, 0x00, 0x00, 0x00,
  0x03, 0x00, 0x00, 0x00, 0x03, 0x00, 0x00, 0x00, 0x00, 0x00, 0x00, 0x01,
  0x01, 0x00, 0x00, 0x00, 0x0b, 0x00, 0x00, 0x00, 0x01, 0x00, 0x00, 0x00,
  0x0a, 0x00, 0x00, 0x00, 0x2c, 0xff, 0xff, 0xff, 0x11, 0x00, 0x00, 0x00,
  0x00, 0x00, 0x00, 0x11, 0x01, 0x00, 0x00, 0x00, 0x10, 0xd4, 0xff, 0xff,
  0x14, 0x00, 0x00, 0x00, 0x0c, 0x00, 0x00, 0x00, 0x20, 0x00, 0x00, 0x00,
  0x58, 0x00, 0x00, 0x00, 0x40, 0x00, 0x00, 0x00, 0x04, 0x00, 0x00, 0x00,
  0x01, 0x00, 0x00, 0x00, 0x15, 0x00, 0x00, 0x00, 0x01, 0x00, 0x00, 0x00,
  0x08, 0x00, 0x00, 0x00, 0x20, 0x00, 0x00, 0x00, 0x73, 0x65, 0x71, 0x75,
  0x65, 0x6e, 0x74, 0x69, 0x61, 0x6c, 0x2f, 0x6d, 0x61, 0x78, 0x5f, 0x70,
  0x6f, 0x6f, 0x6c, 0x69, 0x6e, 0x67, 0x32, 0x64, 0x2f, 0x4d, 0x61, 0x78,
  0x50, 0x6f, 0x6f, 0x6c, 0x00, 0x00, 0x00, 0x00, 0x04, 0x00, 0x00, 0x00,
  0xff, 0xff, 0xff, 0xff, 0x15, 0x00, 0x00, 0x00, 0x01, 0x00, 0x00, 0x00,
  0x08, 0x00, 0x00, 0x00, 0x1c, 0xd5, 0xff, 0xff, 0x00, 0x00, 0x0e, 0x00,
  0x14, 0x00, 0x00, 0x00, 0x08, 0x00, 0x0c, 0x00, 0x07, 0x00, 0x10, 0x00,
  0x0e, 0x00, 0x00, 0x00, 0x00, 0x00, 0x00, 0x01, 0x30, 0x00, 0x00, 0x00,
  0x24, 0x00, 0x00, 0x00, 0x10, 0x00, 0x00, 0x00, 0x0c, 0x00, 0x10, 0x00,
  0x00, 0x00, 0x04, 0x00, 0x08, 0x00, 0x0f, 0x00, 0x0c, 0x00, 0x00, 0x00,
  0x01, 0x00, 0x00, 0x00, 0x01, 0x00, 0x00, 0x00, 0x00, 0x00, 0x00, 0x01,
  0x01, 0x00, 0x00, 0x00, 0x0a, 0x00, 0x00, 0x00, 0x03, 0x00, 0x00, 0x00,
  0x00, 0x00, 0x00, 0x00, 0x08, 0x00, 0x00, 0x00, 0x01, 0x00, 0x00, 0x00,
  0x0c, 0x00, 0x10, 0x00, 0x0b, 0x00, 0x00, 0x00, 0x0c, 0x00, 0x04, 0x00,
  0x0c, 0x00, 0x00, 0x00, 0x03, 0x00, 0x00, 0x00, 0x00, 0x00, 0x00, 0x03,
  0x01, 0x00, 0x00, 0x00, 0xf0, 0xd4, 0xff, 0xff, 0x14, 0x00, 0x00, 0x00,
  0x0b, 0x00, 0x00, 0x00, 0x20, 0x00, 0x00, 0x00, 0xb0, 0x00, 0x00, 0x00,
  0x98, 0x00, 0x00, 0x00, 0x04, 0x00, 0x00, 0x00, 0x01, 0x00, 0x00, 0x00,
  0x40, 0x00, 0x00, 0x00, 0x03, 0x00, 0x00, 0x00, 0x08, 0x00, 0x00, 0x00,
  0x7b, 0x00, 0x00, 0x00, 0x73, 0x65, 0x71, 0x75, 0x65, 0x6e, 0x74, 0x69,
  0x61, 0x6c, 0x2f, 0x63, 0x6f, 0x6e, 0x76, 0x32, 0x64, 0x2f, 0x52, 0x65,
  0x6c, 0x75, 0x3b, 0x73, 0x65, 0x71, 0x75, 0x65, 0x6e, 0x74, 0x69, 0x61,
  0x6c, 0x2f, 0x63, 0x6f, 0x6e, 0x76, 0x32, 0x64, 0x2f, 0x42, 0x69, 0x61,
  0x73, 0x41, 0x64, 0x64, 0x3b, 0x73, 0x65, 0x71, 0x75, 0x65, 0x6e, 0x74,
  0x69, 0x61, 0x6c, 0x2f, 0x63, 0x6f, 0x6e, 0x76, 0x32, 0x64, 0x2f, 0x43,
  0x6f, 0x6e, 0x76, 0x32, 0x44, 0x3b, 0x73, 0x65, 0x71, 0x75, 0x65, 0x6e,
  0x74, 0x69, 0x61, 0x6c, 0x2f, 0x63, 0x6f, 0x6e, 0x76, 0x32, 0x64, 0x2f,
  0x42, 0x69, 0x61, 0x73, 0x41, 0x64, 0x64, 0x2f, 0x52, 0x65, 0x61, 0x64,
  0x56, 0x61, 0x72, 0x69, 0x61, 0x62, 0x6c, 0x65, 0x4f, 0x70, 0x2f, 0x72,
  0x65, 0x73, 0x6f, 0x75, 0x72, 0x63, 0x65, 0x00, 0x04, 0x00, 0x00, 0x00,
  0xff, 0xff, 0xff, 0xff, 0x40, 0x00, 0x00, 0x00, 0x03, 0x00, 0x00, 0x00,
  0x08, 0x00, 0x00, 0x00, 0x44, 0xd5, 0xff, 0xff, 0x4e, 0xd6, 0xff, 0xff,
  0x04, 0x00, 0x00, 0x00, 0x00, 0x08, 0x00, 0x00, 0x07, 0xc6, 0x29, 0xbe,
  0x67, 0xa3, 0x57, 0x3d, 0xf8, 0xbe, 0xce, 0xbe, 0x2d, 0xe3, 0x46, 0x3c,
  0x27, 0xee, 0xb7, 0xbe, 0x5e, 0x50, 0x39, 0x3d, 0x05, 0x9d, 0x7d, 0x3d,
  0xef, 0x60, 0xfb, 0x3d, 0xf9, 0xd8, 0x0d, 0x3d, 0xc2, 0x50, 0x88, 0x3e,
  0xdb, 0x9f, 0x7b, 0xbe, 0x30, 0x3f, 0x12, 0x3f, 0x36, 0x5d, 0xb6, 0xbe,
  0xdb, 0x61, 0xc1, 0x3d, 0xf4, 0x6d, 0x06, 0x3e, 0x8e, 0x25, 0xb8, 0xbd,
  0x4b, 0xad, 0xa9, 0x3d, 0x50, 0x04, 0xb2, 0x3d, 0xf5, 0x76, 0xa4, 0xbe,
  0x77, 0x5a, 0x58, 0x3e, 0x26, 0x58, 0x68, 0xbe, 0xcf, 0x39, 0x26, 0x3d,
  0x27, 0x3b, 0x37, 0xbe, 0xed, 0x77, 0x9f, 0x3e, 0x95, 0xab, 0x1c, 0x3d,
  0x42, 0x8f, 0x8e, 0x3e, 0x60, 0x12, 0xb6, 0xbe, 0x5c, 0x9b, 0xe4, 0x3d,
  0x29, 0x5a, 0x16, 0xbe, 0x56, 0x5c, 0xad, 0xbc, 0x01, 0xa3, 0x3b, 0xbe,
  0xfc, 0x19, 0x54, 0x3d, 0xdd, 0x47, 0x21, 0x3e, 0xbc, 0x7a, 0xdd, 0xbd,
  0x30, 0x7a, 0x12, 0xbe, 0xa7, 0x44, 0x57, 0xbe, 0xe8, 0xad, 0x86, 0x3c,
  0x39, 0xd5, 0x32, 0xbe, 0xa0, 0xbd, 0xef, 0xbc, 0x88, 0x5b, 0xc1, 0x3c,
  0x0a, 0xb7, 0x61, 0xbd, 0x29, 0x98, 0xc6, 0xbe, 0xe1, 0xde, 0x11, 0xbe,
  0xc1, 0x14, 0x0d, 0xbe, 0x58, 0x11, 0x92, 0x3a, 0x55, 0xa9, 0x36, 0xbe,
  0xb6, 0xf9, 0x1c, 0xbe, 0xff, 0x6d, 0xa2, 0xbd, 0xf8, 0x18, 0xb1, 0xbd,
  0x72, 0x9f, 0x33, 0xbe, 0x92, 0x7f, 0xe9, 0xbd, 0x94, 0x65, 0x28, 0x3e,
  0x93, 0x63, 0xf6, 0xbc, 0x3a, 0x3f, 0xd6, 0xbd, 0x10, 0x40, 0xde, 0xbd,
  0x71, 0x9a, 0x74, 0x3e, 0x71, 0x4a, 0xb7, 0xbd, 0xc4, 0x33, 0xa1, 0x3e,
  0x1d, 0x56, 0x8b, 0x3e, 0x5e, 0xb1, 0x59, 0x3e, 0x02, 0x43, 0xa3, 0xbc,
  0x15, 0x17, 0x6c, 0xbd, 0x43, 0x55, 0xf3, 0x3d, 0x80, 0x3b, 0xcf, 0x3e,
  0x72, 0xf9, 0x9f, 0xbb, 0x4f, 0x40, 0x54, 0x3b, 0x16, 0x80, 0x40, 0xbe,
  0x46, 0x68, 0x8f, 0xbd, 0xbd, 0x09, 0xad, 0xbd, 0x23, 0x1c, 0x3b, 0xbd,
  0xd2, 0x29, 0x24, 0xbc, 0x8d, 0x5c, 0x19, 0x3e, 0xa3, 0xae, 0xf9, 0xbd,
  0x2b, 0x72, 0x20, 0xbe, 0x21, 0xc2, 0x0c, 0xbe, 0x33, 0xfe, 0x34, 0xbe,
  0xb7, 0xb8, 0x10, 0xbd, 0x2b, 0x5d, 0xf9, 0xbc, 0x89, 0x5d, 0xb8, 0x3d,
  0x5d, 0xb1, 0x47, 0xbe, 0x03, 0x0b, 0x47, 0xbe, 0x02, 0x8a, 0x48, 0xbe,
  0x85, 0x41, 0x18, 0xbe, 0xe3, 0x2b, 0x13, 0x3d, 0xfb, 0x18, 0x03, 0xbe,
  0xd6, 0x4a, 0x3b, 0x3e, 0x67, 0x44, 0x01, 0x3f, 0x19, 0xb3, 0xd4, 0xbe,
  0x96, 0x3f, 0x32, 0xbe, 0x0a, 0x78, 0x72, 0xbe, 0xc8, 0x2c, 0xdb, 0xbd,
  0xa5, 0x79, 0x0e, 0xbe, 0x72, 0x4f, 0xb0, 0xbe, 0x9d, 0x67, 0xc6, 0x3d,
  0x75, 0x59, 0x5f, 0x3e, 0x3f, 0x91, 0x2b, 0xbe, 0xaa, 0x21, 0x8f, 0xbe,
  0xa3, 0x7b, 0xb1, 0xbe, 0x74, 0x5e, 0x60, 0xbe, 0xb4, 0xaf, 0x3e, 0xbe,
  0x2b, 0x79, 0x85, 0xbe, 0xc4, 0x91, 0x60, 0xbe, 0xa8, 0x8f, 0x8d, 0xbe,
  0xb2, 0xe2, 0xeb, 0xbd, 0x45, 0x96, 0x16, 0xbe, 0xdb, 0x77, 0x1a, 0xbe,
  0x89, 0xe0, 0x00, 0xbe, 0xdd, 0x51, 0xce, 0xbe, 0xc6, 0xc4, 0x0d, 0xbd,
  0xa5, 0x36, 0x50, 0xbd, 0x00, 0x91, 0x15, 0xbe, 0x44, 0xc5, 0xb5, 0x3e,
  0xab, 0xdc, 0x0d, 0xbe, 0x4f, 0xee, 0x40, 0x3d, 0xf3, 0x03, 0xa3, 0xbd,
  0x44, 0xb6, 0x5e, 0xbe, 0x35, 0x03, 0x8a, 0xbd, 0x0a, 0x11, 0x77, 0xbe,
  0x48, 0xc7, 0x8a, 0xbe, 0x60, 0x84, 0x4d, 0xbe, 0xa0, 0x47, 0xc0, 0xbc,
  0x49, 0xd0, 0x81, 0x3e, 0x89, 0x2c, 0xea, 0xbc, 0xc1, 0x66, 0x19, 0xbd,
  0xf1, 0x0c, 0x9d, 0x3d, 0x13, 0xe5, 0x02, 0xbe, 0x93, 0x50, 0xa8, 0xbd,
  0x7b, 0x83, 0xb9, 0x3c, 0xd0, 0xb2, 0x91, 0xbe, 0xe9, 0x7f, 0xad, 0xbe,
  0x99, 0x50, 0x0e, 0xbe, 0xa8, 0x4f, 0xb7, 0xbe, 0x80, 0xd2, 0x5e, 0xbe,
  0x18, 0x15, 0xd9, 0xbd, 0xdd, 0x29, 0x0a, 0xbe, 0x16, 0x53, 0xfc, 0xbe,
  0xbc, 0x25, 0x8f, 0xbe, 0x37, 0x54, 0x70, 0xbe, 0xc7, 0xb6, 0xbb, 0xbc,
  0x48, 0x00, 0xea, 0xbe, 0x29, 0xea, 0x3c, 0xbe, 0xc3, 0x33, 0xda, 0x3c,
  0x7e, 0xa4, 0xdc, 0x3d, 0x27, 0x45, 0x57, 0xbe, 0xb8, 0x12, 0x64, 0xbd,
  0x8c, 0x36, 0xe0, 0x3c, 0xbb, 0x88, 0x48, 0x3c, 0xeb, 0xe0, 0x88, 0x3e,
  0x16, 0x11, 0x25, 0xbd, 0x81, 0x37, 0xc2, 0x3c, 0x2e, 0x89, 0x37, 0x3e,
  0x0c, 0xd9, 0x29, 0xbc, 0x59, 0x10, 0xe2, 0x3d, 0xb2, 0x2b, 0x43, 0x3e,
  0xd7, 0x05, 0xc7, 0x3d, 0x00, 0xac, 0xda, 0x3e, 0x3f, 0x51, 0xc5, 0xbd,
  0xf0, 0x7d, 0x65, 0x3e, 0x0f, 0x5f, 0x5f, 0xbd, 0x90, 0xab, 0xd8, 0xbd,
  0xee, 0x55, 0x1f, 0xbe, 0x62, 0xc9, 0x00, 0xbe, 0x9b, 0x0c, 0x96, 0x3d,
  0xb1, 0xdd, 0x5f, 0xbc, 0x21, 0x25, 0xbf, 0xbd, 0x29, 0x7d, 0xf9, 0x3d,
  0xda, 0xea, 0xcf, 0xbd, 0x03, 0x2b, 0x3f, 0xbd, 0xa8, 0xdb, 0xbc, 0xbd,
  0x49, 0x15, 0x84, 0xbb, 0xdf, 0x9e, 0xa9, 0x3b, 0xac, 0x4f, 0x30, 0xbe,
  0x67, 0x97, 0xab, 0xbd, 0x7c, 0x36, 0xe5, 0x3b, 0xd1, 0x72, 0x8d, 0xbd,
  0x1b, 0x10, 0xc6, 0xbe, 0x6f, 0xae, 0x0d, 0x3d, 0x20, 0x27, 0x52, 0x3c,
  0x08, 0xdb, 0x92, 0xbd, 0x14, 0x2a, 0x6e, 0xbc, 0x36, 0x3a, 0xa6, 0xbd,
  0xbf, 0xf9, 0x1e, 0xbd, 0xf2, 0xf3, 0xc7, 0x3d, 0x2c, 0x55, 0xae, 0x3d,
  0x49, 0x0a, 0xf5, 0x3d, 0x7e, 0x98, 0x90, 0x3e, 0x2c, 0xef, 0x11, 0xbe,
  0x41, 0xea, 0x66, 0xbe, 0x94, 0xff, 0x3b, 0x3d, 0xbb, 0xe5, 0x2a, 0xbe,
  0xd2, 0x9b, 0x37, 0x3e, 0xf8, 0x11, 0xc8, 0x3e, 0x57, 0xec, 0x53, 0xbe,
  0xee, 0x0d, 0xca, 0xbe, 0xc8, 0xe0, 0x84, 0xbd, 0x48, 0xd7, 0x64, 0xbe,
  0x35, 0xf8, 0x20, 0xbe, 0xac, 0x33, 0xc2, 0xbd, 0x78, 0xb5, 0x3d, 0x3d,
  0xdd, 0x81, 0xac, 0xbe, 0x67, 0xee, 0x98, 0xbe, 0xc7, 0x31, 0xc4, 0xbe,
  0x10, 0x1c, 0x96, 0xbd, 0x40, 0x99, 0x3a, 0x3f, 0x26, 0x05, 0x71, 0xbe,
  0xe8, 0x9d, 0xbe, 0x3d, 0x54, 0x31, 0xa2, 0x3e, 0xc8, 0x3b, 0x32, 0xbe,
  0xd0, 0x55, 0x73, 0xbd, 0x9f, 0x84, 0xc4, 0x3e, 0xf6, 0xc7, 0xab, 0xbd,
  0x07, 0xf5, 0x74, 0xbd, 0x87, 0x85, 0xc2, 0xbd, 0x9d, 0x70, 0x1e, 0x3d,
  0x21, 0xc3, 0x19, 0xbe, 0xd0, 0x61, 0x8c, 0xbd, 0xcb, 0xbf, 0xed, 0x3d,
  0xfa, 0xd6, 0xac, 0x3d, 0x24, 0xd9, 0x93, 0xbd, 0xba, 0xcc, 0xa4, 0xbe,
  0xcd, 0xc5, 0x83, 0xbd, 0x06, 0xf1, 0xc1, 0x3c, 0x74, 0x1e, 0xce, 0xbe,
  0x96, 0x17, 0x89, 0xbd, 0xd9, 0x71, 0xa6, 0x3d, 0x8a, 0x94, 0x2c, 0xbe,
  0x4d, 0x82, 0x2f, 0xbd, 0xa9, 0x43, 0x57, 0xbe, 0x50, 0xcd, 0x23, 0x3e,
  0xd0, 0x9c, 0x41, 0xbe, 0x63, 0xb1, 0x4e, 0xbd, 0xca, 0x35, 0xb0, 0xbe,
  0x61, 0xbd, 0xe0, 0x3d, 0xa8, 0x06, 0x22, 0x3e, 0xae, 0xab, 0xb3, 0x3d,
  0x92, 0xe3, 0x37, 0xbc, 0x64, 0x12, 0xad, 0x3b, 0x4a, 0x98, 0x03, 0x3f,
  0x21, 0x47, 0x50, 0x3d, 0xa1, 0xf0, 0x59, 0xbe, 0x49, 0xb7, 0x0f, 0x3d,
  0x96, 0xef, 0x32, 0x3d, 0x1c, 0x45, 0x79, 0x3c, 0xb3, 0x5f, 0x39, 0xbe,
  0x40, 0x45, 0x65, 0xbd, 0xab, 0x25, 0xed, 0xbb, 0x71, 0x64, 0x3b, 0xbe,
  0x59, 0x32, 0x8d, 0xbd, 0x9f, 0x22, 0x37, 0xbc, 0x67, 0x7c, 0x72, 0x3d,
  0x1c, 0x9d, 0x06, 0x3e, 0xb9, 0xa2, 0xe1, 0xbd, 0xec, 0x20, 0xdb, 0x3d,
  0xe6, 0xbc, 0x95, 0xbd, 0x21, 0xc1, 0x56, 0xbc, 0x23, 0xd3, 0xfa, 0xbd,
  0x3d, 0xda, 0x05, 0xbe, 0x12, 0x89, 0x8f, 0xbe, 0x3b, 0x36, 0x0d, 0xbd,
  0xfe, 0x15, 0xbb, 0x3e, 0xfc, 0x6b, 0xee, 0xbd, 0x4c, 0x71, 0x05, 0xbd,
  0x19, 0xdb, 0x33, 0xbe, 0x3d, 0x36, 0xe0, 0x3d, 0x12, 0x3a, 0x9e, 0xbc,
  0x20, 0x85, 0x33, 0x3e, 0x41, 0x7a, 0x7d, 0xbd, 0xb2, 0x48, 0x25, 0x3f,
  0xc0, 0x25, 0x1c, 0xbe, 0xd0, 0x2c, 0x14, 0xbd, 0x61, 0x44, 0x63, 0xbe,
  0x8e, 0x23, 0xcc, 0xbd, 0x04, 0xb9, 0x24, 0xbd, 0x6a, 0xbb, 0xe7, 0x3d,
  0x70, 0x39, 0x21, 0xbc, 0xa9, 0x34, 0xa9, 0xbe, 0x90, 0x68, 0xc7, 0xbd,
  0x66, 0xd7, 0x64, 0x3c, 0x4e, 0xb2, 0xaa, 0xbe, 0xce, 0x08, 0x11, 0x3e,
  0x83, 0x1a, 0x8a, 0xbd, 0xfe, 0xbe, 0x27, 0x3e, 0x94, 0xc2, 0x12, 0x3d,
  0xbf, 0x9a, 0x97, 0xbd, 0x75, 0x6e, 0x43, 0xbd, 0x4f, 0x69, 0x3e, 0x3b,
  0x45, 0xb4, 0x12, 0x3e, 0xb6, 0x61, 0xca, 0x3d, 0x89, 0x16, 0x33, 0xbe,
  0x4e, 0x80, 0x13, 0x3a, 0x00, 0x3b, 0xc5, 0x3d, 0x1d, 0x41, 0x12, 0xbd,
  0x9c, 0x71, 0xdb, 0xbd, 0x0d, 0xf1, 0xb9, 0x3c, 0x50, 0x95, 0x78, 0xbe,
  0x5d, 0x74, 0xa8, 0xbc, 0x52, 0x6c, 0xef, 0xbd, 0x21, 0xb3, 0x05, 0x3f,
  0x07, 0x46, 0xa3, 0xbc, 0x16, 0xec, 0x48, 0x3e, 0x1b, 0x3c, 0xb1, 0xbd,
  0x24, 0x5d, 0xbe, 0xbd, 0x3e, 0x1e, 0x84, 0xbd, 0x06, 0x9d, 0xe6, 0xbd,
  0x41, 0x3d, 0x3a, 0xbd, 0xcb, 0xf0, 0xdf, 0x3d, 0xa1, 0x6b, 0xaa, 0xbd,
  0x7f, 0xa1, 0x0a, 0xbe, 0xe6, 0x86, 0xaa, 0x3c, 0x13, 0xbd, 0x01, 0xbe,
  0xd2, 0x16, 0x48, 0x3e, 0x61, 0x37, 0xbf, 0x3e, 0xc2, 0xdf, 0x1b, 0x3e,
  0xd0, 0xd7, 0xca, 0xbe, 0x71, 0x12, 0xf7, 0xbd, 0x28, 0x6c, 0x17, 0xbe,
  0xdc, 0x01, 0x05, 0x3d, 0x47, 0xb1, 0x56, 0xbe, 0x5c, 0x9f, 0xb0, 0xbd,
  0xd9, 0xa5, 0x81, 0x3e, 0x78, 0x9b, 0xe7, 0xbd, 0x7e, 0xed, 0x02, 0xbd,
  0x9e, 0x17, 0x46, 0xbb, 0x88, 0x0d, 0xb8, 0xbe, 0x11, 0x56, 0x02, 0xbe,
  0x1e, 0x40, 0xcc, 0xbe, 0x27, 0x3b, 0x9e, 0xbe, 0x10, 0x7d, 0xe1, 0xbe,
  0xbb, 0xcc, 0x43, 0xbe, 0x4b, 0x0e, 0x63, 0x3e, 0x40, 0xe7, 0x7b, 0xbc,
  0xcb, 0x3b, 0x6f, 0x3c, 0xfa, 0x67, 0x86, 0xbd, 0x21, 0x9d, 0xc5, 0xbe,
  0xcc, 0x9b, 0x4e, 0xbd, 0x77, 0x50, 0x2d, 0xbd, 0x2d, 0x7f, 0xb8, 0xbd,
  0xca, 0x82, 0xd7, 0x3d, 0xd4, 0x92, 0x15, 0xbd, 0x7a, 0x2c, 0x7c, 0x3e,
  0xf9, 0xf7, 0xaf, 0x3d, 0x48, 0x46, 0xfb, 0xbe, 0xa2, 0x7b, 0xd8, 0x3e,
  0xed, 0xed, 0x7a, 0x3e, 0x7a, 0xc0, 0xc5, 0xbd, 0x9e, 0x48, 0x2e, 0xbe,
  0xce, 0x03, 0x07, 0xbe, 0x8a, 0x6c, 0xa1, 0x3e, 0x62, 0xce, 0xac, 0x3d,
  0x6a, 0x8f, 0xdf, 0xbe, 0x8d, 0x3f, 0x9a, 0x3d, 0x7e, 0xc6, 0x41, 0x3e,
  0x61, 0x72, 0xda, 0xbe, 0xd0, 0x79, 0xca, 0xbe, 0x79, 0x8d, 0xf5, 0xbc,
  0xfb, 0xc7, 0x31, 0x3e, 0x1d, 0x9b, 0xb8, 0xbe, 0xa8, 0x53, 0xa1, 0x3b,
  0xb9, 0xce, 0x17, 0x3e, 0x94, 0x93, 0x70, 0xbe, 0x55, 0xff, 0x6c, 0x3d,
  0x10, 0x3e, 0x73, 0x3e, 0x14, 0xb9, 0xd0, 0xbc, 0x93, 0xaf, 0xa4, 0xbd,
  0xc0, 0x0b, 0x7c, 0xbe, 0xb8, 0xf1, 0x8d, 0x3e, 0x05, 0x2b, 0xd8, 0xbc,
  0x6b, 0xba, 0x8e, 0xbc, 0xb1, 0x0e, 0x9b, 0x3e, 0x19, 0x43, 0x75, 0x3e,
  0x5e, 0xf5, 0xa4, 0xbe, 0x8d, 0xb1, 0x0c, 0xbf, 0x99, 0x4a, 0xb1, 0xbd,
  0x84, 0x23, 0x55, 0xbd, 0xc1, 0x66, 0xcd, 0xbe, 0x81, 0xe8, 0x68, 0x3e,
  0xff, 0x1f, 0x41, 0xbc, 0x81, 0xe5, 0x36, 0x3e, 0xfe, 0x2a, 0xac, 0xbe,
  0x6a, 0x81, 0x95, 0xbe, 0x19, 0xed, 0x2f, 0xbd, 0xcd, 0x7c, 0x5f, 0xbd,
  0x95, 0x9e, 0x99, 0xbe, 0x83, 0x3e, 0xf5, 0x3d, 0x03, 0xc4, 0xc5, 0xbe,
  0x69, 0xb9, 0xb2, 0xbd, 0xe6, 0x4a, 0x8c, 0xbd, 0xf8, 0x46, 0xed, 0xbd,
  0x01, 0x92, 0xe5, 0xbe, 0x97, 0xc7, 0x2b, 0x3e, 0x24, 0xc6, 0x1f, 0xbf,
  0xc1, 0x40, 0xc3, 0xbe, 0x01, 0xb6, 0x04, 0xbe, 0x6b, 0x36, 0x41, 0x3e,
  0xcf, 0xb0, 0xe1, 0xbd, 0x9e, 0x1b, 0x80, 0xbe, 0x90, 0x54, 0x0d, 0xbd,
  0x4b, 0x70, 0xdb, 0xbd, 0x47, 0xa2, 0x8c, 0x3e, 0x76, 0xd7, 0xea, 0xbc,
  0xe6, 0x04, 0x04, 0xbe, 0xb4, 0xd6, 0x53, 0xbe, 0x2d, 0x3e, 0x07, 0xbe,
  0x80, 0xea, 0x34, 0x3e, 0x2c, 0x31, 0x08, 0xbd, 0x05, 0x2a, 0xa9, 0xbd,
  0xd8, 0x86, 0x54, 0x3e, 0xf3, 0xb1, 0xdc, 0x3d, 0x10, 0x5d, 0xa1, 0x3e,
  0x2b, 0xaa, 0x0f, 0xbd, 0xb7, 0x49, 0xa0, 0xbd, 0x9d, 0xbb, 0x1e, 0x3e,
  0xe0, 0x36, 0xbf, 0xbd, 0x29, 0x8f, 0x67, 0xbc, 0xf9, 0x6a, 0x13, 0xbe,
  0x04, 0x64, 0xfe, 0x3d, 0x64, 0x78, 0x9d, 0xbe, 0x78, 0xef, 0x5a, 0x3d,
  0xdc, 0x79, 0x6a, 0xbc, 0xac, 0x29, 0x8c, 0xbe, 0xf4, 0x6e, 0x7b, 0x3d,
  0xe6, 0xe7, 0x51, 0xbe, 0xf2, 0xc3, 0x33, 0x3e, 0x4c, 0xbb, 0x3f, 0x3d,
  0xe6, 0xa6, 0xb3, 0xbe, 0xb6, 0x98, 0x80, 0xbe, 0x9c, 0x68, 0x2b, 0x3d,
  0x0d, 0x44, 0xb8, 0x3d, 0x3b, 0x46, 0x92, 0x3b, 0x52, 0xa8, 0x06, 0x3e,
  0x28, 0x31, 0x3d, 0xbe, 0x45, 0x35, 0x22, 0xbe, 0x7e, 0x09, 0xd9, 0xbe,
  0x1f, 0x36, 0x79, 0xbe, 0xca, 0x57, 0x1e, 0x3d, 0x92, 0xf9, 0x7d, 0xbd,
  0x3a, 0x23, 0x5f, 0x3c, 0x5e, 0xdb, 0x60, 0xbe, 0xaf, 0x4a, 0xd5, 0x3e,
  0xb8, 0x51, 0xa0, 0xbe, 0x76, 0x19, 0xc0, 0xbe, 0xca, 0x15, 0xb2, 0x3d,
  0x86, 0xf2, 0xec, 0xbd, 0xc3, 0x92, 0x89, 0xbe, 0x2c, 0xde, 0x98, 0xbd,
  0x20, 0x92, 0x35, 0xbc, 0x1c, 0x07, 0x6d, 0xbd, 0xed, 0x45, 0x01, 0xbd,
  0x0e, 0x12, 0x1a, 0xbe, 0xb7, 0x61, 0x99, 0xbd, 0xb8, 0x4e, 0xbb, 0x3c,
  0x75, 0x94, 0x45, 0x3e, 0x38, 0xf7, 0x06, 0xbe, 0x01, 0x52, 0x70, 0x3d,
  0x42, 0xae, 0x90, 0x3d, 0x6f, 0xa8, 0x85, 0x3e, 0x20, 0x2c, 0x45, 0xbe,
  0x6d, 0x05, 0x85, 0x3c, 0x24, 0x90, 0x3a, 0x3e, 0x94, 0xaf, 0x34, 0xbe,
  0x3a, 0x17, 0x97, 0xbe, 0x7b, 0xfd, 0xe2, 0x3c, 0xce, 0x1d, 0x14, 0x3e,
  0xa7, 0xcd, 0x0a, 0xbe, 0xf8, 0x37, 0xdb, 0xbe, 0x91, 0xc7, 0x2e, 0x3e,
  0x19, 0x35, 0xeb, 0xbc, 0xcc, 0x28, 0x1a, 0x3c, 0x5b, 0x42, 0xd4, 0xbd,
  0x70, 0xd5, 0xe2, 0xbd, 0x7a, 0x86, 0x88, 0xbd, 0x01, 0x7c, 0x84, 0xbe,
  0x88, 0x23, 0x9b, 0xbe, 0xda, 0x8e, 0x2d, 0x3d, 0xf2, 0x22, 0xd2, 0x3d,
  0xfa, 0xe1, 0x21, 0xbe, 0xb0, 0xa3, 0xdf, 0xbd, 0x2d, 0x59, 0x05, 0x3c,
  0x45, 0xd8, 0x9a, 0xbd, 0x03, 0x4b, 0x5e, 0xbd, 0x8f, 0xa4, 0xf3, 0x3d,
  0x85, 0xdb, 0xfe, 0x3d, 0xfa, 0x9d, 0x08, 0xbe, 0xcb, 0xc5, 0x24, 0xbc,
  0xaf, 0xc7, 0x73, 0xbe, 0xe2, 0xcb, 0x0d, 0x3f, 0x79, 0x93, 0x61, 0xbe,
  0xa5, 0x04, 0xd7, 0x3e, 0x81, 0xe6, 0xfe, 0xbd, 0xd1, 0x0b, 0xde, 0x3b,
  0x02, 0xa3, 0x34, 0xbe, 0x49, 0xb5, 0x7f, 0xbc, 0x3f, 0x98, 0x4d, 0xbe,
  0xfe, 0xc0, 0x50, 0xbd, 0x41, 0x7a, 0x7e, 0xbe, 0x4b, 0x9b, 0xa6, 0x3b,
  0xb2, 0xf5, 0x11, 0xbe, 0x6b, 0x59, 0x7d, 0xbd, 0x65, 0xad, 0x1d, 0xbe,
  0x86, 0xcd, 0x29, 0x3e, 0x8d, 0x06, 0x36, 0xbe, 0xb8, 0x9a, 0xb4, 0x3d,
  0xd9, 0xae, 0x65, 0x3d, 0x75, 0x81, 0xdd, 0x3c, 0x57, 0x17, 0x16, 0xbe,
  0x60, 0xde, 0xd9, 0x3d, 0xd8, 0xe3, 0x9f, 0xbd, 0x36, 0xee, 0xe5, 0x3e,
  0xb6, 0x42, 0x09, 0xbe, 0x9a, 0xc5, 0x82, 0x3d, 0x6b, 0x61, 0xe7, 0x3c,
  0x54, 0xd6, 0x0d, 0x3e, 0x26, 0xde, 0xff, 0xff, 0x10, 0x00, 0x00, 0x00,
  0x0a, 0x00, 0x00, 0x00, 0x1c, 0x00, 0x00, 0x00, 0x38, 0x00, 0x00, 0x00,
  0x04, 0x00, 0x00, 0x00, 0x10, 0x00, 0x00, 0x00, 0x04, 0x00, 0x00, 0x00,
  0x01, 0x00, 0x00, 0x00, 0x08, 0x00, 0x00, 0x00, 0x1a, 0x00, 0x00, 0x00,
  0x73, 0x65, 0x71, 0x75, 0x65, 0x6e, 0x74, 0x69, 0x61, 0x6c, 0x2f, 0x63,
  0x6f, 0x6e, 0x76, 0x32, 0x64, 0x5f, 0x31, 0x2f, 0x43, 0x6f, 0x6e, 0x76,
  0x32, 0x44, 0x00, 0x00, 0x9c, 0xdd, 0xff, 0xff, 0xa6, 0xde, 0xff, 0xff,
  0x04, 0x00, 0x00, 0x00, 0x80, 0x01, 0x00, 0x00, 0x24, 0x90, 0x3d, 0xbd,
  0x9e, 0xa1, 0x5b, 0x3e, 0x46, 0xdf, 0x4c, 0x3e, 0x25, 0xdd, 0x24, 0xbd,
  0xdb, 0x32, 0x39, 0x3e, 0x35, 0x4f, 0xaf, 0x3e, 0x1d, 0x02, 0x0d, 0xbd,
  0x15, 0x5b, 0x02, 0xbe, 0x05, 0xf7, 0x3b, 0x3e, 0x54, 0x9b, 0xd5, 0x3c,
  0xff, 0x3c, 0x10, 0xbe, 0xb8, 0x37, 0xdd, 0xbe, 0x2a, 0x3e, 0x5b, 0x3d,
  0xf3, 0xe1, 0x40, 0x3c, 0x98, 0x18, 0xd6, 0xbb, 0x8c, 0xc7, 0xaf, 0x3e,
  0x1c, 0xcf, 0xdd, 0x3e, 0x16, 0x55, 0x48, 0x3e, 0xaf, 0x71, 0xe9, 0xbd,
  0xea, 0xab, 0x2f, 0xbe, 0x08, 0xa4, 0xe6, 0x3b, 0xfd, 0xb4, 0x59, 0xbe,
  0x33, 0xa6, 0x93, 0xbe, 0x1e, 0x0b, 0x23, 0xbe, 0x2e, 0x32, 0x95, 0xbc,
  0xb8, 0xfe, 0x25, 0x3c, 0xfc, 0x7b, 0xbf, 0xba, 0x92, 0x46, 0x41, 0x3d,
  0x0a, 0xbd, 0x87, 0xbc, 0x0e, 0x8c, 0x13, 0x3d, 0x2f, 0xd0, 0xb4, 0x3d,
  0xc1, 0xd9, 0x0d, 0xbd, 0x20, 0x8a, 0x52, 0x3d, 0x8d, 0x11, 0x9f, 0x3d,
  0x98, 0x8c, 0x4e, 0xbd, 0x1f, 0x6a, 0xb6, 0x3d, 0x0c, 0x7e, 0x6a, 0xbc,
  0x08, 0x01, 0xaf, 0xbc, 0x06, 0x05, 0xa6, 0x3b, 0x1e, 0x26, 0x83, 0xbe,
  0xd7, 0x1c, 0x0e, 0xbf, 0x16, 0xd9, 0xb9, 0x3d, 0x74, 0x83, 0x7b, 0x3e,
  0xa8, 0xbd, 0xe4, 0x3e, 0x3c, 0x02, 0x1c, 0xbe, 0xda, 0x4c, 0x04, 0x3e,
  0x1b, 0x34, 0x58, 0x3e, 0xe0, 0xf1, 0x96, 0x3d, 0x87, 0x0a, 0xa9, 0xbd,
  0xbe, 0x7c, 0x86, 0xbd, 0x7a, 0x24, 0x61, 0x3e, 0x5c, 0xac, 0xa8, 0xbc,
  0xa9, 0xc6, 0xa9, 0xbd, 0x7e, 0x6c, 0xef, 0x3d, 0x98, 0xd8, 0x94, 0xbd,
  0xd5, 0x0d, 0x87, 0x3c, 0xce, 0xd3, 0x37, 0x3d, 0x5f, 0xab, 0x15, 0xbd,
  0x07, 0xbc, 0xbf, 0x3d, 0x0e, 0x14, 0x99, 0x3d, 0x95, 0x14, 0x3d, 0x3d,
  0x85, 0x40, 0x43, 0xbd, 0xcc, 0xbb, 0xdb, 0xbd, 0xdb, 0x9a, 0xd8, 0x3e,
  0x43, 0x51, 0xce, 0xbd, 0x58, 0xd5, 0x36, 0x3e, 0x62, 0x1f, 0x37, 0x3c,
  0x3c, 0x4a, 0x80, 0x3e, 0xb2, 0xd1, 0x6d, 0xbe, 0xcf, 0xb1, 0xe3, 0xbd,
  0x7b, 0x03, 0x4d, 0x3d, 0x22, 0xdf, 0x14, 0x3e, 0x25, 0x6c, 0xd9, 0xbd,
  0xb4, 0x51, 0x66, 0x3e, 0x77, 0x5c, 0x80, 0xbe, 0xeb, 0xc0, 0x3e, 0xbd,
  0xe5, 0x70, 0xd0, 0xbb, 0xd4, 0x07, 0x1c, 0xbe, 0x82, 0x26, 0x85, 0x3d,
  0x74, 0xa3, 0x81, 0xbd, 0x88, 0x6b, 0x10, 0x3d, 0xa7, 0xf5, 0x14, 0x3e,
  0xdc, 0xc3, 0xb8, 0xbd, 0xed, 0xbe, 0x8b, 0x3e, 0x0b, 0x78, 0x9f, 0xbe,
  0x64, 0x1a, 0xfb, 0x3e, 0x82, 0x60, 0x93, 0xbd, 0x70, 0x04, 0x78, 0xbd,
  0x03, 0x33, 0x11, 0xbd, 0x59, 0x5a, 0x48, 0x3e, 0xee, 0x31, 0xbc, 0x3e,
  0x86, 0x41, 0x85, 0xbe, 0x5c, 0x4a, 0xfa, 0x3c, 0xe5, 0x64, 0x5d, 0x3d,
  0xfc, 0xec, 0x4d, 0xbe, 0x84, 0x7e, 0x0d, 0xbe, 0xfe, 0xdf, 0xff, 0xff,
  0x10, 0x00, 0x00, 0x00, 0x09, 0x00, 0x00, 0x00, 0x1c, 0x00, 0x00, 0x00,
  0x38, 0x00, 0x00, 0x00, 0x04, 0x00, 0x00, 0x00, 0x08, 0x00, 0x00, 0x00,
  0x04, 0x00, 0x00, 0x00, 0x03, 0x00, 0x00, 0x00, 0x01, 0x00, 0x00, 0x00,
  0x18, 0x00, 0x00, 0x00, 0x73, 0x65, 0x71, 0x75, 0x65, 0x6e, 0x74, 0x69,
  0x61, 0x6c, 0x2f, 0x63, 0x6f, 0x6e, 0x76, 0x32, 0x64, 0x2f, 0x43, 0x6f,
  0x6e, 0x76, 0x32, 0x44, 0x00, 0x00, 0x00, 0x00, 0x74, 0xdf, 0xff, 0xff,
  0x7e, 0xe0, 0xff, 0xff, 0x04, 0x00, 0x00, 0x00, 0xc0, 0x00, 0x00, 0x00,
  0x33, 0x00, 0xb2, 0x3e, 0xab, 0xb9, 0xb4, 0xbe, 0xbd, 0x0d, 0x92, 0x3e,
  0x1f, 0xce, 0x42, 0xbe, 0x1d, 0xeb, 0xeb, 0xbd, 0x9a, 0x3b, 0x5f, 0x3d,
  0xa4, 0xa8, 0x32, 0x3e, 0x94, 0x8e, 0x5f, 0xbe, 0x78, 0x4d, 0x9b, 0xbe,
  0x62, 0x08, 0xc5, 0x3e, 0xdb, 0x21, 0x17, 0x3e, 0xd5, 0x7d, 0x09, 0xbd,
  0xac, 0x56, 0x3e, 0xbe, 0x55, 0xc7, 0x1f, 0x3e, 0x6d, 0x60, 0x45, 0x3e,
  0xee, 0x6b, 0x75, 0x3e, 0xc9, 0xd7, 0xc2, 0x3e, 0x6d, 0xac, 0x9f, 0xbe,
  0xed, 0x99, 0x5d, 0x3e, 0x1c, 0xff, 0x3f, 0xbe, 0xaa, 0xc7, 0x35, 0xbe,
  0xc1, 0xef, 0x09, 0x3e, 0x6d, 0x06, 0xbd, 0x3e, 0x0e, 0x8e, 0x82, 0xbe,
  0xa7, 0x7a, 0x21, 0xbb, 0x54, 0x33, 0xe3, 0x3e, 0x02, 0x87, 0x60, 0x3e,
  0x9f, 0x1d, 0xa3, 0xbc, 0x6c, 0xa2, 0x36, 0xbe, 0xf8, 0x5d, 0x6b, 0x3e,
  0x27, 0xb8, 0x75, 0x3e, 0xff, 0x3e, 0xc6, 0xbe, 0xce, 0x41, 0xe3, 0x3e,
  0x03, 0x78, 0xd6, 0xbe, 0xe6, 0x0f, 0x68, 0x3e, 0xcb, 0xea, 0xa1, 0xbc,
  0x80, 0x8f, 0x5d, 0xbe, 0xdc, 0xc8, 0x2e, 0x3e, 0xd3, 0x88, 0xc4, 0x3e,
  0x73, 0x96, 0x8b, 0xbe, 0x7c, 0x60, 0x81, 0x3e, 0xcf, 0x2a, 0xca, 0x3e,
  0x0f, 0x5f, 0x03, 0x3e, 0x24, 0x95, 0x0c, 0x3d, 0x6d, 0xd9, 0x09, 0xbe,
  0x7a, 0x1f, 0xa1, 0xbe, 0x1f, 0xf1, 0x1e, 0x3e, 0x98, 0x46, 0x49, 0xbe,
  0x16, 0xe1, 0xff, 0xff, 0x10, 0x00, 0x00, 0x00, 0x08, 0x00, 0x00, 0x00,
  0x14, 0x00, 0x00, 0x00, 0x30, 0x00, 0x00, 0x00, 0x02, 0x00, 0x00, 0x00,
  0x03, 0x00, 0x00, 0x00, 0x10, 0x00, 0x00, 0x00, 0x19, 0x00, 0x00, 0x00,
  0x73, 0x65, 0x71, 0x75, 0x65, 0x6e, 0x74, 0x69, 0x61, 0x6c, 0x2f, 0x64,
  0x65, 0x6e, 0x73, 0x65, 0x5f, 0x31, 0x2f, 0x4d, 0x61, 0x74, 0x4d, 0x75,
  0x6c, 0x00, 0x00, 0x00, 0x84, 0xe0, 0xff, 0xff, 0x8e, 0xe1, 0xff, 0xff,
  0x04, 0x00, 0x00, 0x00, 0x00, 0x1c, 0x00, 0x00, 0x5a, 0x5f, 0xfe, 0xbe,
  0x6d, 0x4f, 0x83, 0xbd, 0xf3, 0xdf, 0x00, 0x3e, 0x4a, 0xe9, 0x0a, 0x3e,
  0x8b, 0x25, 0xcd, 0xbe, 0xf2, 0x38, 0x51, 0xbd, 0x41, 0x57, 0xf2, 0xbe,
  0x9a, 0x36, 0x06, 0x3d, 0x88, 0x55, 0xbc, 0xbe, 0x8d, 0xfe, 0xa9, 0xbe,
  0x0c, 0xb9, 0x1d, 0xbe, 0x90, 0xdb, 0x8b, 0xbe, 0xe3, 0x02, 0xaf, 0xbe,
  0xea, 0x2e, 0x82, 0x3e, 0x3f, 0x61, 0x99, 0x3d, 0xed, 0x10, 0x6c, 0x3c,
  0x9d, 0x2b, 0x3e, 0x3e, 0x8b, 0x70, 0x74, 0xbe, 0xad, 0x27, 0x8e, 0x3e,
  0x8f, 0x94, 0x58, 0x3d, 0x94, 0xf1, 0xe8, 0x3e, 0xd5, 0xeb, 0x97, 0x3d,
  0xd6, 0xd7, 0x8c, 0x3c, 0xd9, 0xc4, 0xae, 0x3d, 0x23, 0x24, 0x2a, 0xbf,
  0xc9, 0x27, 0x2a, 0xbe, 0xd8, 0xe6, 0x55, 0x3e, 0xbd, 0xdd, 0x04, 0x3e,
  0xa0, 0x3b, 0x15, 0x3f, 0x8a, 0x4e, 0x95, 0x3e, 0x2d, 0x20, 0x2c, 0xbd,
  0xc9, 0xee, 0x2a, 0x3e, 0x7d, 0x62, 0xa5, 0x3e, 0xe7, 0xa1, 0xd7, 0xbd,
  0x9a, 0xb0, 0x26, 0x3e, 0x7f, 0x90, 0x6a, 0x3d, 0x56, 0xf0, 0xd9, 0x3c,
  0x24, 0xda, 0x60, 0x3d, 0xd0, 0xa0, 0x6e, 0x3e, 0x74, 0xe0, 0x12, 0x3d,
  0xb0, 0x8f, 0x12, 0xbf, 0xaa, 0xe6, 0xc9, 0x3c, 0x3c, 0xbc, 0x66, 0x3e,
  0x6d, 0x54, 0x09, 0xbe, 0x0e, 0x79, 0xe6, 0x3e, 0xf8, 0x88, 0xd8, 0x3d,
  0xe6, 0x9a, 0x3a, 0xbd, 0x05, 0xa3, 0x21, 0x3c, 0xa3, 0xa4, 0x59, 0x3e,
  0x65, 0x3f, 0x48, 0x3d, 0x5d, 0xe6, 0x29, 0x3e, 0xdd, 0x3c, 0xc7, 0xbd,
  0xf3, 0xab, 0xca, 0xbb, 0x91, 0xcd, 0x1c, 0x3d, 0x4d, 0x6e, 0xb3, 0x3e,
  0x8a, 0xea, 0x9a, 0x3d, 0x3c, 0x18, 0x63, 0xbe, 0xae, 0x67, 0x0c, 0xbe,
  0xf0, 0x3c, 0xd3, 0x3c, 0x1d, 0xb0, 0x15, 0x3d, 0x08, 0x29, 0x21, 0x3e,
  0xe0, 0x5e, 0xb0, 0x3d, 0x8b, 0x30, 0x50, 0x3e, 0x55, 0x93, 0x04, 0xbb,
  0x41, 0xbf, 0x9a, 0x3d, 0x09, 0x07, 0x05, 0xbe, 0xee, 0x7d, 0x93, 0x3e,
  0x51, 0x1f, 0x46, 0xbe, 0x80, 0xc5, 0x43, 0x3e, 0x82, 0x2b, 0x4a, 0xbd,
  0xb8, 0x2f, 0xe4, 0x3d, 0x0f, 0x47, 0x02, 0x3d, 0x33, 0x92, 0xa3, 0xbe,
  0xd1, 0xad, 0x5f, 0xbd, 0xf2, 0xb5, 0x36, 0xbd, 0xe1, 0x6c, 0xca, 0x3d,
  0xc3, 0xdc, 0xb5, 0x3e, 0xf1, 0xc2, 0x59, 0x3e, 0x00, 0x22, 0x78, 0x3e,
  0x9c, 0x8d, 0xd3, 0x3d, 0xfc, 0xb3, 0x00, 0xbe, 0x30, 0x3e, 0xf4, 0xbe,
  0x81, 0xe2, 0x2f, 0x3e, 0xd1, 0xe4, 0x28, 0xbe, 0x45, 0x7a, 0x4c, 0xbe,
  0xa2, 0x11, 0xb6, 0xbe, 0x68, 0xf4, 0x89, 0x3e, 0x43, 0xc6, 0x86, 0x3d,
  0x83, 0x42, 0xef, 0xbe, 0x8b, 0x3e, 0x81, 0xbe, 0x47, 0x2e, 0x8c, 0xbd,
  0xee, 0x33, 0x8a, 0xbd, 0x68, 0x7d, 0x52, 0xbe, 0x8b, 0x94, 0x94, 0x3e,
  0xf6, 0x4b, 0x92, 0x3e, 0x5d, 0x63, 0x2f, 0x3e, 0x58, 0x6b, 0x8e, 0xbd,
  0x8c, 0x1f, 0x6e, 0xbd, 0x64, 0x3e, 0xde, 0x3e, 0x6e, 0xc6, 0x49, 0xbe,
  0x14, 0x17, 0x0f, 0xbe, 0xf8, 0x3f, 0x7f, 0xbd, 0xf6, 0x3d, 0x38, 0xba,
  0x68, 0x35, 0x38, 0x3a, 0xc8, 0xfa, 0x7b, 0xbe, 0xbc, 0xcd, 0x80, 0xbe,
  0x5b, 0x67, 0xd8, 0xbd, 0xa9, 0x00, 0x88, 0x3c, 0x4d, 0x1d, 0xe7, 0x3d,
  0xad, 0x62, 0x77, 0x3e, 0xbc, 0x9b, 0x24, 0xbe, 0xfa, 0xa0, 0xf3, 0x3d,
  0x83, 0xb7, 0x82, 0x3d, 0x40, 0xbb, 0x04, 0x3e, 0xdc, 0xc4, 0xac, 0xbd,
  0xe2, 0x64, 0x80, 0xbd, 0xda, 0x73, 0x85, 0xbd, 0xcb, 0x1e, 0x85, 0x3d,
  0xa2, 0xb5, 0x88, 0x3e, 0x91, 0x52, 0x1c, 0xbc, 0xfe, 0x6a, 0x60, 0x3d,
  0x77, 0x14, 0xf6, 0x3d, 0x70, 0xe1, 0x55, 0x3d, 0x31, 0x5c, 0x26, 0x3e,
  0x79, 0x34, 0x87, 0x3d, 0x2d, 0x5e, 0xad, 0x3c, 0xd2, 0x05, 0x24, 0x3b,
  0x0f, 0x32, 0xa2, 0xbc, 0xd5, 0x07, 0x02, 0xbe, 0x2b, 0x27, 0x73, 0x3e,
  0x44, 0x85, 0xaa, 0xbd, 0xb2, 0x4b, 0xd7, 0xbc, 0xb2, 0x81, 0xb7, 0xbd,
  0xeb, 0x6d, 0x4a, 0xbd, 0x72, 0x6b, 0x53, 0x3e, 0xc5, 0x9b, 0x6b, 0xbc,
  0xfc, 0x47, 0x9d, 0xbb, 0xf2, 0x7b, 0x53, 0x3b, 0x0a, 0x7e, 0xa6, 0xbd,
  0x7a, 0x2f, 0xc2, 0x3e, 0x77, 0x3e, 0x1a, 0xbe, 0x1d, 0x69, 0x17, 0xbd,
  0xf9, 0x86, 0x38, 0xbd, 0xb6, 0x87, 0x34, 0x3d, 0xe7, 0x24, 0xd0, 0xbe,
  0xe0, 0xa4, 0x15, 0x3e, 0x59, 0x19, 0x83, 0x3d, 0x3d, 0x68, 0xa5, 0xbd,
  0x27, 0x8c, 0x10, 0xbe, 0xb7, 0x8b, 0x02, 0xbe, 0x90, 0x7e, 0x96, 0xb9,
  0x48, 0xfb, 0xa8, 0xbc, 0xc5, 0xb2, 0xdd, 0xbd, 0x3d, 0x66, 0x44, 0xbe,
  0x7e, 0x13, 0x7c, 0xbe, 0xef, 0x26, 0xd0, 0xbd, 0x8d, 0x88, 0xb1, 0xbe,
  0x78, 0x6a, 0xbb, 0xbd, 0x7b, 0xcf, 0xfe, 0x3d, 0xb4, 0x15, 0xcf, 0xbd,
  0x86, 0x04, 0xdc, 0xbe, 0x6c, 0x45, 0x0d, 0xbc, 0x08, 0xf9, 0xd1, 0xbd,
  0x40, 0x84, 0x15, 0xbe, 0x82, 0x4d, 0xb1, 0x3c, 0xba, 0x52, 0x2e, 0xbd,
  0x28, 0x2c, 0xd0, 0xbd, 0x5f, 0x13, 0xd8, 0xbb, 0x0e, 0xe4, 0x4a, 0xbe,
  0xdf, 0x89, 0x9f, 0xbd, 0x28, 0x7d, 0x01, 0x3e, 0x5b, 0x78, 0x01, 0x3e,
  0xd3, 0xee, 0xd2, 0xbd, 0x10, 0x88, 0x2c, 0xbe, 0x3f, 0xf6, 0xc0, 0x3d,
  0x8e, 0xf9, 0x99, 0xbc, 0x65, 0x3e, 0xf1, 0xbd, 0x28, 0xcc, 0xa1, 0x3d,
  0xbd, 0xba, 0x16, 0xbe, 0x07, 0xc5, 0x2d, 0xbe, 0xff, 0xe8, 0x4c, 0x3e,
  0x28, 0xce, 0x64, 0x3d, 0xf2, 0x37, 0x81, 0x3e, 0x35, 0xae, 0x6d, 0x3a,
  0x13, 0x3b, 0x4a, 0xbd, 0x40, 0xe0, 0x15, 0x3d, 0x45, 0x7d, 0x6c, 0x3d,
  0xcc, 0x82, 0xb4, 0x3e, 0x53, 0x9c, 0x98, 0x3e, 0x1d, 0x45, 0xcd, 0xbd,
  0x0e, 0x3b, 0x1c, 0xbe, 0xae, 0xbc, 0xe9, 0xbd, 0xa7, 0x81, 0x8a, 0xbb,
  0x4e, 0xa1, 0xc3, 0x3d, 0xa0, 0x82, 0xac, 0xbc, 0x19, 0xc1, 0x0e, 0xbd,
  0x91, 0xba, 0xb6, 0x3d, 0x98, 0xee, 0xd5, 0x3d, 0xfd, 0x81, 0xad, 0x3e,
  0x36, 0x29, 0xf3, 0x3c, 0x4a, 0x29, 0xa1, 0x3d, 0x66, 0x7e, 0x30, 0x3d,
  0x64, 0x10, 0x34, 0xbd, 0x87, 0x8f, 0x27, 0x3e, 0x5a, 0x2c, 0x82, 0xba,
  0x20, 0x76, 0x15, 0x3e, 0x10, 0x18, 0x0d, 0xbe, 0x2d, 0x30, 0x28, 0xbd,
  0x4c, 0x92, 0xe0, 0xbc, 0xd1, 0x9b, 0x44, 0x3d, 0x3d, 0x48, 0x1a, 0xbe,
  0xeb, 0x66, 0x74, 0x3e, 0x6f, 0xf4, 0x63, 0x3e, 0xd9, 0xfb, 0x08, 0xbd,
  0x5c, 0xe4, 0x43, 0x3d, 0x75, 0x98, 0x03, 0xbd, 0xd0, 0x10, 0x74, 0x3d,
  0x83, 0x06, 0x47, 0x3d, 0x44, 0x85, 0x91, 0x3c, 0xcb, 0x39, 0x3e, 0xbd,
  0xce, 0xbf, 0x31, 0x3d, 0x40, 0xe4, 0x92, 0xbd, 0x61, 0xe2, 0x33, 0xbc,
  0xe7, 0xe7, 0x85, 0x3d, 0xf3, 0x0c, 0x86, 0xbd, 0x14, 0x1c, 0x06, 0x3d,
  0xc0, 0x9b, 0x41, 0x3d, 0x3e, 0xeb, 0x73, 0x3c, 0xcd, 0xd4, 0x84, 0xbe,
  0xb7, 0xe6, 0xb1, 0xbe, 0xdf, 0x02, 0x50, 0xbd, 0xc8, 0x2e, 0xa2, 0xbd,
  0xec, 0x1c, 0x09, 0xbe, 0x30, 0x15, 0xca, 0x3d, 0x1b, 0x8c, 0x3a, 0x3e,
  0x81, 0xd3, 0x79, 0xbe, 0xbe, 0x11, 0xc2, 0x3e, 0xb9, 0x9c, 0x43, 0xbd,
  0xf6, 0xbb, 0x2a, 0xbe, 0xce, 0x3d, 0x0e, 0xbf, 0xa5, 0x78, 0x5a, 0xbe,
  0x44, 0xb4, 0x2d, 0x3d, 0xa6, 0xd1, 0x4e, 0xbd, 0x98, 0x00, 0x0d, 0x40,
  0x62, 0x29, 0x88, 0x3e, 0xbf, 0xc9, 0x59, 0x3e, 0x31, 0x90, 0x83, 0xbd,
  0x32, 0xda, 0x76, 0x3c, 0x45, 0x5e, 0x1b, 0x3e, 0xc1, 0x14, 0xea, 0x3d,
  0x2f, 0x70, 0x39, 0x3e, 0x97, 0xd0, 0xef, 0x3d, 0xbf, 0x15, 0x52, 0xbd,
  0x87, 0x6b, 0xee, 0xbc, 0xc6, 0x26, 0x8f, 0x3e, 0x5f, 0x8d, 0x00, 0xbf,
  0xd0, 0xee, 0x72, 0xbe, 0xd5, 0x60, 0x15, 0x3e, 0x2e, 0xad, 0xcb, 0x3d,
  0x07, 0x91, 0x15, 0x40, 0x5b, 0x96, 0x17, 0x3e, 0xb4, 0xfe, 0x8f, 0x3e,
  0x86, 0x28, 0x20, 0xbe, 0x10, 0x37, 0x26, 0xbd, 0xa5, 0x73, 0x52, 0x3e,
  0x11, 0x45, 0x9c, 0x3e, 0x34, 0xde, 0x90, 0x3e, 0xc0, 0xdf, 0x0e, 0x3f,
  0x31, 0xd4, 0x33, 0xbe, 0x0d, 0x2f, 0x53, 0xbe, 0xff, 0x05, 0x60, 0xbe,
  0x97, 0x96, 0x6d, 0xbe, 0x4e, 0xb8, 0xb5, 0xbd, 0x8b, 0xff, 0x8d, 0x3e,
  0x8a, 0x13, 0xb3, 0x3d, 0xd2, 0xd7, 0x36, 0x40, 0x80, 0x5f, 0x14, 0xbc,
  0xa6, 0xba, 0x3b, 0x3e, 0xce, 0xa0, 0x2e, 0xbe, 0xdb, 0x2d, 0x8f, 0xbc,
  0x2b, 0xd2, 0x28, 0x3e, 0x48, 0x6b, 0xa0, 0x3e, 0x9f, 0x89, 0x3e, 0x3e,
  0x24, 0x6f, 0x9a, 0x3e, 0x19, 0x0b, 0x40, 0xbe, 0x9b, 0x12, 0xb0, 0xbd,
  0x3b, 0x46, 0x5e, 0xbe, 0x94, 0x11, 0xcc, 0xbe, 0xcd, 0x6a, 0x90, 0xbe,
  0x37, 0x67, 0xa3, 0x3e, 0x6d, 0x22, 0xed, 0x39, 0xb6, 0xcb, 0x05, 0x40,
  0x02, 0x69, 0x3d, 0xbe, 0xa9, 0xf5, 0x31, 0x3e, 0x27, 0xa3, 0xa9, 0xbe,
  0x76, 0x13, 0x8a, 0xbb, 0x92, 0xee, 0x20, 0xbd, 0x8e, 0x33, 0x8d, 0x3d,
  0x3e, 0x0c, 0x46, 0x3e, 0x01, 0x1a, 0xc9, 0xbd, 0x2e, 0xf1, 0xc3, 0xbe,
  0xf6, 0x38, 0x6e, 0xbb, 0x1e, 0xcb, 0x20, 0xbe, 0xfb, 0xf9, 0x12, 0xbf,
  0xe3, 0x0c, 0xc3, 0xbe, 0xb9, 0x05, 0x3a, 0x3e, 0x89, 0x77, 0xa1, 0x3d,
  0x81, 0x44, 0xc1, 0x3f, 0x30, 0x36, 0x15, 0xbe, 0xc1, 0x5b, 0xbe, 0x3d,
  0x66, 0x7f, 0x9c, 0xbe, 0xc3, 0x4f, 0x9d, 0xbd, 0x61, 0x3c, 0x92, 0xbd,
  0xe2, 0xc0, 0xb2, 0x3d, 0x11, 0x7f, 0x44, 0x3e, 0xce, 0x16, 0x75, 0xbe,
  0x54, 0xf5, 0xb7, 0xbc, 0x4a, 0x07, 0x53, 0xbe, 0x92, 0x6d, 0xa4, 0x3d,
  0x08, 0x71, 0xe3, 0xbe, 0x4e, 0xac, 0xfd, 0xbd, 0xb8, 0x69, 0xf2, 0x3d,
  0x75, 0xe1, 0x31, 0xbc, 0xf1, 0x85, 0xb8, 0x3f, 0xe0, 0x65, 0x3e, 0xbe,
  0x4f, 0xc6, 0xf8, 0x3d, 0x83, 0x2d, 0x83, 0xbe, 0xd3, 0xe2, 0xea, 0xbd,
  0xa0, 0xca, 0x49, 0x3d, 0x5d, 0x6c, 0x95, 0x3d, 0x91, 0x17, 0xe6, 0x3d,
  0x4a, 0xcf, 0x71, 0xbe, 0x16, 0x06, 0x03, 0x3c, 0x48, 0xc3, 0x35, 0xbe,
  0xac, 0x7e, 0x8b, 0x3d, 0x2f, 0x29, 0xa6, 0xbe, 0x7f, 0x60, 0xb6, 0xbc,
  0xfe, 0xee, 0x40, 0x3d, 0x27, 0xd3, 0xe2, 0xbd, 0x81, 0x55, 0x43, 0xbd,
  0xb6, 0x91, 0xbd, 0x3d, 0x4b, 0x13, 0x88, 0xbd, 0x24, 0xb6, 0x9c, 0x3d,
  0x8e, 0xff, 0x76, 0xbd, 0x8d, 0xb2, 0x4f, 0xbd, 0xa1, 0x22, 0xd8, 0xbd,
  0x8d, 0xfd, 0x58, 0x3d, 0xa1, 0xd8, 0x1a, 0xbe, 0xb7, 0xe9, 0x95, 0xbb,
  0x16, 0x1d, 0xc6, 0x3d, 0x33, 0xfa, 0x5b, 0x3e, 0x8c, 0x4b, 0x52, 0x3d,
  0xfd, 0xee, 0x36, 0xbe, 0x11, 0x1a, 0xe3, 0x3d, 0x22, 0xbf, 0xb7, 0x3d,
  0x1a, 0xea, 0xb3, 0xbc, 0x5e, 0xea, 0x6b, 0x3e, 0xd3, 0xb0, 0xc4, 0xbc,
  0xab, 0x44, 0x3d, 0xbe, 0x51, 0x9f, 0xae, 0xbe, 0x39, 0xf5, 0x3c, 0xbe,
  0x4d, 0xad, 0x9c, 0x3d, 0xe1, 0x34, 0xd1, 0x3b, 0x9a, 0x68, 0x68, 0x3d,
  0x8e, 0x26, 0x60, 0xbe, 0x2e, 0x6a, 0x92, 0x3d, 0x5e, 0x33, 0x41, 0x3e,
  0x69, 0x2b, 0x16, 0x3c, 0x24, 0x7a, 0x42, 0x3e, 0xbc, 0xed, 0x0c, 0xbd,
  0xd0, 0xc0, 0x24, 0xbe, 0xfe, 0x09, 0x4d, 0x3d, 0xce, 0x9f, 0x14, 0xbe,
  0x28, 0xd9, 0xed, 0xbd, 0x42, 0x9e, 0x54, 0xbe, 0xd5, 0xc9, 0x44, 0xbe,
  0xbe, 0x72, 0x2a, 0xbd, 0x3e, 0xca, 0x2d, 0x3d, 0x7b, 0x62, 0x92, 0xbb,
  0xac, 0xbb, 0xc3, 0x3d, 0x21, 0x33, 0x45, 0xbe, 0x2b, 0x8b, 0x07, 0x3b,
  0xe9, 0xa4, 0x87, 0x3e, 0x9d, 0xbf, 0x1e, 0xbe, 0x34, 0x07, 0x86, 0xbd,
  0x05, 0x8b, 0x87, 0xbd, 0xa6, 0xd6, 0x85, 0xbd, 0x53, 0x3b, 0xd8, 0x3d,
  0x33, 0x16, 0x90, 0xbd, 0xb3, 0x5f, 0x24, 0x3d, 0x28, 0x86, 0xa6, 0x3d,
  0xf2, 0xdf, 0x92, 0xbe, 0x44, 0xc3, 0xd5, 0xbd, 0x5e, 0x07, 0x88, 0xbc,
  0x7b, 0xac, 0x44, 0xbd, 0x96, 0xff, 0xf5, 0xba, 0xaa, 0xc3, 0x21, 0xbe,
  0xf4, 0x6c, 0x43, 0x3e, 0xc6, 0x51, 0xd6, 0x3d, 0x9b, 0xd0, 0x33, 0x3e,
  0x44, 0xe5, 0xe5, 0x3c, 0x7a, 0x96, 0x38, 0x3e, 0x0d, 0xc6, 0x28, 0xbe,
  0x65, 0x35, 0x48, 0x3d, 0x5c, 0x4f, 0x81, 0x3e, 0xbb, 0xba, 0x51, 0xbd,
  0x6c, 0x01, 0x3c, 0xbe, 0x4b, 0xe3, 0x09, 0xbe, 0x92, 0x00, 0xc4, 0xbd,
  0x4c, 0x2a, 0x00, 0x3e, 0x7b, 0x06, 0xa4, 0xbd, 0x27, 0x1f, 0x44, 0xbe,
  0xc2, 0x35, 0x02, 0xbd, 0xe8, 0x4e, 0x1f, 0xbb, 0x12, 0xb2, 0x4d, 0x3d,
  0x0d, 0x8a, 0x8e, 0x3c, 0xfc, 0xb6, 0x5f, 0xbe, 0x9a, 0x78, 0x41, 0x3d,
  0xb1, 0xfa, 0x76, 0x3d, 0x43, 0x5e, 0x67, 0xbd, 0xb5, 0x4b, 0x16, 0x3e,
  0xdd, 0xf8, 0xd3, 0xbc, 0x92, 0x2d, 0x11, 0x3e, 0x1e, 0x9e, 0x97, 0xbe,
  0xbb, 0x2c, 0xa2, 0xbe, 0x63, 0x62, 0x2f, 0xbe, 0x47, 0xa4, 0x92, 0x3d,
  0x4f, 0xc5, 0xad, 0x3d, 0x02, 0x84, 0xbb, 0x3d, 0xcd, 0x0b, 0xfa, 0x3d,
  0x65, 0x22, 0x2b, 0x3e, 0x7e, 0x89, 0x1c, 0xbe, 0x20, 0x77, 0xf8, 0xbd,
  0x4d, 0xae, 0xca, 0xbc, 0x03, 0x9b, 0x12, 0xbd, 0xc1, 0x2b, 0x86, 0x3d,
  0x7f, 0xd2, 0xe8, 0x3d, 0x64, 0x53, 0xad, 0xbd, 0x6b, 0xf7, 0x3e, 0xbc,
  0x97, 0xf3, 0x18, 0xbe, 0x47, 0x31, 0xa3, 0xbc, 0xb8, 0xa0, 0x2d, 0xbd,
  0x39, 0x8c, 0x83, 0x3d, 0x87, 0x88, 0x87, 0xbd, 0x14, 0xdb, 0xf7, 0x3d,
  0x51, 0xc2, 0x95, 0x3e, 0xf0, 0x31, 0xba, 0x3c, 0x48, 0x3d, 0x90, 0xbe,
  0xce, 0x95, 0x4a, 0xbe, 0x4e, 0x5f, 0x39, 0x3e, 0xf1, 0x88, 0x44, 0xbe,
  0xc5, 0xdc, 0x8f, 0xbc, 0x25, 0x16, 0x27, 0xbe, 0x72, 0xf7, 0x02, 0xbe,
  0x76, 0x2f, 0x1a, 0xbd, 0x66, 0x16, 0x8a, 0xbe, 0x1c, 0x33, 0x2e, 0xbd,
  0x66, 0x4f, 0x6a, 0x3c, 0xb7, 0x64, 0x39, 0x3e, 0x7e, 0x96, 0xe8, 0xbd,
  0xa7, 0xdc, 0x30, 0x3e, 0x84, 0x63, 0x0e, 0x3e, 0x6c, 0xf8, 0x49, 0xbe,
  0x44, 0xe7, 0x65, 0xbe, 0x0c, 0x58, 0x95, 0xbe, 0x7a, 0xf9, 0x9b, 0x3d,
  0x4f, 0x82, 0x25, 0xbe, 0xd4, 0x86, 0x0c, 0x3f, 0xd6, 0x2d, 0x97, 0xbd,
  0xb5, 0xd0, 0xea, 0xbd, 0x55, 0x1d, 0x86, 0x3d, 0x27, 0xa0, 0xa7, 0xbd,
  0xdf, 0x90, 0xef, 0x3c, 0xfc, 0xaa, 0x09, 0xbe, 0xe6, 0xec, 0x46, 0x3e,
  0x0e, 0x8f, 0xbf, 0x3c, 0x57, 0xba, 0x7b, 0x3e, 0xe0, 0xc3, 0x33, 0x3d,
  0x64, 0xb3, 0x84, 0xbe, 0xc6, 0xee, 0x10, 0xbe, 0x52, 0x6a, 0x38, 0xbe,
  0x5c, 0xfa, 0x54, 0x3e, 0x50, 0xdb, 0x13, 0xbe, 0xb5, 0x58, 0x31, 0x3f,
  0x19, 0xe5, 0x6f, 0x3d, 0xd9, 0x21, 0x4e, 0x3e, 0x1f, 0x4d, 0x2a, 0xbe,
  0x75, 0x96, 0xd1, 0xbd, 0x7c, 0x6d, 0xa5, 0x3c, 0x95, 0x72, 0xaf, 0x3e,
  0xcc, 0x6b, 0xc9, 0x3d, 0x42, 0x03, 0x36, 0x3e, 0xd9, 0xfb, 0x1b, 0x3d,
  0x41, 0xe8, 0x0a, 0x3d, 0x4a, 0xec, 0x64, 0xbe, 0x1f, 0xef, 0x89, 0xbe,
  0xf2, 0xa7, 0x1c, 0xbe, 0x43, 0xa7, 0x7f, 0x3d, 0x6b, 0xf2, 0x28, 0xbc,
  0xab, 0xb4, 0x3a, 0x3f, 0x36, 0x0e, 0x55, 0xbd, 0xad, 0xcf, 0x3d, 0x3e,
  0x80, 0x3e, 0x49, 0x3d, 0x12, 0x8d, 0x52, 0xbd, 0x7e, 0x79, 0xfc, 0x3c,
  0x91, 0xce, 0x98, 0x3e, 0xf6, 0xba, 0x4d, 0x3e, 0xc0, 0x11, 0x24, 0x3e,
  0xd2, 0xa8, 0x59, 0x3e, 0x84, 0xcf, 0xc3, 0x3d, 0xb6, 0x63, 0xca, 0xbd,
  0x2d, 0x94, 0xb0, 0xbe, 0x84, 0x47, 0x3c, 0xbe, 0x41, 0x9f, 0x36, 0x3e,
  0x83, 0x4e, 0x15, 0x3e, 0x46, 0xc8, 0xc9, 0x3e, 0x8e, 0xbc, 0x82, 0xbc,
  0x4b, 0x52, 0x12, 0x3c, 0x85, 0x50, 0x37, 0xbe, 0x50, 0x86, 0x08, 0xbd,
  0x51, 0x0f, 0x96, 0xbd, 0x05, 0xd7, 0x9a, 0x3e, 0xaa, 0x08, 0x5f, 0x3e,
  0x2f, 0x21, 0x3a, 0x3e, 0xc8, 0xf9, 0xe5, 0x3c, 0x6e, 0xc7, 0xea, 0x3b,
  0x59, 0x2b, 0x74, 0x3d, 0x9c, 0xf2, 0xd9, 0xbe, 0xc1, 0x24, 0x53, 0xbe,
  0xad, 0x18, 0x7d, 0x3d, 0x37, 0x41, 0xde, 0xbd, 0x27, 0xc1, 0x57, 0x3f,
  0x9b, 0x1b, 0xcc, 0xbc, 0x7a, 0xce, 0x3b, 0xbe, 0x5a, 0xd1, 0xac, 0xbc,
  0x56, 0xa3, 0x46, 0x3d, 0xc1, 0xab, 0x08, 0x3e, 0x04, 0xd2, 0xad, 0xbe,
  0x35, 0x1f, 0x6c, 0xbd, 0xda, 0xef, 0x43, 0xbd, 0xb8, 0x31, 0xb6, 0xbd,
  0x04, 0x4f, 0x0f, 0x3d, 0xaa, 0x43, 0xc4, 0x3d, 0x28, 0x4c, 0x06, 0xbe,
  0x4b, 0x81, 0x15, 0xbe, 0xac, 0xa5, 0x14, 0x3d, 0x3c, 0x09, 0x84, 0x3d,
  0xd2, 0xca, 0x18, 0x3f, 0x9c, 0x6a, 0x90, 0xbd, 0xad, 0x4e, 0x4f, 0x3d,
  0xde, 0x2a, 0x7d, 0xbe, 0x90, 0x52, 0x0e, 0x3c, 0x29, 0x97, 0xad, 0xbd,
  0x55, 0xf6, 0xdc, 0x3d, 0x64, 0x83, 0x62, 0xbe, 0x0f, 0xef, 0xba, 0xbd,
  0xa8, 0x90, 0x9e, 0xbc, 0x3b, 0x5f, 0xe6, 0x3c, 0x4c, 0xc0, 0x94, 0xbc,
  0xe7, 0x62, 0x44, 0xbe, 0xc5, 0xbb, 0x93, 0xbd, 0xdb, 0xe9, 0x53, 0xbe,
  0x12, 0x4c, 0x4c, 0x3e, 0x5d, 0x96, 0x74, 0x3e, 0xdd, 0xb7, 0x35, 0xbe,
  0xfb, 0x84, 0x88, 0x3d, 0xb0, 0x4b, 0xc5, 0xbe, 0x3d, 0x1b, 0xb9, 0x3d,
  0xeb, 0x9f, 0xa4, 0xbe, 0xbd, 0xe8, 0x94, 0xbe, 0x3a, 0x66, 0x76, 0xbe,
  0x33, 0x5a, 0x66, 0xbc, 0x34, 0x58, 0x5d, 0xbe, 0x66, 0xa5, 0x58, 0x3e,
  0xa0, 0x75, 0x11, 0x3e, 0xbd, 0x5e, 0x8b, 0x3d, 0x1d, 0x71, 0xaf, 0x3e,
  0x6f, 0x0c, 0xaa, 0xbe, 0xb1, 0x54, 0xa8, 0x3d, 0x55, 0x3b, 0x85, 0xbc,
  0x8d, 0x65, 0xbd, 0x3e, 0xef, 0x4c, 0xdb, 0x3d, 0xb5, 0x57, 0x45, 0x3e,
  0x39, 0x8b, 0x1d, 0x3d, 0xe3, 0x2b, 0x7f, 0xbe, 0x66, 0xb6, 0xc5, 0xbc,
  0x48, 0x74, 0x1a, 0x3e, 0xea, 0xb6, 0x03, 0xbd, 0xa4, 0xf9, 0x01, 0x3f,
  0x96, 0x06, 0x29, 0x3e, 0x79, 0xfc, 0x1f, 0xbb, 0x48, 0x96, 0x58, 0x3e,
  0x87, 0x73, 0xca, 0x3e, 0x24, 0x1c, 0x71, 0xbe, 0x03, 0x97, 0x38, 0x3e,
  0x48, 0x58, 0xe0, 0xbd, 0xbb, 0x8f, 0xc2, 0x3d, 0x70, 0x0a, 0xa3, 0xbd,
  0x60, 0x10, 0x6d, 0x3e, 0xc3, 0x10, 0x8b, 0x3d, 0x78, 0x28, 0x28, 0xbe,
  0x59, 0xfb, 0x0f, 0xbe, 0x88, 0xaa, 0x32, 0xbc, 0xab, 0xbd, 0xb7, 0xbd,
  0x24, 0x01, 0x2f, 0x3f, 0x77, 0x7e, 0x37, 0x3e, 0x30, 0x73, 0x12, 0xbe,
  0x73, 0xab, 0x28, 0x3d, 0x8e, 0x8b, 0xc1, 0x3e, 0x03, 0xf4, 0x3b, 0xbc,
  0xff, 0x82, 0x91, 0x3d, 0xd8, 0x1f, 0x47, 0xbe, 0xc8, 0x9f, 0xdb, 0xbc,
  0x65, 0x39, 0x10, 0x3d, 0xee, 0x52, 0x00, 0x3f, 0x99, 0x45, 0xdf, 0x3b,
  0x24, 0xeb, 0x9d, 0xbd, 0xa2, 0x52, 0x69, 0xbd, 0xdb, 0xcd, 0x76, 0xbb,
  0x85, 0xc9, 0x42, 0x3e, 0xf5, 0xb1, 0x05, 0x3e, 0x9e, 0x15, 0x1d, 0x3e,
  0x45, 0x4a, 0x55, 0x3e, 0xea, 0x0d, 0xa8, 0x3d, 0xfd, 0x42, 0xb5, 0x3e,
  0x16, 0xba, 0xb2, 0xbe, 0x5c, 0x14, 0x0b, 0x3e, 0x5e, 0x52, 0x90, 0xbc,
  0x94, 0xce, 0x27, 0x3a, 0x0a, 0xf7, 0x39, 0xbe, 0x79, 0xe8, 0x13, 0xbe,
  0xa7, 0x93, 0x27, 0x3d, 0x3b, 0x72, 0xa2, 0x3c, 0xb8, 0x48, 0x5d, 0xbc,
  0xe4, 0x84, 0x19, 0xbb, 0x35, 0x29, 0xa4, 0xbd, 0x76, 0x9e, 0x65, 0x3e,
  0x66, 0x3c, 0xd1, 0x3e, 0x9f, 0xdd, 0xb4, 0x3e, 0x1c, 0xb4, 0x1f, 0x3e,
  0xa6, 0x5f, 0x87, 0x3e, 0xe5, 0x77, 0xd2, 0xbe, 0x91, 0x27, 0x54, 0x3e,
  0x4c, 0x5c, 0x8b, 0xbe, 0x5c, 0x17, 0xaa, 0xbe, 0x39, 0x3d, 0x83, 0xbe,
  0x12, 0x57, 0x00, 0x3e, 0x67, 0x7d, 0xf3, 0x3c, 0x01, 0x85, 0x5e, 0xbe,
  0xcf, 0xf8, 0x2d, 0xbe, 0x1d, 0xfa, 0x79, 0xbe, 0xca, 0xc5, 0x1f, 0xbe,
  0x84, 0x09, 0x02, 0x3e, 0x7f, 0xa2, 0x98, 0x3e, 0x13, 0xfc, 0x9d, 0x3e,
  0x1e, 0x55, 0x36, 0x3e, 0xf1, 0x0d, 0x09, 0x3d, 0xc8, 0xc6, 0xd9, 0xbd,
  0x56, 0x76, 0xb4, 0x3e, 0xb1, 0x05, 0xd7, 0xbe, 0x51, 0x7c, 0xe4, 0xbd,
  0x13, 0x79, 0x15, 0xbd, 0x49, 0xd2, 0xe2, 0x3c, 0xa8, 0x29, 0x9e, 0x3c,
  0x94, 0x76, 0x05, 0xbe, 0xfb, 0x97, 0x17, 0xbe, 0xa4, 0xb6, 0x34, 0xbd,
  0x2b, 0x50, 0xae, 0x3a, 0xb5, 0xeb, 0x9a, 0xbd, 0x3d, 0xb7, 0x80, 0x3e,
  0xee, 0xf7, 0xb0, 0x3d, 0xb9, 0x13, 0x34, 0x3b, 0x2f, 0xd8, 0x73, 0x3c,
  0x00, 0x3b, 0x29, 0xbe, 0x32, 0xa0, 0x39, 0x3e, 0x67, 0xaa, 0xa7, 0x3d,
  0x8c, 0x15, 0x6f, 0xbb, 0xdb, 0xa3, 0x01, 0x3a, 0x1a, 0x25, 0x9a, 0x3b,
  0xe9, 0x2a, 0x2b, 0x3d, 0xf5, 0x9a, 0x35, 0x3d, 0xe1, 0x77, 0xa4, 0xbe,
  0x94, 0x8e, 0x84, 0xbe, 0x52, 0x42, 0x76, 0xbe, 0xef, 0x98, 0xd9, 0xbd,
  0x08, 0x94, 0x49, 0x3e, 0xc0, 0x53, 0x0a, 0x3e, 0xb1, 0x94, 0x23, 0x3d,
  0x25, 0x8d, 0xa9, 0x3e, 0x07, 0x4e, 0xe3, 0xbe, 0x34, 0x8c, 0x4e, 0x3e,
  0x1e, 0xd0, 0x48, 0xbe, 0xe1, 0x30, 0xa1, 0x3e, 0x50, 0xa8, 0x3e, 0x3e,
  0xb0, 0x5d, 0xcf, 0xbb, 0x3e, 0x0d, 0x61, 0x3d, 0xe4, 0xd3, 0x08, 0xbe,
  0xda, 0xac, 0xf6, 0xbc, 0x59, 0xa9, 0x87, 0x3d, 0x1f, 0x06, 0x16, 0xbd,
  0xb1, 0x16, 0xe2, 0x3e, 0x96, 0x66, 0xba, 0x3e, 0xe2, 0xe1, 0xc2, 0xbd,
  0xf8, 0x5d, 0xe1, 0x3c, 0xd9, 0x3a, 0xa1, 0x3e, 0x15, 0x04, 0x68, 0xbe,
  0xc6, 0xe6, 0x62, 0xbd, 0xc7, 0xb5, 0x02, 0xbe, 0x37, 0x9d, 0x45, 0x3d,
  0x30, 0xec, 0xdd, 0xbd, 0xa2, 0x8f, 0x85, 0x3e, 0xc0, 0x3e, 0x46, 0x3b,
  0x75, 0x37, 0xa7, 0xbd, 0xc9, 0x59, 0x4e, 0xbe, 0xc2, 0xfb, 0x20, 0xbe,
  0x21, 0x13, 0x81, 0xbe, 0xf7, 0x15, 0xbf, 0x3e, 0x8e, 0x48, 0x8e, 0x3e,
  0xcc, 0x08, 0x0d, 0x3c, 0xd6, 0xb0, 0xa9, 0x3c, 0x08, 0xf3, 0x4d, 0x3e,
  0x6c, 0x79, 0xcf, 0xbd, 0xa7, 0xdc, 0xb6, 0x3a, 0x78, 0xb2, 0xdb, 0xbd,
  0x6f, 0xa3, 0x0e, 0xbe, 0xc5, 0x02, 0x9e, 0xbd, 0x0d, 0x52, 0x71, 0x3e,
  0x7c, 0xd6, 0x88, 0x3c, 0xf0, 0x98, 0xf8, 0x3d, 0xaf, 0xae, 0x34, 0xbe,
  0x2e, 0x0f, 0x33, 0xbe, 0x16, 0x8d, 0x49, 0xbe, 0xc3, 0x84, 0x87, 0xbd,
  0xd9, 0x45, 0xdb, 0x3e, 0xfd, 0x62, 0x1d, 0x3e, 0xc2, 0x30, 0x05, 0xba,
  0x0b, 0xfb, 0x8c, 0x3e, 0x38, 0x4c, 0xd6, 0xbe, 0x61, 0x5c, 0xc3, 0x3d,
  0x18, 0x1e, 0x0b, 0xbe, 0x8e, 0x3a, 0x62, 0xbd, 0x0d, 0x03, 0x20, 0xbe,
  0x41, 0x11, 0x95, 0xbb, 0xdd, 0x57, 0xb2, 0x3c, 0x44, 0x8f, 0xc3, 0x3d,
  0xc5, 0x1f, 0x0a, 0xbe, 0x42, 0x97, 0x2a, 0xbe, 0x22, 0x00, 0x82, 0xbe,
  0x52, 0x35, 0x87, 0xbc, 0x0d, 0x7f, 0xc0, 0x3e, 0x9d, 0x29, 0x09, 0x3e,
  0x99, 0xcc, 0xea, 0x3d, 0xee, 0xbc, 0x09, 0x3e, 0x5e, 0x3d, 0xcb, 0xbe,
  0x3e, 0xaa, 0x2f, 0x3d, 0x26, 0x47, 0x38, 0xbe, 0x41, 0x3b, 0x9c, 0xbd,
  0x83, 0x96, 0xa1, 0xbe, 0xd0, 0x26, 0x39, 0x3d, 0x26, 0xf5, 0x90, 0xbc,
  0x9d, 0xee, 0x69, 0xbd, 0xa8, 0x54, 0x71, 0xbe, 0x43, 0x42, 0x10, 0xbe,
  0xea, 0x44, 0xf0, 0xbd, 0x9f, 0x04, 0x31, 0x3d, 0x48, 0xec, 0xde, 0x3d,
  0xa6, 0x8a, 0x5a, 0x3e, 0x5f, 0x2d, 0x89, 0x3d, 0x3e, 0xa2, 0x84, 0xbc,
  0x8f, 0x1e, 0x0f, 0xbc, 0xe7, 0x8c, 0x78, 0x3e, 0xa4, 0x96, 0x7e, 0xbe,
  0xe8, 0x3c, 0x79, 0x3c, 0xdf, 0xfc, 0x10, 0x3c, 0x40, 0x21, 0xdc, 0x3c,
  0x41, 0xae, 0xe3, 0x3c, 0x44, 0xa2, 0x7c, 0x3d, 0x05, 0xfa, 0x1c, 0xbd,
  0xe4, 0xb6, 0x81, 0xbe, 0x24, 0x3d, 0xd6, 0x3c, 0x15, 0xfb, 0x77, 0xbd,
  0x65, 0xd1, 0x2a, 0x3e, 0x43, 0xad, 0xb5, 0x3d, 0x81, 0xe5, 0xfc, 0x3d,
  0x1e, 0xd3, 0x96, 0xbe, 0x3f, 0x50, 0xc2, 0x3d, 0xb8, 0xe6, 0x33, 0xbd,
  0x00, 0x21, 0x2b, 0xbe, 0x88, 0xfc, 0x06, 0xbe, 0x29, 0x6a, 0xf9, 0x3c,
  0x82, 0x4b, 0x97, 0xbe, 0xe0, 0x01, 0x3f, 0xbe, 0x38, 0xed, 0x95, 0xbd,
  0x46, 0x95, 0xea, 0x3d, 0x16, 0x68, 0x56, 0x3e, 0xe3, 0x24, 0x33, 0xbe,
  0xc6, 0xf1, 0x3a, 0x3d, 0x24, 0xfb, 0x99, 0x3b, 0xa1, 0x7b, 0x88, 0xbe,
  0x55, 0xb3, 0xba, 0xbe, 0x79, 0xb4, 0x9a, 0xbe, 0xac, 0x93, 0x03, 0x3e,
  0x65, 0x58, 0x64, 0xbe, 0x1d, 0xa3, 0xfa, 0x3f, 0x89, 0x94, 0x99, 0x3d,
  0x57, 0x1d, 0xbd, 0x3c, 0x7a, 0xd2, 0xe6, 0x3d, 0x51, 0xa6, 0x3e, 0xbd,
  0x1b, 0xa9, 0xde, 0x3d, 0x49, 0x16, 0x8e, 0x3c, 0xb8, 0x66, 0xbe, 0xbc,
  0xb3, 0x19, 0x97, 0xbd, 0xf0, 0xec, 0xd5, 0xbb, 0x66, 0x05, 0x5c, 0xbe,
  0xab, 0x5b, 0x7e, 0x3e, 0xa1, 0xd0, 0xd2, 0xbe, 0xc2, 0x3d, 0xb7, 0xbe,
  0x19, 0xc9, 0x6a, 0x3e, 0x65, 0x79, 0x5f, 0xbd, 0xfe, 0x92, 0x00, 0x40,
  0x35, 0x0d, 0xbb, 0x3e, 0xca, 0xd8, 0x18, 0x3e, 0x3c, 0x29, 0x68, 0xbe,
  0xa8, 0x3b, 0x8a, 0xbd, 0xa2, 0xe7, 0x2b, 0x3e, 0x2b, 0x89, 0xc0, 0x3e,
  0x59, 0x5e, 0x36, 0x3e, 0xc6, 0x8f, 0x0e, 0x3e, 0x1f, 0xda, 0x37, 0xbe,
  0xc7, 0xf7, 0xa2, 0xbe, 0xa2, 0xfa, 0x27, 0xbe, 0x22, 0xd0, 0x2a, 0xbe,
  0x84, 0x0e, 0x4b, 0xbe, 0xe6, 0x38, 0x82, 0x3e, 0x49, 0xa3, 0xf9, 0xbd,
  0xbf, 0x25, 0x24, 0x40, 0xfc, 0x7b, 0x03, 0xbe, 0x6e, 0xf4, 0x6b, 0x3e,
  0x26, 0x24, 0x35, 0xbe, 0x66, 0x9d, 0x42, 0x3c, 0x96, 0xa3, 0x12, 0x3e,
  0x58, 0xb7, 0xbb, 0x3e, 0x42, 0xd7, 0x2e, 0x3e, 0x34, 0xad, 0x1f, 0x3d,
  0x97, 0xc4, 0xa1, 0xbe, 0x43, 0x92, 0x5b, 0xbe, 0x70, 0xf4, 0x9e, 0xbe,
  0x64, 0x56, 0xc1, 0xbe, 0x16, 0xa5, 0xbc, 0xbe, 0xc6, 0xc0, 0x9b, 0x3e,
  0x87, 0xb3, 0x45, 0xbe, 0x21, 0x03, 0x03, 0x40, 0x88, 0x9a, 0xf0, 0xbe,
  0x78, 0xa8, 0x22, 0x3e, 0xa1, 0xc5, 0xc4, 0xbd, 0x63, 0x45, 0x12, 0x3d,
  0x8f, 0xba, 0xf1, 0xbd, 0x1b, 0xeb, 0x7b, 0x3e, 0x3b, 0xa0, 0x31, 0x3e,
  0x82, 0x8d, 0x91, 0x3c, 0xf7, 0xe9, 0x8b, 0xbd, 0xe2, 0xb0, 0xc8, 0xbe,
  0x0d, 0x65, 0xe7, 0x3c, 0xa6, 0x4c, 0xbe, 0xbe, 0xbe, 0x79, 0x8a, 0xbe,
  0xd0, 0x3e, 0x71, 0x3e, 0xc3, 0x84, 0xbd, 0xbe, 0xd0, 0x5b, 0xe5, 0x3f,
  0x90, 0x5e, 0xc2, 0x3d, 0xe4, 0x39, 0xcb, 0xbc, 0xde, 0x18, 0xb8, 0xbd,
  0x2d, 0xff, 0xa6, 0x3c, 0x4d, 0x97, 0xb5, 0xbc, 0x63, 0x04, 0x47, 0xbd,
  0x24, 0x82, 0xe7, 0x3e, 0x69, 0x94, 0x9d, 0xbe, 0xa0, 0x64, 0xc3, 0xbc,
  0x28, 0xb9, 0x53, 0xbe, 0x8d, 0x11, 0xff, 0x3d, 0x9c, 0x45, 0x9a, 0xbe,
  0x72, 0xa5, 0x7b, 0xbe, 0x06, 0xbd, 0xbc, 0xbd, 0xbf, 0x91, 0xbe, 0x3d,
  0x2d, 0x5b, 0xb4, 0x3f, 0x16, 0x8a, 0x94, 0xbe, 0xa9, 0xd5, 0x48, 0x3d,
  0x84, 0x94, 0x16, 0xbe, 0x51, 0x22, 0x65, 0x3b, 0x2a, 0x6c, 0x89, 0xbb,
  0xc8, 0x90, 0x60, 0x3d, 0x31, 0xc3, 0x4a, 0xbd, 0x8b, 0x46, 0x2e, 0xbe,
  0xb3, 0x42, 0xf0, 0x3d, 0x8d, 0xd6, 0xf2, 0x3c, 0xea, 0xbb, 0x2a, 0x3e,
  0xc0, 0xda, 0xd6, 0xbd, 0x53, 0x4d, 0x8e, 0xbe, 0x41, 0xf0, 0x28, 0x3e,
  0x19, 0xa0, 0x85, 0xbc, 0xe5, 0x27, 0x71, 0xbe, 0x58, 0xe8, 0x1c, 0x3d,
  0xfd, 0x82, 0xf0, 0xbd, 0xd5, 0xc2, 0xa8, 0xbd, 0x92, 0xc0, 0x6b, 0xbe,
  0x6a, 0x69, 0x07, 0xbe, 0xb3, 0x11, 0x1d, 0xbe, 0x3b, 0x4f, 0x61, 0xbe,
  0x38, 0xb1, 0xd0, 0x3d, 0xef, 0x9e, 0x8c, 0x3c, 0xb5, 0xc7, 0x40, 0x3e,
  0x4d, 0x12, 0xc0, 0xbd, 0x04, 0xa7, 0x13, 0xbe, 0x14, 0xa0, 0xf0, 0xbd,
  0xbf, 0xed, 0x48, 0xbd, 0x61, 0x28, 0x85, 0xbe, 0x95, 0xc3, 0x03, 0xbe,
  0x24, 0x9a, 0xb8, 0x3d, 0x53, 0xee, 0x23, 0xbd, 0x64, 0x52, 0x2e, 0x3e,
  0x1b, 0x16, 0xb4, 0xbd, 0x99, 0x79, 0x5f, 0xbe, 0x3c, 0x9e, 0x1f, 0xbd,
  0xda, 0xd5, 0x3e, 0xbe, 0xe0, 0x06, 0xdf, 0x3c, 0xca, 0x95, 0xb4, 0xbd,
  0x41, 0x00, 0x37, 0x3e, 0x54, 0x50, 0x20, 0xbe, 0x01, 0x41, 0xd2, 0xbc,
  0xa5, 0x5e, 0x50, 0xbe, 0xe5, 0xdd, 0xec, 0xbb, 0x39, 0x17, 0x0c, 0x3e,
  0x27, 0xc5, 0xc9, 0x3d, 0x22, 0x20, 0x2e, 0xbe, 0xdf, 0x87, 0xbc, 0xbd,
  0xac, 0xda, 0x0e, 0x3e, 0xc3, 0x59, 0x55, 0xbe, 0x82, 0x68, 0x1c, 0xbe,
  0xb9, 0xb3, 0x7a, 0xbe, 0x79, 0xbf, 0xf6, 0x3d, 0x0d, 0xfb, 0x3c, 0xbd,
  0x8a, 0xea, 0x28, 0x3e, 0xae, 0xe8, 0x1f, 0xbe, 0x88, 0xda, 0x75, 0x3d,
  0x6c, 0xa6, 0x91, 0x3d, 0x92, 0xb1, 0xb1, 0xbd, 0xe0, 0x9b, 0xd0, 0x3d,
  0x87, 0x0d, 0x29, 0xbe, 0xe3, 0xf6, 0xca, 0x3d, 0x4d, 0x9d, 0x21, 0x3d,
  0x6a, 0x56, 0xcc, 0xbd, 0xfc, 0xe3, 0x35, 0xbe, 0xbe, 0xa6, 0xdd, 0xbd,
  0x63, 0xe5, 0x68, 0xbb, 0x38, 0x4d, 0xa3, 0xbc, 0xb9, 0xd6, 0x48, 0xbe,
  0x76, 0x3d, 0x05, 0xbe, 0x4e, 0x8a, 0xa2, 0xbd, 0x68, 0xf0, 0x90, 0xbd,
  0xe2, 0x95, 0x4b, 0xbc, 0x23, 0x74, 0x2c, 0x3b, 0x63, 0x33, 0xae, 0xbd,
  0x91, 0x2c, 0x96, 0xbd, 0xef, 0xff, 0xa0, 0x3d, 0x7c, 0xc6, 0xdc, 0xbc,
  0x84, 0x50, 0x31, 0x3d, 0x03, 0xcc, 0xba, 0xbc, 0x98, 0x53, 0x23, 0x3d,
  0x54, 0x35, 0xa4, 0xbc, 0x1e, 0x27, 0xb2, 0xbc, 0xdd, 0x14, 0x21, 0xbe,
  0x65, 0x80, 0x33, 0x3d, 0xcb, 0x7d, 0xa6, 0x3d, 0xbc, 0xbe, 0xfa, 0x3d,
  0x40, 0x06, 0x0e, 0xbe, 0xaa, 0x87, 0x6a, 0x3c, 0xf2, 0x1e, 0x74, 0xbe,
  0xaa, 0xc2, 0x21, 0xbe, 0xdc, 0x32, 0xb4, 0x3c, 0xae, 0xce, 0x40, 0xbe,
  0xcf, 0xd4, 0xb2, 0x3c, 0xd8, 0xce, 0xa9, 0x3d, 0xb4, 0x9f, 0x90, 0xbd,
  0x78, 0x60, 0xce, 0x3d, 0x4c, 0x2f, 0xaf, 0xbe, 0x49, 0xff, 0x01, 0xbe,
  0x38, 0x7a, 0x67, 0xbe, 0x16, 0xea, 0x77, 0xbe, 0xeb, 0x65, 0x2c, 0xbe,
  0x19, 0xfb, 0x7d, 0xbe, 0xb7, 0x3b, 0x9a, 0xbc, 0xef, 0x05, 0x57, 0xbe,
  0x35, 0x97, 0xcf, 0xbd, 0x13, 0x24, 0xde, 0x3c, 0x21, 0x5f, 0x24, 0xbc,
  0xe0, 0xb5, 0x98, 0xbd, 0x8c, 0x3b, 0xf5, 0x3b, 0xa6, 0x7f, 0x1d, 0xbb,
  0xc4, 0x5c, 0x25, 0xbe, 0xca, 0x6a, 0xbe, 0xbc, 0xe4, 0xf5, 0x24, 0xbe,
  0x89, 0xd4, 0x8b, 0xbe, 0x78, 0x64, 0xdd, 0xbd, 0x04, 0x45, 0xa2, 0x3c,
  0xd6, 0xda, 0x7a, 0x3d, 0xa8, 0x96, 0x76, 0x3d, 0x2f, 0xe9, 0xdc, 0xbd,
  0xed, 0xd9, 0xe7, 0xbd, 0x3e, 0xe2, 0xef, 0xbc, 0xd0, 0xb3, 0xa3, 0xbe,
  0x79, 0x25, 0x14, 0xbf, 0x52, 0xb0, 0x01, 0xbe, 0x90, 0x1f, 0x82, 0xbe,
  0x38, 0x1d, 0x4e, 0xbe, 0xb2, 0x80, 0xe9, 0xbe, 0xc4, 0xd2, 0xb3, 0xbe,
  0xfe, 0x3c, 0xde, 0xbd, 0x6c, 0x63, 0x8f, 0xbe, 0x94, 0x51, 0x37, 0xbf,
  0xb1, 0x91, 0x30, 0xbf, 0x76, 0x0f, 0xe6, 0xbe, 0x53, 0xf6, 0xc2, 0xbe,
  0x59, 0xb2, 0x03, 0xbf, 0x9d, 0x5d, 0x2a, 0x3e, 0x22, 0x65, 0xe2, 0xbd,
  0x3c, 0xe2, 0x69, 0xbe, 0x14, 0x81, 0x07, 0xbf, 0x1f, 0x81, 0x1d, 0xbe,
  0x88, 0x9a, 0x25, 0xbd, 0x34, 0x62, 0xa2, 0xbe, 0x4a, 0x7b, 0x0a, 0xbf,
  0x80, 0xdb, 0xd4, 0xbd, 0x97, 0xba, 0x16, 0xbe, 0xde, 0x4b, 0x4b, 0xbe,
  0x0d, 0x8a, 0x04, 0xbf, 0x28, 0xf6, 0xcb, 0xbe, 0x04, 0x31, 0x99, 0xbd,
  0xf3, 0x47, 0x4e, 0xbd, 0xd3, 0x4c, 0xb1, 0xbe, 0x54, 0xb4, 0x2b, 0x3e,
  0x9c, 0xf6, 0x4b, 0xbd, 0x78, 0xf0, 0x73, 0xbe, 0x3a, 0x49, 0xf6, 0xbe,
  0xb4, 0xde, 0xdc, 0xbd, 0xa7, 0x57, 0x33, 0xbe, 0xe8, 0xac, 0x6d, 0xbe,
  0x24, 0x96, 0x11, 0xbf, 0x44, 0x46, 0x98, 0xbe, 0x81, 0xfc, 0x39, 0xbe,
  0x10, 0xe1, 0x9a, 0xbd, 0xcc, 0x01, 0x1d, 0xbe, 0x3a, 0x39, 0xe8, 0xbe,
  0x0e, 0x04, 0xc0, 0xbe, 0xec, 0x6e, 0xa6, 0xbd, 0xf2, 0x06, 0xdb, 0xbe,
  0xef, 0x3a, 0xe3, 0xbb, 0x0e, 0x6f, 0x58, 0x3c, 0x6b, 0xe4, 0x1e, 0xbf,
  0x7b, 0x7a, 0x8e, 0xbe, 0xa4, 0xef, 0x44, 0xbe, 0x53, 0xe7, 0x50, 0x3d,
  0xc7, 0x29, 0xbd, 0x3b, 0xe6, 0x7c, 0x4e, 0xbf, 0x72, 0x3d, 0x17, 0xbe,
  0x05, 0x2f, 0xd1, 0xbd, 0x46, 0x0a, 0x97, 0xbe, 0x2f, 0xeb, 0x28, 0xbf,
  0x4e, 0x94, 0x7f, 0xbe, 0xe2, 0x6a, 0xf8, 0xbe, 0x9d, 0x04, 0x0d, 0xbe,
  0x97, 0x80, 0x01, 0xbf, 0x16, 0xc7, 0x14, 0x3d, 0x4e, 0x94, 0x05, 0xbc,
  0x37, 0x72, 0x50, 0x3e, 0xb4, 0xed, 0xb6, 0xbc, 0x48, 0x23, 0xeb, 0xbd,
  0x33, 0x2a, 0x4a, 0xbd, 0x24, 0xed, 0x67, 0x3e, 0xea, 0x0a, 0x86, 0x3d,
  0x1e, 0x4c, 0x1a, 0x3f, 0x25, 0x95, 0xe7, 0xbd, 0x2c, 0x5f, 0x5c, 0xbc,
  0x1c, 0xe0, 0x0e, 0x3e, 0x4b, 0x80, 0x76, 0xbe, 0x98, 0x75, 0xd8, 0x3e,
  0xcd, 0x65, 0xfe, 0x3e, 0xb9, 0x2f, 0xcf, 0xbe, 0xfb, 0x75, 0xc7, 0xbd,
  0x28, 0x08, 0x25, 0xbe, 0x33, 0xc1, 0x19, 0x3e, 0xf6, 0x8c, 0x0f, 0xbe,
  0x30, 0x45, 0x9e, 0xbe, 0xa8, 0x77, 0x07, 0xbe, 0x64, 0x2d, 0x3a, 0x3e,
  0x37, 0x06, 0x2b, 0xbd, 0xd3, 0x7b, 0x26, 0x3f, 0xe6, 0x07, 0xa4, 0xbc,
  0x55, 0xf6, 0x48, 0xbd, 0xa4, 0x50, 0xae, 0x3c, 0x67, 0xf1, 0xb7, 0xbe,
  0x0c, 0xf3, 0xc1, 0x3e, 0xd2, 0xa7, 0x83, 0x3e, 0xeb, 0x24, 0xef, 0xbe,
  0x53, 0x08, 0xbd, 0xbe, 0x82, 0xe3, 0xd0, 0xbd, 0x91, 0x7b, 0xbf, 0x3d,
  0xde, 0x84, 0x0e, 0x3e, 0x41, 0x8e, 0x74, 0xbe, 0x30, 0x7e, 0x5a, 0x3e,
  0xb9, 0xb0, 0xad, 0x3e, 0x15, 0x9e, 0x14, 0x3e, 0xf5, 0x58, 0x91, 0x3e,
  0xf7, 0xb7, 0xdc, 0x3d, 0xb4, 0xb2, 0xaa, 0x3d, 0x5c, 0x23, 0x07, 0x3c,
  0x2a, 0xee, 0x51, 0xbe, 0xb5, 0x12, 0x37, 0x3e, 0xbb, 0x7d, 0x95, 0x3e,
  0x23, 0x20, 0x32, 0xbd, 0x6a, 0x90, 0x06, 0xbe, 0x30, 0x0b, 0x04, 0xbb,
  0x2e, 0x6f, 0x2e, 0x3e, 0x39, 0xe9, 0x08, 0xbd, 0xf9, 0x39, 0x96, 0xbe,
  0xed, 0x97, 0xa8, 0xbe, 0x0a, 0x7b, 0x97, 0x3c, 0x85, 0x6e, 0x02, 0x3e,
  0xa4, 0x4f, 0x4a, 0x3e, 0x39, 0x4d, 0x92, 0x3e, 0xc1, 0x13, 0xaf, 0x3d,
  0xa6, 0x1a, 0x0b, 0x3c, 0x18, 0x40, 0x85, 0xbe, 0x47, 0xf0, 0xa2, 0x3e,
  0xea, 0xb1, 0x22, 0x3d, 0x14, 0xe6, 0x28, 0x3c, 0x92, 0x2a, 0x92, 0xbe,
  0xe2, 0xda, 0x81, 0x3e, 0xd6, 0x60, 0x20, 0xbe, 0xa2, 0xde, 0x8c, 0x3d,
  0x84, 0x4e, 0x61, 0xbd, 0xc8, 0x38, 0xd4, 0x3d, 0xe4, 0xe9, 0x4a, 0xbe,
  0x2a, 0x7d, 0xa6, 0xbd, 0x13, 0x6d, 0x62, 0x3e, 0xfb, 0x43, 0xbc, 0xbd,
  0xe3, 0xe7, 0x4a, 0xbe, 0x51, 0xe7, 0x89, 0x3d, 0xd8, 0xee, 0xb4, 0x3e,
  0xa7, 0xa0, 0x18, 0xbe, 0x0d, 0xc6, 0x4a, 0xbe, 0xf3, 0xdf, 0xfd, 0x3c,
  0x92, 0x48, 0x50, 0xbe, 0x9c, 0x9f, 0x17, 0x3e, 0xaa, 0xe2, 0xc4, 0xbe,
  0xab, 0xcd, 0x5c, 0xbe, 0x86, 0x8f, 0x93, 0x3b, 0x7a, 0x94, 0xbf, 0x3d,
  0x19, 0xe5, 0xa1, 0xbe, 0x1b, 0x6c, 0x6c, 0xbe, 0xd1, 0xab, 0xfc, 0x3d,
  0xff, 0x8f, 0x7c, 0xbd, 0x68, 0xd0, 0x0a, 0xbe, 0xd2, 0x53, 0xf4, 0xbe,
  0x31, 0xc7, 0x68, 0x3d, 0xbe, 0xfe, 0x85, 0xbe, 0x6b, 0xec, 0x31, 0xbe,
  0x8a, 0x4b, 0x18, 0x3e, 0xd2, 0xf3, 0x0f, 0x3e, 0x67, 0x6a, 0xae, 0xbe,
  0xa1, 0x59, 0x8a, 0xbe, 0x36, 0x43, 0xa5, 0xbc, 0x80, 0x20, 0x29, 0xbe,
  0xbd, 0x4e, 0xeb, 0x3b, 0xc6, 0x25, 0x5e, 0xbc, 0x16, 0x99, 0x1e, 0xbd,
  0xe8, 0x0c, 0xd9, 0xbd, 0x65, 0x73, 0x89, 0xbd, 0x70, 0xdf, 0xda, 0xbe,
  0xe4, 0x45, 0x55, 0xbf, 0xde, 0x5e, 0x89, 0x3c, 0xca, 0x98, 0xc8, 0xbd,
  0x97, 0xbe, 0x07, 0x3e, 0xd6, 0xf1, 0x8d, 0xbd, 0xb4, 0x40, 0x8a, 0xbe,
  0x77, 0xcd, 0xa9, 0xbe, 0x99, 0x85, 0x86, 0xbe, 0x27, 0xf3, 0xd8, 0x3c,
  0xbe, 0x3e, 0x4d, 0xbe, 0x3f, 0x90, 0xd8, 0xbd, 0x73, 0x14, 0x4d, 0xbe,
  0x8b, 0x1f, 0x8b, 0xbc, 0x53, 0x88, 0x60, 0x3d, 0x30, 0xd3, 0x8b, 0xbd,
  0xac, 0x86, 0x8d, 0xbe, 0xcb, 0xc7, 0x93, 0xbe, 0x55, 0xd6, 0x18, 0xbd,
  0xb0, 0x0a, 0x9a, 0xbc, 0x8f, 0x5d, 0x8e, 0x3c, 0x2e, 0xb6, 0xd7, 0xbd,
  0xa5, 0x89, 0x05, 0xbe, 0xb5, 0xfa, 0x09, 0xbe, 0x30, 0xce, 0x90, 0xbe,
  0x5c, 0xed, 0x49, 0xbe, 0xe3, 0x01, 0xc4, 0xbc, 0x7b, 0x88, 0x90, 0xbd,
  0x45, 0xbf, 0xf9, 0xbd, 0x1b, 0xc7, 0x84, 0xbe, 0xcd, 0xd6, 0x35, 0xbe,
  0x64, 0x7d, 0xf3, 0xbd, 0xc5, 0xf9, 0x02, 0xbe, 0x2a, 0xef, 0xaa, 0xbe,
  0xe5, 0xdd, 0x90, 0x3d, 0xca, 0xce, 0x67, 0xbe, 0xf6, 0x46, 0x03, 0xbe,
  0xdf, 0xe4, 0xdb, 0x3c, 0x7a, 0x05, 0x80, 0xbe, 0x02, 0x0e, 0x80, 0xbe,
  0xf5, 0xd2, 0x88, 0xbe, 0x48, 0x4f, 0xaf, 0xbd, 0xcc, 0xb9, 0x47, 0xbe,
  0x1d, 0x02, 0x56, 0xbb, 0x05, 0x05, 0x5f, 0xbe, 0x70, 0x0f, 0xf8, 0xbd,
  0xfa, 0x71, 0xa5, 0xbd, 0x8e, 0x71, 0xb3, 0xbd, 0x84, 0x87, 0x31, 0xbe,
  0xed, 0x0c, 0xae, 0xbc, 0x8e, 0x95, 0x18, 0x3d, 0x77, 0xb5, 0x86, 0xbd,
  0x99, 0xb5, 0x98, 0xbe, 0xa5, 0x2e, 0x1b, 0xbe, 0x02, 0x22, 0xf1, 0xbe,
  0xd5, 0x74, 0x90, 0xbe, 0xf7, 0x7d, 0xd1, 0x3c, 0x57, 0x45, 0xe4, 0xbd,
  0xf1, 0xfd, 0x7f, 0x3e, 0x59, 0xa5, 0xf0, 0xbd, 0x5d, 0xba, 0x81, 0x3d,
  0x21, 0xa9, 0xfe, 0xbd, 0x6e, 0xba, 0x96, 0xbd, 0x48, 0x1f, 0xc1, 0xbd,
  0xb0, 0x86, 0x1c, 0x3d, 0xa9, 0x58, 0x93, 0xbd, 0x77, 0xce, 0x73, 0x3c,
  0xf3, 0x36, 0xab, 0xbd, 0xb8, 0x3f, 0xcd, 0xbd, 0x00, 0xdb, 0xb7, 0x3e,
  0x67, 0x40, 0x7f, 0xbd, 0xf1, 0x3f, 0x5e, 0x3d, 0x3e, 0xf5, 0x1a, 0x3e,
  0x75, 0x7c, 0x91, 0xbd, 0x54, 0xdf, 0x03, 0x3e, 0x80, 0x04, 0x9b, 0x3d,
  0x63, 0xce, 0xa0, 0x3e, 0xe7, 0xaf, 0x8f, 0x3d, 0x44, 0x4a, 0x63, 0x3e,
  0x8a, 0x05, 0x6d, 0xbe, 0xe5, 0x34, 0x7b, 0x3d, 0x9b, 0x01, 0xa1, 0xbd,
  0x82, 0xeb, 0x80, 0x3d, 0x97, 0x76, 0x45, 0x3d, 0x40, 0x4b, 0xae, 0x3e,
  0x35, 0x5d, 0x24, 0x3f, 0xe8, 0xc7, 0x85, 0x3d, 0xf9, 0x01, 0xab, 0x3d,
  0x12, 0xbb, 0x82, 0x3e, 0x0b, 0x63, 0x2b, 0xbe, 0x60, 0xa0, 0xee, 0x3d,
  0x90, 0x2d, 0xc1, 0xbd, 0xad, 0x98, 0xa5, 0x3c, 0x76, 0x15, 0x1b, 0xbe,
  0x19, 0xe5, 0x9e, 0x3e, 0x5c, 0x80, 0x88, 0xbe, 0x50, 0xd6, 0x82, 0x3d,
  0x70, 0x10, 0x4d, 0x3d, 0x00, 0x62, 0x8c, 0x3d, 0xb8, 0x51, 0x66, 0x3d,
  0x3c, 0xd8, 0x2e, 0x3e, 0x74, 0x4d, 0x0a, 0x3e, 0x6a, 0x4b, 0x00, 0x3e,
  0x35, 0x34, 0x53, 0x3d, 0x59, 0x39, 0xc2, 0x3d, 0x41, 0xd4, 0xa8, 0x3d,
  0xd5, 0xdb, 0xb8, 0x3e, 0x15, 0x6c, 0x41, 0x3b, 0xdb, 0x5b, 0xa0, 0xbd,
  0xc0, 0xc0, 0xc2, 0xbd, 0x05, 0x29, 0x4f, 0x3e, 0x43, 0x45, 0xb2, 0xbe,
  0x34, 0xed, 0xc2, 0x3d, 0x2d, 0xb2, 0x07, 0xbd, 0xd0, 0xda, 0x13, 0x3a,
  0x5c, 0xbb, 0x47, 0x3e, 0x47, 0x8a, 0x63, 0x3e, 0x9b, 0x90, 0x5b, 0x3e,
  0x5d, 0x93, 0xae, 0x3d, 0x91, 0xa0, 0xac, 0x3e, 0x57, 0x2a, 0x27, 0x3d,
  0x6e, 0x89, 0xed, 0x3d, 0x39, 0x7e, 0x1e, 0x3e, 0x26, 0x2b, 0x1f, 0xbc,
  0x67, 0xc7, 0xfc, 0xbd, 0xa4, 0x7e, 0xac, 0xbd, 0x10, 0xe6, 0x40, 0x3d,
  0x68, 0xc3, 0x90, 0xbe, 0x08, 0x80, 0xcb, 0x3d, 0xc0, 0xc9, 0xd3, 0xbc,
  0xca, 0xb1, 0x1e, 0x3d, 0x5f, 0x9e, 0xa2, 0x3d, 0x9f, 0x21, 0xf5, 0xbd,
  0x0d, 0x2e, 0x77, 0x3e, 0x01, 0xd6, 0x75, 0x3c, 0x17, 0x6c, 0x05, 0x3e,
  0x75, 0x85, 0x33, 0x3e, 0x0d, 0x49, 0xd4, 0x3c, 0xd9, 0x30, 0xe8, 0x3d,
  0x3d, 0x7e, 0x84, 0xbc, 0xa5, 0x4a, 0x6d, 0xbe, 0x5e, 0xb7, 0xe6, 0xbd,
  0xf9, 0x6f, 0xe3, 0xbd, 0xdb, 0xa7, 0xc7, 0xbe, 0x21, 0xb9, 0x3d, 0x3d,
  0x8d, 0x9c, 0x83, 0xbd, 0x99, 0x83, 0xc3, 0x3c, 0xc6, 0x91, 0xc9, 0xbc,
  0x4a, 0x2d, 0x66, 0x3d, 0xd4, 0x3b, 0x05, 0x3f, 0x1d, 0xc3, 0x04, 0x3d,
  0xea, 0x53, 0x02, 0x3e, 0x9f, 0x92, 0xf5, 0x3d, 0x4d, 0x79, 0xba, 0xbd,
  0x77, 0x02, 0xde, 0x3d, 0x39, 0x42, 0x50, 0xbe, 0xda, 0x10, 0xaa, 0x3d,
  0xbc, 0x3f, 0x5a, 0xbe, 0x98, 0xd1, 0x5a, 0xbd, 0xc4, 0xe6, 0x5a, 0xbe,
  0x2a, 0xb4, 0xc0, 0x3c, 0x71, 0xe0, 0x08, 0xbe, 0x4e, 0xe4, 0x71, 0x3d,
  0xbd, 0xbb, 0xda, 0xbc, 0x66, 0x96, 0x76, 0x3d, 0xc0, 0x42, 0xb7, 0x3e,
  0x0b, 0x5d, 0xbb, 0x3d, 0x4a, 0x70, 0xf5, 0x3d, 0x71, 0x03, 0x68, 0x3c,
  0xfd, 0x0e, 0xe2, 0x3d, 0x91, 0xd6, 0x40, 0x3e, 0xce, 0xab, 0x5b, 0x3e,
  0x1a, 0x5e, 0x60, 0xbd, 0xea, 0x4b, 0x58, 0xbe, 0x6e, 0x6c, 0xb3, 0xbd,
  0x46, 0xd1, 0x50, 0xbe, 0x03, 0xe1, 0x99, 0x3c, 0x1e, 0xcb, 0xa3, 0xbd,
  0x56, 0xb6, 0x51, 0x3c, 0xe0, 0x3f, 0xd6, 0xbd, 0xe6, 0xf7, 0xba, 0x3d,
  0x61, 0xa3, 0xe2, 0x3e, 0x01, 0x72, 0x6e, 0x3e, 0xbd, 0xf2, 0xd2, 0x3d,
  0xeb, 0xb5, 0xf1, 0x3d, 0xfd, 0x2d, 0xb2, 0xbd, 0xe0, 0x79, 0x92, 0x3d,
  0x29, 0x72, 0x2b, 0xbd, 0x26, 0x2d, 0x4f, 0x3e, 0xa7, 0x48, 0xde, 0xbc,
  0x4b, 0x44, 0xb7, 0xbc, 0xcc, 0x3c, 0x62, 0xbe, 0xf9, 0xad, 0xf3, 0xbc,
  0xb9, 0x14, 0x08, 0x3e, 0x7e, 0x5c, 0xe3, 0x3d, 0xfb, 0xc6, 0x26, 0x3e,
  0x69, 0x19, 0x00, 0x3e, 0x56, 0x59, 0xde, 0x3e, 0x23, 0xe9, 0x5f, 0xbc,
  0xbb, 0xf6, 0x52, 0x3c, 0x21, 0xb1, 0x2a, 0x3e, 0xff, 0x55, 0xc6, 0x3d,
  0x91, 0xdc, 0xec, 0x3d, 0x29, 0x7f, 0x4e, 0x3d, 0xb7, 0x9e, 0x46, 0x3e,
  0x5c, 0x03, 0x84, 0xbd, 0x5d, 0x5d, 0x40, 0x3e, 0x2f, 0x6e, 0xb9, 0xbe,
  0x81, 0x96, 0x5f, 0xbd, 0xb2, 0x14, 0x8b, 0xbd, 0x60, 0x49, 0x0e, 0x3e,
  0xf4, 0x4c, 0x9e, 0xbd, 0xb9, 0x78, 0x8f, 0xbb, 0x59, 0xcd, 0x9c, 0x3e,
  0x06, 0xf2, 0xb1, 0x3e, 0x9d, 0xca, 0x9b, 0x3e, 0x3f, 0x44, 0x13, 0x3e,
  0x09, 0xf2, 0x14, 0xbd, 0x09, 0x51, 0x87, 0x3d, 0x2a, 0x24, 0xb7, 0xbd,
  0xae, 0xc6, 0x83, 0x3d, 0x0f, 0xf5, 0x95, 0xbb, 0x4d, 0xa6, 0xc6, 0x3d,
  0x92, 0x97, 0xe6, 0xbe, 0xd5, 0x59, 0x8d, 0x3d, 0xb3, 0x9c, 0x0c, 0x3c,
  0x4d, 0x9f, 0x96, 0xbd, 0x9e, 0x17, 0xf3, 0xbd, 0xd5, 0xaf, 0xdb, 0x3d,
  0xac, 0x6f, 0x16, 0x3e, 0x89, 0x22, 0x2c, 0xbc, 0x31, 0x05, 0xd6, 0xbc,
  0x81, 0xeb, 0x03, 0xbd, 0xe0, 0xef, 0x5c, 0xbd, 0xdd, 0x3f, 0x99, 0x3c,
  0xf5, 0xa8, 0x14, 0xbe, 0xdf, 0x0b, 0x10, 0x3d, 0x6d, 0x6c, 0xe3, 0xbd,
  0xbe, 0x7d, 0x7d, 0xbd, 0xc1, 0xd0, 0xab, 0xbe, 0xa4, 0x6a, 0x56, 0x3e,
  0x84, 0x46, 0x01, 0xbb, 0xca, 0x9c, 0xb3, 0x3d, 0x27, 0x86, 0xe3, 0x3d,
  0xab, 0x37, 0x5e, 0xbc, 0xc1, 0xed, 0xd1, 0x3c, 0xb1, 0x44, 0x8b, 0x3e,
  0xe9, 0x7a, 0x2a, 0xbe, 0x6f, 0x89, 0x90, 0x3e, 0x92, 0xfe, 0xfb, 0xbd,
  0xbf, 0xe6, 0x5e, 0xbd, 0xa2, 0x06, 0x52, 0xbd, 0x32, 0x2e, 0x92, 0xbe,
  0xd7, 0xac, 0x01, 0xbe, 0xa5, 0x8e, 0x1c, 0x3e, 0xbc, 0x0b, 0x9b, 0xbe,
  0x5f, 0xa3, 0x0f, 0xbd, 0x46, 0x0b, 0xf8, 0xbd, 0x59, 0x11, 0xf5, 0x3c,
  0xa1, 0xce, 0x9c, 0xbd, 0xb2, 0x9a, 0x3c, 0x3d, 0x0d, 0xba, 0x8f, 0x3e,
  0x7f, 0x27, 0x22, 0x3d, 0xe8, 0x94, 0xca, 0xbd, 0x87, 0x53, 0x34, 0x3e,
  0x1b, 0x70, 0x54, 0xbd, 0x2b, 0x2c, 0x82, 0x3e, 0xc7, 0x57, 0x5c, 0xbd,
  0x7e, 0x81, 0xcc, 0x3d, 0x01, 0x0b, 0xd9, 0xbd, 0x99, 0x25, 0x2c, 0x3e,
  0x9b, 0xc0, 0xcc, 0xbe, 0x40, 0x5f, 0xdb, 0xbd, 0x79, 0x80, 0xa1, 0xbd,
  0x6d, 0x53, 0x4c, 0x3e, 0x78, 0x78, 0x80, 0xbe, 0x22, 0x8d, 0xb4, 0x3d,
  0x0e, 0x14, 0xa3, 0x3e, 0x16, 0xad, 0x04, 0x3c, 0xe7, 0xcf, 0x0b, 0xbe,
  0x57, 0xea, 0xf5, 0xbd, 0xb0, 0xe4, 0x9a, 0xbd, 0xcb, 0x14, 0xa1, 0x3d,
  0xae, 0x7a, 0x35, 0x3d, 0x6f, 0x4f, 0xa0, 0x3d, 0x19, 0x2b, 0x68, 0xbe,
  0xdc, 0x88, 0xfa, 0x3b, 0x1e, 0x3b, 0x40, 0xbe, 0x90, 0xdd, 0xd9, 0xba,
  0x55, 0x02, 0x41, 0xbe, 0x1b, 0xcc, 0xf0, 0xbe, 0xe7, 0x92, 0x8a, 0x3d,
  0x94, 0xc4, 0x2c, 0xbd, 0xca, 0xd4, 0x18, 0x3e, 0xce, 0x23, 0x16, 0x3c,
  0xaa, 0xd5, 0x90, 0xbd, 0x19, 0x87, 0xf4, 0xbd, 0xd5, 0x7a, 0x7c, 0xbc,
  0xfd, 0x80, 0x35, 0xbd, 0x3c, 0x80, 0xfb, 0x3e, 0xa8, 0xd8, 0x82, 0x39,
  0x1c, 0xda, 0xb3, 0xbe, 0x1d, 0xe7, 0x60, 0x3d, 0xbe, 0xb1, 0xba, 0xbe,
  0xb6, 0x78, 0xca, 0xbb, 0x82, 0x2e, 0xdb, 0xbd, 0x5b, 0x6c, 0x3a, 0x3d,
  0x1d, 0x2c, 0xb3, 0xbd, 0x31, 0x97, 0x80, 0x3d, 0x73, 0x45, 0xe2, 0x3b,
  0x0d, 0x32, 0x20, 0x3d, 0x97, 0xa9, 0xd1, 0xbd, 0xb2, 0x39, 0x5e, 0xbe,
  0x2a, 0x8e, 0x06, 0xbe, 0x7d, 0xa1, 0x27, 0xbe, 0xd3, 0xdf, 0xde, 0x3e,
  0x6b, 0x08, 0x2f, 0x3e, 0xaf, 0x08, 0x16, 0xbe, 0x57, 0x4e, 0xe0, 0x3d,
  0x5b, 0xd9, 0x97, 0xbe, 0x30, 0xd0, 0xde, 0xbc, 0x50, 0x02, 0xef, 0xbd,
  0xa1, 0xeb, 0x8b, 0xbe, 0x61, 0x35, 0xfe, 0xbd, 0x01, 0xda, 0x34, 0xbd,
  0x2e, 0x59, 0x1a, 0xbe, 0x31, 0xa3, 0x94, 0x3d, 0xdb, 0x21, 0xdd, 0xbd,
  0x02, 0x5d, 0x20, 0xbe, 0x31, 0x1a, 0xa7, 0xbe, 0x7d, 0xdb, 0x86, 0xbc,
  0xf0, 0x66, 0xbe, 0x3e, 0xf7, 0xd2, 0x41, 0x3d, 0x88, 0xe6, 0xdf, 0xbd,
  0x35, 0xa9, 0xa2, 0xbc, 0x34, 0xa3, 0xc5, 0xbe, 0x6d, 0xb7, 0xdb, 0xbc,
  0xea, 0x77, 0xb6, 0xbe, 0xc5, 0x81, 0x1d, 0xbd, 0x36, 0x27, 0x28, 0x3d,
  0x65, 0xbb, 0x52, 0xbe, 0x42, 0x06, 0x93, 0xbd, 0x30, 0x08, 0x5f, 0x3e,
  0x90, 0x50, 0xcd, 0xbd, 0x77, 0xc3, 0xc6, 0xbc, 0xa1, 0x94, 0x6e, 0x3d,
  0xa3, 0xbe, 0x02, 0x3c, 0x31, 0x18, 0xf7, 0x3e, 0xb4, 0xb2, 0x9b, 0x3e,
  0x7c, 0xa3, 0xeb, 0xbd, 0xc8, 0x4e, 0x6e, 0x3d, 0xfb, 0xfd, 0x23, 0xbe,
  0xe9, 0x18, 0xab, 0xbc, 0x41, 0x60, 0x63, 0xbe, 0xe3, 0x66, 0xc4, 0xbd,
  0x73, 0x18, 0x9b, 0xbd, 0xc2, 0x94, 0xe9, 0x3d, 0x90, 0xde, 0xfa, 0xbc,
  0x56, 0xc2, 0x0c, 0xbe, 0xf3, 0x5a, 0xcb, 0x3d, 0xed, 0x6f, 0xe3, 0x3d,
  0x24, 0x96, 0x24, 0x3d, 0x51, 0xa5, 0x23, 0x3e, 0xb9, 0x25, 0x00, 0x3f,
  0x01, 0x74, 0xb7, 0xbb, 0x27, 0x39, 0x14, 0x3e, 0x71, 0x34, 0xcf, 0x3e,
  0xa3, 0xb2, 0x16, 0xbe, 0x87, 0xff, 0x06, 0x3e, 0x08, 0xfa, 0x76, 0x3c,
  0xe0, 0x89, 0x01, 0x3d, 0xef, 0xa5, 0xca, 0x3e, 0x81, 0x8c, 0x19, 0x3e,
  0xff, 0x46, 0xad, 0xbc, 0xf1, 0x7d, 0x3b, 0xbe, 0xf5, 0x8e, 0x93, 0xbd,
  0xdb, 0x90, 0x8e, 0xbe, 0x27, 0x69, 0xd9, 0x3c, 0xbd, 0x31, 0x97, 0x3c,
  0x6c, 0x4b, 0x20, 0x3f, 0x8e, 0xde, 0xa2, 0xbe, 0x15, 0xc9, 0x20, 0xbd,
  0x7f, 0x38, 0xc2, 0x3d, 0xd9, 0xc7, 0x74, 0x3d, 0xea, 0x6f, 0x8b, 0xbe,
  0x4a, 0xc0, 0xa4, 0xbd, 0x6f, 0xdd, 0x4d, 0x3d, 0xe2, 0x1e, 0xf0, 0x3d,
  0x6c, 0xe1, 0x35, 0xbd, 0x04, 0xe7, 0x82, 0xbe, 0xd1, 0xc6, 0xf2, 0xbe,
  0xbb, 0x0d, 0x43, 0x3e, 0xe8, 0x63, 0x7e, 0x3e, 0x35, 0x9b, 0xb0, 0x3d,
  0x4d, 0x06, 0x0a, 0xbe, 0x5c, 0x17, 0x00, 0xbf, 0x49, 0xdf, 0xb3, 0xbd,
  0x4c, 0x76, 0x73, 0x3d, 0x50, 0xe9, 0x7a, 0x3e, 0x43, 0x9f, 0x39, 0xbd,
  0x84, 0xba, 0xdb, 0x3e, 0x64, 0xc3, 0xb7, 0xbd, 0x4e, 0xca, 0xd4, 0xbe,
  0x2b, 0xb7, 0xa2, 0x3e, 0x88, 0x4f, 0x7e, 0xbe, 0x40, 0xe1, 0x24, 0xbe,
  0x26, 0x48, 0xf0, 0x3d, 0x2d, 0xc2, 0xcf, 0xbc, 0x39, 0xd8, 0x0a, 0xbf,
  0x0c, 0x1d, 0x1f, 0x3e, 0xa5, 0xd5, 0xaf, 0x3c, 0xc4, 0xf1, 0xd9, 0xbd,
  0x8b, 0xdb, 0x5d, 0xbe, 0xf9, 0x1a, 0x09, 0x3d, 0x60, 0xe5, 0x04, 0x3e,
  0x86, 0x3d, 0xa6, 0x3a, 0x54, 0x1e, 0x9c, 0xbe, 0x7b, 0x66, 0xaf, 0xbe,
  0x6e, 0xaa, 0x20, 0x3d, 0x95, 0x7a, 0x2d, 0xbe, 0xd2, 0x91, 0xed, 0xbe,
  0x3c, 0x7f, 0x1d, 0xbe, 0x14, 0xfb, 0x8c, 0xbd, 0xb2, 0x02, 0x13, 0xbd,
  0x49, 0x07, 0x17, 0xbf, 0x02, 0x79, 0x22, 0xbf, 0xf8, 0xd9, 0xe3, 0xbd,
  0xc6, 0x5d, 0x12, 0x3b, 0xb2, 0x5d, 0x92, 0xbe, 0x47, 0x00, 0x7a, 0xbe,
  0x2c, 0x21, 0xed, 0x3c, 0x2b, 0x5b, 0xb7, 0xbc, 0x13, 0x58, 0x07, 0xbf,
  0x12, 0x61, 0x31, 0xbf, 0xf7, 0xf3, 0xcd, 0xbd, 0x27, 0xf2, 0xb7, 0xbe,
  0xfc, 0x6f, 0xbd, 0xbd, 0x5e, 0x79, 0x71, 0xbe, 0x66, 0xad, 0xd4, 0x3c,
  0x48, 0xa0, 0xad, 0xbd, 0xda, 0x5c, 0x41, 0xbf, 0x1d, 0xd7, 0x11, 0xbe,
  0x60, 0x65, 0x6b, 0x3d, 0xa7, 0xfb, 0x03, 0x3e, 0x35, 0xc0, 0xb3, 0x3c,
  0x73, 0xd0, 0xa1, 0xbe, 0xd7, 0xd1, 0xc3, 0xbe, 0x02, 0x34, 0x17, 0xbc,
  0x1b, 0x06, 0x9c, 0xbe, 0x17, 0x66, 0x67, 0xbf, 0xcb, 0x23, 0xef, 0xbe,
  0x84, 0x4b, 0xd7, 0xbe, 0xaf, 0xb0, 0xab, 0xbd, 0x53, 0xe3, 0x7e, 0xbe,
  0x61, 0x5a, 0x11, 0x3d, 0x3d, 0xdf, 0x02, 0xbd, 0x7a, 0x3a, 0x3c, 0xbd,
  0xa6, 0x88, 0xd4, 0xbd, 0x17, 0x6b, 0x5e, 0xbe, 0x36, 0x03, 0x06, 0x3e,
  0x4c, 0xe8, 0x01, 0x3e, 0x4d, 0x60, 0xc6, 0xbd, 0xbc, 0x6b, 0xe2, 0x3e,
  0x7b, 0xe3, 0xc8, 0xbc, 0x93, 0x0f, 0xaa, 0xbd, 0xd5, 0xef, 0x1e, 0xbe,
  0x40, 0x69, 0x72, 0xbe, 0xc3, 0xb1, 0x56, 0x3e, 0x27, 0xd7, 0xc7, 0x3e,
  0x67, 0xaf, 0x6a, 0xbe, 0xc1, 0x6a, 0x1e, 0xbd, 0x82, 0x83, 0x9a, 0xbd,
  0x7b, 0xb9, 0xf2, 0x3d, 0x02, 0x35, 0xaa, 0xbb, 0x46, 0x72, 0x81, 0xbe,
  0x81, 0x9b, 0x78, 0x3b, 0xb5, 0x97, 0x73, 0x3e, 0x45, 0x9b, 0xe9, 0xbc,
  0xf9, 0xa3, 0xeb, 0x3e, 0xc1, 0x58, 0xe4, 0xbc, 0x2a, 0x86, 0x08, 0x3e,
  0xc5, 0x2f, 0xdb, 0xbc, 0xd6, 0xf0, 0x08, 0xbe, 0x06, 0xbe, 0x98, 0x3e,
  0xc3, 0x7e, 0xa0, 0x3e, 0x70, 0x59, 0x5c, 0xbe, 0x17, 0xaf, 0xd0, 0xbd,
  0xbc, 0x0c, 0x40, 0x3d, 0x54, 0x27, 0x38, 0xba, 0x14, 0x58, 0x0a, 0x3e,
  0xe7, 0x5e, 0x32, 0xbe, 0xf9, 0x7e, 0xd1, 0x3c, 0xc6, 0xe9, 0x81, 0x3d,
  0xb1, 0x79, 0x60, 0x3d, 0x26, 0xb9, 0x87, 0x3e, 0xa7, 0xd2, 0x94, 0xbc,
  0x85, 0x1f, 0x4f, 0x3c, 0x40, 0x60, 0xb7, 0x3d, 0x32, 0x02, 0x24, 0xbe,
  0x8b, 0xf5, 0xb1, 0x3c, 0x79, 0x11, 0x3c, 0x3e, 0xfc, 0x35, 0x53, 0xbe,
  0x62, 0x4b, 0x2d, 0xbe, 0xb8, 0x7c, 0xa2, 0xbc, 0xd2, 0x8f, 0x18, 0xbd,
  0x8e, 0x36, 0x48, 0xbe, 0x68, 0x5d, 0x60, 0xbd, 0x4e, 0x2c, 0x9a, 0xbe,
  0x4b, 0xc1, 0x7d, 0xbe, 0xfb, 0x65, 0xac, 0x3d, 0x5f, 0x0d, 0xff, 0xbd,
  0xf8, 0x98, 0x5c, 0xbe, 0xc1, 0x9c, 0x96, 0xbd, 0x41, 0x56, 0x48, 0xbe,
  0x70, 0xb4, 0xf3, 0xbd, 0x0d, 0x01, 0x2f, 0xbe, 0x0f, 0xc6, 0x2f, 0x3d,
  0x0d, 0x9b, 0x5d, 0xbe, 0x4b, 0xf6, 0x22, 0xbe, 0xe1, 0xfe, 0x1f, 0xbd,
  0xb4, 0x5f, 0x37, 0xbe, 0xc4, 0x32, 0x43, 0xbe, 0x5a, 0xc2, 0x8a, 0xbd,
  0x44, 0xc2, 0x38, 0xbe, 0xee, 0x00, 0xf8, 0xbd, 0xf8, 0x72, 0x70, 0xbe,
  0xb7, 0x64, 0x4c, 0x3d, 0x61, 0x39, 0xaa, 0xbd, 0x24, 0xf1, 0x55, 0x3d,
  0x16, 0xf9, 0xef, 0x3d, 0x0b, 0x95, 0x49, 0x3e, 0xa3, 0x8f, 0x8b, 0xbd,
  0x6a, 0x2a, 0xf2, 0xbc, 0xf5, 0xe7, 0xa8, 0xbd, 0xf4, 0x9f, 0xf8, 0xbd,
  0x8e, 0x96, 0x0d, 0x3e, 0x96, 0xad, 0x79, 0xbe, 0x8f, 0x74, 0x33, 0x3c,
  0x9b, 0xb1, 0x00, 0xbe, 0x5b, 0xfd, 0xb0, 0x3d, 0x6d, 0x06, 0xb8, 0x3d,
  0x3d, 0xb2, 0x6b, 0x3d, 0xc6, 0xfc, 0x87, 0x3d, 0xa0, 0x08, 0x14, 0xbe,
  0x77, 0x54, 0x39, 0xbe, 0xab, 0xd4, 0xa2, 0x3e, 0xb6, 0x87, 0x55, 0x3e,
  0xcd, 0xcb, 0x1c, 0xbd, 0x1b, 0xca, 0x13, 0xbe, 0x81, 0x0c, 0x2a, 0x3d,
  0x20, 0x2a, 0x21, 0xbe, 0xb2, 0xa0, 0x3c, 0xbe, 0x0e, 0xc7, 0x83, 0xbd,
  0x4b, 0x20, 0xf0, 0x3d, 0xeb, 0xd5, 0x8b, 0xbe, 0xcf, 0x21, 0x4a, 0x3d,
  0xf2, 0xc5, 0x0f, 0x3e, 0x40, 0xfb, 0x8e, 0xbe, 0x78, 0x80, 0x60, 0xbe,
  0x9c, 0xca, 0xdb, 0xbe, 0x21, 0x7a, 0x7f, 0xbe, 0x99, 0x64, 0x27, 0xbe,
  0xd9, 0x07, 0xfe, 0xbc, 0x1b, 0x57, 0x0e, 0xbe, 0x89, 0x25, 0x66, 0xbe,
  0xa8, 0x40, 0x41, 0xbe, 0xef, 0x54, 0x13, 0x3e, 0xa1, 0x00, 0x41, 0xbe,
  0x62, 0x3c, 0x20, 0xbe, 0x10, 0x5a, 0x94, 0x3d, 0x65, 0xe1, 0xf0, 0xbd,
  0x89, 0x4d, 0xdb, 0x3d, 0x36, 0x70, 0xf7, 0xbc, 0xa7, 0x6e, 0x7e, 0xbe,
  0x7f, 0x4d, 0x5e, 0xbe, 0xf5, 0xf0, 0xa2, 0xbe, 0xe5, 0x49, 0xf5, 0xbd,
  0xec, 0x74, 0xe7, 0xbd, 0x58, 0xa8, 0xf5, 0xbd, 0x16, 0xe8, 0x99, 0x3b,
  0x7d, 0x9e, 0x02, 0x3e, 0x2d, 0x8b, 0xaf, 0x3d, 0x22, 0x91, 0x65, 0xbe,
  0xa6, 0x34, 0xc9, 0x3b, 0x59, 0x71, 0x42, 0xbe, 0x5a, 0x4b, 0x01, 0x3e,
  0xd8, 0x15, 0x23, 0x3d, 0x98, 0x23, 0xf2, 0xbd, 0x77, 0xce, 0xac, 0xbc,
  0x62, 0xd5, 0x11, 0xbe, 0x79, 0x4e, 0x05, 0x3e, 0x69, 0x6a, 0xc5, 0xbd,
  0x3b, 0x50, 0x25, 0xbd, 0xad, 0xb3, 0x40, 0xbd, 0x3e, 0x7d, 0xc5, 0x3d,
  0x11, 0x9c, 0x4d, 0x3d, 0x47, 0xdb, 0x51, 0x3c, 0xdd, 0x83, 0xbe, 0xbd,
  0x10, 0x5d, 0x14, 0xbd, 0xdb, 0xfd, 0x88, 0xbe, 0x41, 0xea, 0x3b, 0xbd,
  0xa2, 0xa1, 0xb7, 0xbd, 0x06, 0x7d, 0x94, 0xbd, 0x53, 0x51, 0x3f, 0x3d,
  0xd9, 0xb6, 0xba, 0xbd, 0xa2, 0xe8, 0x7a, 0xbe, 0xcb, 0xfe, 0x3a, 0x3d,
  0x9a, 0xa0, 0x1a, 0xbe, 0xff, 0x96, 0x50, 0xbe, 0x04, 0xa1, 0x85, 0xbd,
  0xfd, 0xe2, 0x26, 0xbe, 0xc3, 0x59, 0x16, 0x3d, 0xdf, 0x16, 0xe5, 0xbb,
  0x2e, 0x85, 0x0b, 0xbd, 0x44, 0x8f, 0x4d, 0x3d, 0x2f, 0x6b, 0x0d, 0xbd,
  0x66, 0xfd, 0xff, 0xff, 0x10, 0x00, 0x00, 0x00, 0x07, 0x00, 0x00, 0x00,
  0x14, 0x00, 0x00, 0x00, 0x2c, 0x00, 0x00, 0x00, 0x02, 0x00, 0x00, 0x00,
  0x10, 0x00, 0x00, 0x00, 0x70, 0x00, 0x00, 0x00, 0x17, 0x00, 0x00, 0x00,
  0x73, 0x65, 0x71, 0x75, 0x65, 0x6e, 0x74, 0x69, 0x61, 0x6c, 0x2f, 0x64,
  0x65, 0x6e, 0x73, 0x65, 0x2f, 0x4d, 0x61, 0x74, 0x4d, 0x75, 0x6c, 0x00,
  0xd0, 0xfc, 0xff, 0xff, 0xda, 0xfd, 0xff, 0xff, 0x04, 0x00, 0x00, 0x00,
  0x08, 0x00, 0x00, 0x00, 0xff, 0xff, 0xff, 0xff, 0x70, 0x00, 0x00, 0x00,
  0x00, 0x00, 0x0e, 0x00, 0x18, 0x00, 0x08, 0x00, 0x07, 0x00, 0x0c, 0x00,
  0x10, 0x00, 0x14, 0x00, 0x0e, 0x00, 0x00, 0x00, 0x00, 0x00, 0x00, 0x02,
  0x10, 0x00, 0x00, 0x00, 0x06, 0x00, 0x00, 0x00, 0x10, 0x00, 0x00, 0x00,
  0x2c, 0x00, 0x00, 0x00, 0x01, 0x00, 0x00, 0x00, 0x02, 0x00, 0x00, 0x00,
  0x18, 0x00, 0x00, 0x00, 0x73, 0x65, 0x71, 0x75, 0x65, 0x6e, 0x74, 0x69,
  0x61, 0x6c, 0x2f, 0x66, 0x6c, 0x61, 0x74, 0x74, 0x65, 0x6e, 0x2f, 0x43,
  0x6f, 0x6e, 0x73, 0x74, 0x00, 0x00, 0x00, 0x00, 0x38, 0xfd, 0xff, 0xff,
  0x42, 0xfe, 0xff, 0xff, 0x04, 0x00, 0x00, 0x00, 0x0c, 0x00, 0x00, 0x00,
  0xae, 0xb3, 0xfc, 0x3e, 0xef, 0x4e, 0x33, 0xc0, 0x01, 0xbe, 0xb4, 0x3f,
  0x26, 0xfe, 0xff, 0xff, 0x10, 0x00, 0x00, 0x00, 0x05, 0x00, 0x00, 0x00,
  0x10, 0x00, 0x00, 0x00, 0x44, 0x00, 0x00, 0x00, 0x01, 0x00, 0x00, 0x00,
  0x03, 0x00, 0x00, 0x00, 0x32, 0x00, 0x00, 0x00, 0x73, 0x65, 0x71, 0x75,
  0x65, 0x6e, 0x74, 0x69, 0x61, 0x6c, 0x2f, 0x64, 0x65, 0x6e, 0x73, 0x65,
  0x5f, 0x31, 0x2f, 0x42, 0x69, 0x61, 0x73, 0x41, 0x64, 0x64, 0x2f, 0x52,
  0x65, 0x61, 0x64, 0x56, 0x61, 0x72, 0x69, 0x61, 0x62, 0x6c, 0x65, 0x4f,
  0x70, 0x2f, 0x72, 0x65, 0x73, 0x6f, 0x75, 0x72, 0x63, 0x65, 0x00, 0x00,
  0xa8, 0xfd, 0xff, 0xff, 0xb2, 0xfe, 0xff, 0xff, 0x04, 0x00, 0x00, 0x00,
  0x40, 0x00, 0x00, 0x00, 0x1e, 0xc6, 0x12, 0x40, 0x6d, 0x0d, 0xb0, 0xbf,
  0xd0, 0xf8, 0xf7, 0xbe, 0x53, 0xe5, 0x46, 0xbe, 0x40, 0xac, 0xde, 0xbe,
  0x9b, 0x36, 0xb9, 0x3f, 0x2d, 0xa1, 0x7c, 0x3f, 0x3c, 0x44, 0x2c, 0x3c,
  0x72, 0x46, 0x2e, 0xbe, 0xb5, 0x45, 0x79, 0xbf, 0x48, 0xbc, 0xc5, 0xbf,
  0x0d, 0x55, 0x1d, 0xbe, 0x58, 0xb8, 0x63, 0xbe, 0x80, 0xbb, 0x8e, 0xbe,
  0x88, 0x1d, 0xbc, 0xbf, 0xc0, 0x3a, 0x9a, 0xbe, 0xca, 0xfe, 0xff, 0xff,
  0x10, 0x00, 0x00, 0x00, 0x04, 0x00, 0x00, 0x00, 0x10, 0x00, 0x00, 0x00,
  0x44, 0x00, 0x00, 0x00, 0x01, 0x00, 0x00, 0x00, 0x10, 0x00, 0x00, 0x00,
  0x30, 0x00, 0x00, 0x00, 0x73, 0x65, 0x71, 0x75, 0x65, 0x6e, 0x74, 0x69,
  0x61, 0x6c, 0x2f, 0x64, 0x65, 0x6e, 0x73, 0x65, 0x2f, 0x42, 0x69, 0x61,
  0x73, 0x41, 0x64, 0x64, 0x2f, 0x52, 0x65, 0x61, 0x64, 0x56, 0x61, 0x72,
  0x69, 0x61, 0x62, 0x6c, 0x65, 0x4f, 0x70, 0x2f, 0x72, 0x65, 0x73, 0x6f,
  0x75, 0x72, 0x63, 0x65, 0x00, 0x00, 0x00, 0x00, 0x4c, 0xfe, 0xff, 0xff,
  0x56, 0xff, 0xff, 0xff, 0x04, 0x00, 0x00, 0x00, 0x40, 0x00, 0x00, 0x00,
  0x8c, 0x50, 0x5f, 0xbf, 0xcf, 0x96, 0x7b, 0xbf, 0x29, 0x76, 0x3f, 0x3c,
  0xf6, 0x23, 0x94, 0x40, 0x88, 0xf1, 0xfa, 0xbe, 0xec, 0x8f, 0xf2, 0xbe,
  0x62, 0x26, 0x17, 0xbe, 0xe4, 0x2d, 0x3a, 0x3f, 0x8b, 0xcb, 0x7b, 0x3f,
  0x9a, 0x0e, 0xf6, 0xbf, 0x26, 0x7a, 0x98, 0xbf, 0xcb, 0xed, 0x93, 0xbf,
  0xac, 0x30, 0xa0, 0xbf, 0x33, 0x62, 0x28, 0x3e, 0xd2, 0x96, 0x94, 0x3e,
  0x03, 0xed, 0xbe, 0xbb, 0x6e, 0xff, 0xff, 0xff, 0x10, 0x00, 0x00, 0x00,
  0x03, 0x00, 0x00, 0x00, 0x10, 0x00, 0x00, 0x00, 0x48, 0x00, 0x00, 0x00,
  0x01, 0x00, 0x00, 0x00, 0x10, 0x00, 0x00, 0x00, 0x33, 0x00, 0x00, 0x00,
  0x73, 0x65, 0x71, 0x75, 0x65, 0x6e, 0x74, 0x69, 0x61, 0x6c, 0x2f, 0x63,
  0x6f, 0x6e, 0x76, 0x32, 0x64, 0x5f, 0x31, 0x2f, 0x42, 0x69, 0x61, 0x73,
  0x41, 0x64, 0x64, 0x2f, 0x52, 0x65, 0x61, 0x64, 0x56, 0x61, 0x72, 0x69,
  0x61, 0x62, 0x6c, 0x65, 0x4f, 0x70, 0x2f, 0x72, 0x65, 0x73, 0x6f, 0x75,
  0x72, 0x63, 0x65, 0x00, 0x04, 0x00, 0x06, 0x00, 0x04, 0x00, 0x00, 0x00,
  0x00, 0x00, 0x06, 0x00, 0x08, 0x00, 0x04, 0x00, 0x06, 0x00, 0x00, 0x00,
  0x04, 0x00, 0x00, 0x00, 0x20, 0x00, 0x00, 0x00, 0xaf, 0xdf, 0x40, 0xbf,
  0x58, 0xfa, 0x13, 0xc0, 0x9a, 0x80, 0x7c, 0xbf, 0x4e, 0x19, 0xa9, 0xbf,
  0xfc, 0xed, 0xb8, 0xbf, 0x7b, 0x7b, 0x83, 0xbd, 0xe2, 0x0e, 0xd0, 0xbf,
  0xc4, 0xfd, 0x14, 0xc0, 0x00, 0x00, 0x0e, 0x00, 0x14, 0x00, 0x04, 0x00,
  0x00, 0x00, 0x08, 0x00, 0x0c, 0x00, 0x10, 0x00, 0x0e, 0x00, 0x00, 0x00,
  0x10, 0x00, 0x00, 0x00, 0x02, 0x00, 0x00, 0x00, 0x10, 0x00, 0x00, 0x00,
  0x44, 0x00, 0x00, 0x00, 0x01, 0x00, 0x00, 0x00, 0x08, 0x00, 0x00, 0x00,
  0x31, 0x00, 0x00, 0x00, 0x73, 0x65, 0x71, 0x75, 0x65, 0x6e, 0x74, 0x69,
  0x61, 0x6c, 0x2f, 0x63, 0x6f, 0x6e, 0x76, 0x32, 0x64, 0x2f, 0x42, 0x69,
  0x61, 0x73, 0x41, 0x64, 0x64, 0x2f, 0x52, 0x65, 0x61, 0x64, 0x56, 0x61,
  0x72, 0x69, 0x61, 0x62, 0x6c, 0x65, 0x4f, 0x70, 0x2f, 0x72, 0x65, 0x73,
  0x6f, 0x75, 0x72, 0x63, 0x65, 0x00, 0x00, 0x00, 0x90, 0xff, 0xff, 0xff,
  0x14, 0x00, 0x18, 0x00, 0x04, 0x00, 0x00, 0x00, 0x08, 0x00, 0x0c, 0x00,
  0x10, 0x00, 0x00, 0x00, 0x00, 0x00, 0x14, 0x00, 0x14, 0x00, 0x00, 0x00,
  0x14, 0x00, 0x00, 0x00, 0x01, 0x00, 0x00, 0x00, 0x20, 0x00, 0x00, 0x00,
  0x44, 0x00, 0x00, 0x00, 0x2c, 0x00, 0x00, 0x00, 0x04, 0x00, 0x00, 0x00,
  0x01, 0x00, 0x00, 0x00, 0x40, 0x00, 0x00, 0x00, 0x03, 0x00, 0x00, 0x00,
  0x01, 0x00, 0x00, 0x00, 0x0c, 0x00, 0x00, 0x00, 0x63, 0x6f, 0x6e, 0x76,
  0x32, 0x64, 0x5f, 0x69, 0x6e, 0x70, 0x75, 0x74, 0x00, 0x00, 0x00, 0x00,
  0x04, 0x00, 0x00, 0x00, 0xff, 0xff, 0xff, 0xff, 0x40, 0x00, 0x00, 0x00,
  0x03, 0x00, 0x00, 0x00, 0x01, 0x00, 0x00, 0x00, 0xfc, 0xff, 0xff, 0xff,
  0x04, 0x00, 0x04, 0x00, 0x04, 0x00, 0x00, 0x00
};
unsigned int _content_mbed08_model_model_tflite_len = 13052;

