#include "magic_wand_model_data.h"

// We need to keep the data array aligned on some architectures.
#ifdef __has_attribute
#define HAVE_ATTRIBUTE(x) __has_attribute(x)
#else
#define HAVE_ATTRIBUTE(x) 0
#endif
#if HAVE_ATTRIBUTE(aligned) || (defined(__GNUC__) && !defined(__clang__))
#define DATA_ALIGN_ATTRIBUTE __attribute__((aligned(4)))
#else
#define DATA_ALIGN_ATTRIBUTE
#endif

const unsigned char g_magic_wand_model_data[] DATA_ALIGN_ATTRIBUTE = {
  0x1c, 0x00, 0x00, 0x00, 0x54, 0x46, 0x4c, 0x33, 0x14, 0x00, 0x20, 0x00,
  0x04, 0x00, 0x08, 0x00, 0x0c, 0x00, 0x10, 0x00, 0x14, 0x00, 0x00, 0x00,
  0x18, 0x00, 0x1c, 0x00, 0x14, 0x00, 0x00, 0x00, 0x03, 0x00, 0x00, 0x00,
  0x18, 0x00, 0x00, 0x00, 0x2c, 0x00, 0x00, 0x00, 0xd8, 0x00, 0x00, 0x00,
  0x2c, 0x00, 0x00, 0x00, 0x80, 0x00, 0x00, 0x00, 0x78, 0x00, 0x00, 0x00,
  0x05, 0x00, 0x00, 0x00, 0x28, 0x07, 0x00, 0x00, 0x44, 0x06, 0x00, 0x00,
  0xbc, 0x03, 0x00, 0x00, 0xf8, 0x02, 0x00, 0x00, 0xac, 0x01, 0x00, 0x00,
  0x01, 0x00, 0x00, 0x00, 0xd0, 0x00, 0x00, 0x00, 0x14, 0x00, 0x00, 0x00,
  0x20, 0x33, 0x00, 0x00, 0x1c, 0x33, 0x00, 0x00, 0x14, 0x32, 0x00, 0x00,
  0x60, 0x31, 0x00, 0x00, 0xb8, 0x30, 0x00, 0x00, 0x3c, 0x30, 0x00, 0x00,
  0xd0, 0x2f, 0x00, 0x00, 0x80, 0x13, 0x00, 0x00, 0xec, 0x11, 0x00, 0x00,
  0x10, 0x10, 0x00, 0x00, 0xb4, 0x07, 0x00, 0x00, 0xf4, 0x32, 0x00, 0x00,
  0xf0, 0x32, 0x00, 0x00, 0xec, 0x32, 0x00, 0x00, 0xe8, 0x32, 0x00, 0x00,
  0xe4, 0x32, 0x00, 0x00, 0xe0, 0x32, 0x00, 0x00, 0xdc, 0x32, 0x00, 0x00,
  0xd8, 0x32, 0x00, 0x00, 0x3c, 0x00, 0x00, 0x00, 0x00, 0x00, 0x00, 0x00,
  0x01, 0x00, 0x00, 0x00, 0x0c, 0x00, 0x00, 0x00, 0x08, 0x00, 0x0c, 0x00,
  0x04, 0x00, 0x08, 0x00, 0x08, 0x00, 0x00, 0x00, 0x08, 0x00, 0x00, 0x00,
  0x13, 0x00, 0x00, 0x00, 0x13, 0x00, 0x00, 0x00, 0x6d, 0x69, 0x6e, 0x5f,
  0x72, 0x75, 0x6e, 0x74, 0x69, 0x6d, 0x65, 0x5f, 0x76, 0x65, 0x72, 0x73,
  0x69, 0x6f, 0x6e, 0x00, 0x72, 0xce, 0xff, 0xff, 0x04, 0x00, 0x00, 0x00,
  0x10, 0x00, 0x00, 0x00, 0x31, 0x2e, 0x35, 0x2e, 0x30, 0x00, 0x00, 0x00,
  0x00, 0x00, 0x00, 0x00, 0x00, 0x00, 0x00, 0x00, 0x0f, 0x00, 0x00, 0x00,
  0x4d, 0x4c, 0x49, 0x52, 0x20, 0x43, 0x6f, 0x6e, 0x76, 0x65, 0x72, 0x74,
  0x65, 0x64, 0x2e, 0x00, 0x00, 0x00, 0x0e, 0x00, 0x18, 0x00, 0x04, 0x00,
  0x08, 0x00, 0x0c, 0x00, 0x10, 0x00, 0x14, 0x00, 0x0e, 0x00, 0x00, 0x00,
  0x14, 0x00, 0x00, 0x00, 0x5c, 0x00, 0x00, 0x00, 0x60, 0x00, 0x00, 0x00,
  0x64, 0x00, 0x00, 0x00, 0x84, 0x00, 0x00, 0x00, 0x12, 0x00, 0x00, 0x00,
  0xe0, 0x31, 0x00, 0x00, 0x70, 0x31, 0x00, 0x00, 0xcc, 0x30, 0x00, 0x00,
  0x24, 0x30, 0x00, 0x00, 0x7c, 0x2f, 0x00, 0x00, 0x14, 0x2f, 0x00, 0x00,
  0xac, 0x2e, 0x00, 0x00, 0x58, 0x12, 0x00, 0x00, 0xbc, 0x10, 0x00, 0x00,
  0xe0, 0x0e, 0x00, 0x00, 0x0c, 0x06, 0x00, 0x00, 0x28, 0x05, 0x00, 0x00,
  0xe8, 0x03, 0x00, 0x00, 0x3c, 0x03, 0x00, 0x00, 0x98, 0x02, 0x00, 0x00,
  0xd4, 0x01, 0x00, 0x00, 0x10, 0x01, 0x00, 0x00, 0x84, 0x00, 0x00, 0x00,
  0x01, 0x00, 0x00, 0x00, 0x00, 0x00, 0x00, 0x00, 0x01, 0x00, 0x00, 0x00,
  0x11, 0x00, 0x00, 0x00, 0x08, 0x00, 0x00, 0x00, 0x74, 0x05, 0x00, 0x00,
  0x94, 0x04, 0x00, 0x00, 0x78, 0x03, 0x00, 0x00, 0xbc, 0x02, 0x00, 0x00,
  0x30, 0x02, 0x00, 0x00, 0x50, 0x01, 0x00, 0x00, 0xa8, 0x00, 0x00, 0x00,
  0x10, 0x00, 0x00, 0x00, 0x04, 0x00, 0x00, 0x00, 0x6d, 0x61, 0x69, 0x6e,
  0x00, 0x00, 0x00, 0x00, 0x7a, 0xff, 0xff, 0xff, 0x00, 0x00, 0x00, 0x09,
  0x04, 0x00, 0x00, 0x00, 0x1c, 0x00, 0x00, 0x00, 0x10, 0x00, 0x00, 0x00,
  0x04, 0x00, 0x00, 0x00, 0x6e, 0xcf, 0xff, 0xff, 0x00, 0x00, 0x80, 0x3f,
  0x01, 0x00, 0x00, 0x00, 0x11, 0x00, 0x00, 0x00, 0x01, 0x00, 0x00, 0x00,
  0x10, 0x00, 0x00, 0x00, 0xa0, 0xfa, 0xff, 0xff, 0x19, 0x00, 0x00, 0x00,
  0x00, 0x00, 0x00, 0x19, 0x01, 0x00, 0x00, 0x00, 0xfc, 0xce, 0xff, 0xff,
  0x14, 0x00, 0x00, 0x00, 0x12, 0x00, 0x00, 0x00, 0x18, 0x00, 0x00, 0x00,
  0x30, 0x00, 0x00, 0x00, 0x20, 0x00, 0x00, 0x00, 0x02, 0x00, 0x00, 0x00,
  0x01, 0x00, 0x00, 0x00, 0x05, 0x00, 0x00, 0x00, 0x08, 0x00, 0x00, 0x00,
  0x49, 0x64, 0x65, 0x6e, 0x74, 0x69, 0x74, 0x79, 0x00, 0x00, 0x00, 0x00,
  0x02, 0x00, 0x00, 0x00, 0xff, 0xff, 0xff, 0xff, 0x05, 0x00, 0x00, 0x00,
  0xe0, 0xcf, 0xff, 0xff, 0x00, 0x00, 0x0e, 0x00, 0x18, 0x00, 0x08, 0x00,
  0x0c, 0x00, 0x10, 0x00, 0x07, 0x00, 0x14, 0x00, 0x0e, 0x00, 0x00, 0x00,
  0x00, 0x00, 0x00, 0x08, 0x03, 0x00, 0x00, 0x00, 0x18, 0x00, 0x00, 0x00,
  0x0c, 0x00, 0x00, 0x00, 0x04, 0x00, 0x00, 0x00, 0xfc, 0xce, 0xff, 0xff,
  0x01, 0x00, 0x00, 0x00, 0x10, 0x00, 0x00, 0x00, 0x03, 0x00, 0x00, 0x00,
  0x0f, 0x00, 0x00, 0x00, 0x07, 0x00, 0x00, 0x00, 0x04, 0x00, 0x00, 0x00,
  0x84, 0xcf, 0xff, 0xff, 0x14, 0x00, 0x00, 0x00, 0x11, 0x00, 0x00, 0x00,
  0x18, 0x00, 0x00, 0x00, 0x5c, 0x00, 0x00, 0x00, 0x4c, 0x00, 0x00, 0x00,
  0x02, 0x00, 0x00, 0x00, 0x01, 0x00, 0x00, 0x00, 0x05, 0x00, 0x00, 0x00,
  0x34, 0x00, 0x00, 0x00, 0x73, 0x65, 0x71, 0x75, 0x65, 0x6e, 0x74, 0x69,
  0x61, 0x6c, 0x2f, 0x64, 0x65, 0x6e, 0x73, 0x65, 0x5f, 0x31, 0x2f, 0x4d,
  0x61, 0x74, 0x4d, 0x75, 0x6c, 0x3b, 0x73, 0x65, 0x71, 0x75, 0x65, 0x6e,
  0x74, 0x69, 0x61, 0x6c, 0x2f, 0x64, 0x65, 0x6e, 0x73, 0x65, 0x5f, 0x31,
  0x2f, 0x42, 0x69, 0x61, 0x73, 0x41, 0x64, 0x64, 0x00, 0x00, 0x00, 0x00,
  0x02, 0x00, 0x00, 0x00, 0xff, 0xff, 0xff, 0xff, 0x05, 0x00, 0x00, 0x00,
  0x84, 0xcf, 0xff, 0xff, 0xda, 0xfc, 0xff, 0xff, 0x00, 0x00, 0x00, 0x08,
  0x03, 0x00, 0x00, 0x00, 0x24, 0x00, 0x00, 0x00, 0x18, 0x00, 0x00, 0x00,
  0x0c, 0x00, 0x00, 0x00, 0x00, 0x00, 0x06, 0x00, 0x08, 0x00, 0x07, 0x00,
  0x06, 0x00, 0x00, 0x00, 0x00, 0x00, 0x00, 0x01, 0x01, 0x00, 0x00, 0x00,
  0x0f, 0x00, 0x00, 0x00, 0x03, 0x00, 0x00, 0x00, 0x0e, 0x00, 0x00, 0x00,
  0x06, 0x00, 0x00, 0x00, 0x03, 0x00, 0x00, 0x00, 0xe8, 0xfb, 0xff, 0xff,
  0x09, 0x00, 0x00, 0x00, 0x00, 0x00, 0x00, 0x09, 0x01, 0x00, 0x00, 0x00,
  0x44, 0xd0, 0xff, 0xff, 0x14, 0x00, 0x00, 0x00, 0x10, 0x00, 0x00, 0x00,
  0x18, 0x00, 0x00, 0x00, 0x6c, 0x00, 0x00, 0x00, 0x5c, 0x00, 0x00, 0x00,
  0x02, 0x00, 0x00, 0x00, 0x01, 0x00, 0x00, 0x00, 0x10, 0x00, 0x00, 0x00,
  0x46, 0x00, 0x00, 0x00, 0x73, 0x65, 0x71, 0x75, 0x65, 0x6e, 0x74, 0x69,
  0x61, 0x6c, 0x2f, 0x64, 0x65, 0x6e, 0x73, 0x65, 0x2f, 0x4d, 0x61, 0x74,
  0x4d, 0x75, 0x6c, 0x3b, 0x73, 0x65, 0x71, 0x75, 0x65, 0x6e, 0x74, 0x69,
  0x61, 0x6c, 0x2f, 0x64, 0x65, 0x6e, 0x73, 0x65, 0x2f, 0x52, 0x65, 0x6c,
  0x75, 0x3b, 0x73, 0x65, 0x71, 0x75, 0x65, 0x6e, 0x74, 0x69, 0x61, 0x6c,
  0x2f, 0x64, 0x65, 0x6e, 0x73, 0x65, 0x2f, 0x42, 0x69, 0x61, 0x73, 0x41,
  0x64, 0x64, 0x00, 0x00, 0x02, 0x00, 0x00, 0x00, 0xff, 0xff, 0xff, 0xff,
  0x10, 0x00, 0x00, 0x00, 0x64, 0xd1, 0xff, 0xff, 0x00, 0x00, 0x0a, 0x00,
  0x10, 0x00, 0x04, 0x00, 0x08, 0x00, 0x0c, 0x00, 0x0a, 0x00, 0x00, 0x00,
  0x02, 0x00, 0x00, 0x00, 0x10, 0x00, 0x00, 0x00, 0x04, 0x00, 0x00, 0x00,
  0x01, 0x00, 0x00, 0x00, 0x0e, 0x00, 0x00, 0x00, 0x02, 0x00, 0x00, 0x00,
  0x0d, 0x00, 0x00, 0x00, 0x05, 0x00, 0x00, 0x00, 0xa8, 0xfc, 0xff, 0xff,
  0x16, 0x00, 0x00, 0x00, 0x00, 0x00, 0x00, 0x16, 0x01, 0x00, 0x00, 0x00,
  0x04, 0xd1, 0xff, 0xff, 0x14, 0x00, 0x00, 0x00, 0x0f, 0x00, 0x00, 0x00,
  0x18, 0x00, 0x00, 0x00, 0x40, 0x00, 0x00, 0x00, 0x30, 0x00, 0x00, 0x00,
  0x02, 0x00, 0x00, 0x00, 0x01, 0x00, 0x00, 0x00, 0x70, 0x00, 0x00, 0x00,
  0x1a, 0x00, 0x00, 0x00, 0x73, 0x65, 0x71, 0x75, 0x65, 0x6e, 0x74, 0x69,
  0x61, 0x6c, 0x2f, 0x66, 0x6c, 0x61, 0x74, 0x74, 0x65, 0x6e, 0x2f, 0x52,
  0x65, 0x73, 0x68, 0x61, 0x70, 0x65, 0x00, 0x00, 0x02, 0x00, 0x00, 0x00,
  0xff, 0xff, 0xff, 0xff, 0x70, 0x00, 0x00, 0x00, 0xe8, 0xd0, 0xff, 0xff,
  0x3e, 0xfe, 0xff, 0xff, 0x00, 0x00, 0x00, 0x05, 0x01, 0x00, 0x00, 0x00,
  0x38, 0x00, 0x00, 0x00, 0x2c, 0x00, 0x00, 0x00, 0x14, 0x00, 0x00, 0x00,
  0x00, 0x00, 0x0e, 0x00, 0x14, 0x00, 0x00, 0x00, 0x10, 0x00, 0x0c, 0x00,
  0x08, 0x00, 0x04, 0x00, 0x0e, 0x00, 0x00, 0x00, 0x03, 0x00, 0x00, 0x00,
  0x01, 0x00, 0x00, 0x00, 0x03, 0x00, 0x00, 0x00, 0x01, 0x00, 0x00, 0x00,
  0x01, 0x00, 0x00, 0x00, 0x0d, 0x00, 0x00, 0x00, 0x01, 0x00, 0x00, 0x00,
  0x0c, 0x00, 0x00, 0x00, 0xa4, 0xd1, 0xff, 0xff, 0x14, 0x00, 0x00, 0x00,
  0x0e, 0x00, 0x00, 0x00, 0x20, 0x00, 0x00, 0x00, 0x58, 0x00, 0x00, 0x00,
  0x40, 0x00, 0x00, 0x00, 0x04, 0x00, 0x00, 0x00, 0x01, 0x00, 0x00, 0x00,
  0x07, 0x00, 0x00, 0x00, 0x01, 0x00, 0x00, 0x00, 0x10, 0x00, 0x00, 0x00,
  0x22, 0x00, 0x00, 0x00, 0x73, 0x65, 0x71, 0x75, 0x65, 0x6e, 0x74, 0x69,
  0x61, 0x6c, 0x2f, 0x6d, 0x61, 0x78, 0x5f, 0x70, 0x6f, 0x6f, 0x6c, 0x69,
  0x6e, 0x67, 0x32, 0x64, 0x5f, 0x31, 0x2f, 0x4d, 0x61, 0x78, 0x50, 0x6f,
  0x6f, 0x6c, 0x00, 0x00, 0x04, 0x00, 0x00, 0x00, 0xff, 0xff, 0xff, 0xff,
  0x07, 0x00, 0x00, 0x00, 0x01, 0x00, 0x00, 0x00, 0x10, 0x00, 0x00, 0x00,
  0xa0, 0xd1, 0xff, 0xff, 0x1a, 0xfe, 0xff, 0xff, 0x00, 0x00, 0x00, 0x01,
  0x24, 0x00, 0x00, 0x00, 0x18, 0x00, 0x00, 0x00, 0x04, 0x00, 0x00, 0x00,
  0x0c, 0xfe, 0xff, 0xff, 0x01, 0x00, 0x00, 0x00, 0x01, 0x00, 0x00, 0x00,
  0x00, 0x00, 0x00, 0x01, 0x01, 0x00, 0x00, 0x00, 0x0c, 0x00, 0x00, 0x00,
  0x03, 0x00, 0x00, 0x00, 0x0b, 0x00, 0x00, 0x00, 0x09, 0x00, 0x00, 0x00,
  0x02, 0x00, 0x00, 0x00, 0x4c, 0xd2, 0xff, 0xff, 0x14, 0x00, 0x00, 0x00,
  0x0d, 0x00, 0x00, 0x00, 0x20, 0x00, 0x00, 0x00, 0xb8, 0x00, 0x00, 0x00,
  0xa0, 0x00, 0x00, 0x00, 0x04, 0x00, 0x00, 0x00, 0x01, 0x00, 0x00, 0x00,
  0x15, 0x00, 0x00, 0x00, 0x01, 0x00, 0x00, 0x00, 0x10, 0x00, 0x00, 0x00,
  0x83, 0x00, 0x00, 0x00, 0x73, 0x65, 0x71, 0x75, 0x65, 0x6e, 0x74, 0x69,
  0x61, 0x6c, 0x2f, 0x63, 0x6f, 0x6e, 0x76, 0x32, 0x64, 0x5f, 0x31, 0x2f,
  0x52, 0x65, 0x6c, 0x75, 0x3b, 0x73, 0x65, 0x71, 0x75, 0x65, 0x6e, 0x74,
  0x69, 0x61, 0x6c, 0x2f, 0x63, 0x6f, 0x6e, 0x76, 0x32, 0x64, 0x5f, 0x31,
  0x2f, 0x42, 0x69, 0x61, 0x73, 0x41, 0x64, 0x64, 0x3b, 0x73, 0x65, 0x71,
  0x75, 0x65, 0x6e, 0x74, 0x69, 0x61, 0x6c, 0x2f, 0x63, 0x6f, 0x6e, 0x76,
  0x32, 0x64, 0x5f, 0x31, 0x2f, 0x43, 0x6f, 0x6e, 0x76, 0x32, 0x44, 0x3b,
  0x73, 0x65, 0x71, 0x75, 0x65, 0x6e, 0x74, 0x69, 0x61, 0x6c, 0x2f, 0x63,
  0x6f, 0x6e, 0x76, 0x32, 0x64, 0x5f, 0x31, 0x2f, 0x42, 0x69, 0x61, 0x73,
  0x41, 0x64, 0x64, 0x2f, 0x52, 0x65, 0x61, 0x64, 0x56, 0x61, 0x72, 0x69,
  0x61, 0x62, 0x6c, 0x65, 0x4f, 0x70, 0x2f, 0x72, 0x65, 0x73, 0x6f, 0x75,
  0x72, 0x63, 0x65, 0x00, 0x04, 0x00, 0x00, 0x00, 0xff, 0xff, 0xff, 0xff,
  0x15, 0x00, 0x00, 0x00, 0x01, 0x00, 0x00, 0x00, 0x10, 0x00, 0x00, 0x00,
  0xb8, 0xd3, 0xff, 0xff, 0x00, 0x00, 0x0e, 0x00, 0x1a, 0x00, 0x08, 0x00,
  0x0c, 0x00, 0x10, 0x00, 0x07, 0x00, 0x14, 0x00, 0x0e, 0x00, 0x00, 0x00,
  0x00, 0x00, 0x00, 0x05, 0x01, 0x00, 0x00, 0x00, 0x3c, 0x00, 0x00, 0x00,
  0x30, 0x00, 0x00, 0x00, 0x14, 0x00, 0x00, 0x00, 0x00, 0x00, 0x0e, 0x00,
  0x18, 0x00, 0x17, 0x00, 0x10, 0x00, 0x0c, 0x00, 0x08, 0x00, 0x04, 0x00,
  0x0e, 0x00, 0x00, 0x00, 0x03, 0x00, 0x00, 0x00, 0x03, 0x00, 0x00, 0x00,
  0x03, 0x00, 0x00, 0x00, 0x03, 0x00, 0x00, 0x00, 0x00, 0x00, 0x00, 0x01,
  0x01, 0x00, 0x00, 0x00, 0x0b, 0x00, 0x00, 0x00, 0x01, 0x00, 0x00, 0x00,
  0x0a, 0x00, 0x00, 0x00, 0x2c, 0xff, 0xff, 0xff, 0x11, 0x00, 0x00, 0x00,
  0x00, 0x00, 0x00, 0x11, 0x01, 0x00, 0x00, 0x00, 0x88, 0xd3, 0xff, 0xff,
  0x14, 0x00, 0x00, 0x00, 0x0c, 0x00, 0x00, 0x00, 0x20, 0x00, 0x00, 0x00,
  0x58, 0x00, 0x00, 0x00, 0x40, 0x00, 0x00, 0x00, 0x04, 0x00, 0x00, 0x00,
  0x01, 0x00, 0x00, 0x00, 0x15, 0x00, 0x00, 0x00, 0x01, 0x00, 0x00, 0x00,
  0x08, 0x00, 0x00, 0x00, 0x20, 0x00, 0x00, 0x00, 0x73, 0x65, 0x71, 0x75,
  0x65, 0x6e, 0x74, 0x69, 0x61, 0x6c, 0x2f, 0x6d, 0x61, 0x78, 0x5f, 0x70,
  0x6f, 0x6f, 0x6c, 0x69, 0x6e, 0x67, 0x32, 0x64, 0x2f, 0x4d, 0x61, 0x78,
  0x50, 0x6f, 0x6f, 0x6c, 0x00, 0x00, 0x00, 0x00, 0x04, 0x00, 0x00, 0x00,
  0xff, 0xff, 0xff, 0xff, 0x15, 0x00, 0x00, 0x00, 0x01, 0x00, 0x00, 0x00,
  0x08, 0x00, 0x00, 0x00, 0x94, 0xd4, 0xff, 0xff, 0x00, 0x00, 0x0e, 0x00,
  0x14, 0x00, 0x00, 0x00, 0x08, 0x00, 0x0c, 0x00, 0x07, 0x00, 0x10, 0x00,
  0x0e, 0x00, 0x00, 0x00, 0x00, 0x00, 0x00, 0x01, 0x30, 0x00, 0x00, 0x00,
  0x24, 0x00, 0x00, 0x00, 0x10, 0x00, 0x00, 0x00, 0x0c, 0x00, 0x10, 0x00,
  0x00, 0x00, 0x04, 0x00, 0x08, 0x00, 0x0f, 0x00, 0x0c, 0x00, 0x00, 0x00,
  0x01, 0x00, 0x00, 0x00, 0x01, 0x00, 0x00, 0x00, 0x00, 0x00, 0x00, 0x01,
  0x01, 0x00, 0x00, 0x00, 0x0a, 0x00, 0x00, 0x00, 0x03, 0x00, 0x00, 0x00,
  0x00, 0x00, 0x00, 0x00, 0x08, 0x00, 0x00, 0x00, 0x01, 0x00, 0x00, 0x00,
  0x0c, 0x00, 0x10, 0x00, 0x0b, 0x00, 0x00, 0x00, 0x0c, 0x00, 0x04, 0x00,
  0x0c, 0x00, 0x00, 0x00, 0x03, 0x00, 0x00, 0x00, 0x00, 0x00, 0x00, 0x03,
  0x01, 0x00, 0x00, 0x00, 0x68, 0xd4, 0xff, 0xff, 0x14, 0x00, 0x00, 0x00,
  0x0b, 0x00, 0x00, 0x00, 0x20, 0x00, 0x00, 0x00, 0xb0, 0x00, 0x00, 0x00,
  0x98, 0x00, 0x00, 0x00, 0x04, 0x00, 0x00, 0x00, 0x01, 0x00, 0x00, 0x00,
  0x40, 0x00, 0x00, 0x00, 0x03, 0x00, 0x00, 0x00, 0x08, 0x00, 0x00, 0x00,
  0x7b, 0x00, 0x00, 0x00, 0x73, 0x65, 0x71, 0x75, 0x65, 0x6e, 0x74, 0x69,
  0x61, 0x6c, 0x2f, 0x63, 0x6f, 0x6e, 0x76, 0x32, 0x64, 0x2f, 0x52, 0x65,
  0x6c, 0x75, 0x3b, 0x73, 0x65, 0x71, 0x75, 0x65, 0x6e, 0x74, 0x69, 0x61,
  0x6c, 0x2f, 0x63, 0x6f, 0x6e, 0x76, 0x32, 0x64, 0x2f, 0x42, 0x69, 0x61,
  0x73, 0x41, 0x64, 0x64, 0x3b, 0x73, 0x65, 0x71, 0x75, 0x65, 0x6e, 0x74,
  0x69, 0x61, 0x6c, 0x2f, 0x63, 0x6f, 0x6e, 0x76, 0x32, 0x64, 0x2f, 0x43,
  0x6f, 0x6e, 0x76, 0x32, 0x44, 0x3b, 0x73, 0x65, 0x71, 0x75, 0x65, 0x6e,
  0x74, 0x69, 0x61, 0x6c, 0x2f, 0x63, 0x6f, 0x6e, 0x76, 0x32, 0x64, 0x2f,
  0x42, 0x69, 0x61, 0x73, 0x41, 0x64, 0x64, 0x2f, 0x52, 0x65, 0x61, 0x64,
  0x56, 0x61, 0x72, 0x69, 0x61, 0x62, 0x6c, 0x65, 0x4f, 0x70, 0x2f, 0x72,
  0x65, 0x73, 0x6f, 0x75, 0x72, 0x63, 0x65, 0x00, 0x04, 0x00, 0x00, 0x00,
  0xff, 0xff, 0xff, 0xff, 0x40, 0x00, 0x00, 0x00, 0x03, 0x00, 0x00, 0x00,
  0x08, 0x00, 0x00, 0x00, 0xbc, 0xd4, 0xff, 0xff, 0xc6, 0xd5, 0xff, 0xff,
  0x04, 0x00, 0x00, 0x00, 0x00, 0x08, 0x00, 0x00, 0xab, 0xfb, 0x2b, 0xbf,
  0xd2, 0xb7, 0xe4, 0xb9, 0x43, 0x15, 0x64, 0x3e, 0x8a, 0x7c, 0x5e, 0x3e,
  0x27, 0xef, 0x1d, 0xbe, 0x45, 0xbf, 0xc2, 0xbc, 0xd8, 0xbb, 0x12, 0x3e,
  0x6e, 0xf6, 0x1b, 0x3e, 0xae, 0xd5, 0x82, 0xbe, 0xb7, 0xfe, 0xfc, 0xbb,
  0xbc, 0x68, 0x3b, 0xbd, 0xde, 0x38, 0x82, 0x3d, 0xd4, 0x67, 0xe7, 0xbd,
  0x07, 0xc7, 0xb2, 0x3e, 0x15, 0x42, 0xf2, 0xbd, 0xa3, 0x54, 0x65, 0x3d,
  0xac, 0x10, 0x2d, 0xbd, 0x73, 0x8e, 0xbe, 0xbc, 0xf9, 0x28, 0x0d, 0xbe,
  0xda, 0x7f, 0xcd, 0x3d, 0xfa, 0xc1, 0x00, 0xbd, 0x04, 0xbb, 0x1a, 0xbe,
  0x10, 0xb6, 0xa9, 0xbe, 0xcc, 0x86, 0xb6, 0xbd, 0x73, 0x16, 0x2e, 0x3d,
  0x5b, 0x85, 0x81, 0xbd, 0xe3, 0x31, 0x22, 0xbe, 0x3c, 0x89, 0xb7, 0x3b,
  0x01, 0xff, 0xa0, 0x3d, 0xfb, 0x6a, 0x33, 0x3d, 0x4c, 0x42, 0x68, 0xbe,
  0x47, 0xfe, 0x0d, 0xbe, 0x1c, 0xba, 0xf5, 0xbd, 0x7a, 0xef, 0x69, 0x3d,
  0x57, 0x3f, 0xb9, 0xbd, 0x7d, 0x40, 0x85, 0xbe, 0xc3, 0x55, 0x31, 0x3d,
  0x77, 0xa7, 0x85, 0x3d, 0xd8, 0xa2, 0x2e, 0xbe, 0x50, 0xa9, 0x66, 0x3c,
  0x2e, 0x23, 0x2c, 0xbe, 0x19, 0x27, 0xa4, 0xbd, 0xdd, 0x7d, 0x86, 0xbd,
  0x67, 0x1b, 0x06, 0xbd, 0xa7, 0x52, 0x64, 0xbd, 0xaa, 0xb0, 0x8e, 0xbe,
  0x41, 0x31, 0x1d, 0xbf, 0x38, 0xbd, 0xd6, 0xbd, 0xbe, 0xd5, 0xab, 0xbc,
  0x3b, 0xaf, 0xcf, 0x3b, 0xd3, 0x9f, 0x88, 0xbc, 0xcd, 0x1b, 0x8f, 0xbe,
  0x34, 0x02, 0x2b, 0x3e, 0xa2, 0x00, 0xf6, 0xbe, 0x35, 0x85, 0xd1, 0xbe,
  0xac, 0xf4, 0xbb, 0xbd, 0xcd, 0x51, 0x36, 0xbe, 0xa7, 0x0f, 0xb8, 0x3e,
  0xd5, 0xda, 0x92, 0x3e, 0xf5, 0x30, 0x38, 0x3e, 0xbf, 0xd7, 0xc2, 0xbd,
  0x13, 0x9e, 0xd0, 0xbe, 0x97, 0x3a, 0x3c, 0x3d, 0x6c, 0x81, 0x6a, 0x3d,
  0xe6, 0x75, 0x81, 0x3e, 0xa2, 0x79, 0xa6, 0xbd, 0x36, 0x2e, 0xa8, 0xbd,
  0x19, 0x31, 0x38, 0xbe, 0xf5, 0xbb, 0x4f, 0xbe, 0x78, 0x91, 0x09, 0xbe,
  0x18, 0x6b, 0xe4, 0xbd, 0xf8, 0x6e, 0x02, 0x3d, 0xc1, 0x34, 0x3b, 0xbd,
  0xfa, 0xdb, 0xca, 0xbd, 0x24, 0x5b, 0x19, 0x3d, 0x2c, 0x85, 0x8e, 0x3c,
  0x01, 0x39, 0x5b, 0xbe, 0xd6, 0x0b, 0x8f, 0x3e, 0x3c, 0xe0, 0x25, 0x3f,
  0x88, 0xf3, 0xee, 0x3d, 0xb7, 0x04, 0xf8, 0xbc, 0xac, 0xd2, 0x42, 0xbd,
  0x8c, 0x66, 0x8e, 0xbe, 0xb0, 0x9d, 0x26, 0x3e, 0x7a, 0x54, 0x80, 0xbe,
  0x6b, 0xe1, 0x12, 0x3b, 0x38, 0x31, 0x7d, 0xbd, 0xb4, 0x64, 0xd7, 0xbd,
  0xb7, 0x3c, 0xa6, 0x3e, 0xe9, 0x39, 0x01, 0xbe, 0x3c, 0x6e, 0x70, 0xbe,
  0x35, 0x8a, 0x02, 0x3d, 0xa3, 0xb4, 0x25, 0xbe, 0x0e, 0xba, 0x0d, 0x3e,
  0xf3, 0x12, 0x1a, 0x3d, 0x30, 0xac, 0x8b, 0xbc, 0x91, 0x05, 0x88, 0xbe,
  0xc2, 0xae, 0xca, 0xbb, 0x73, 0x6d, 0x29, 0x3e, 0xe3, 0xbc, 0xae, 0xbe,
  0x70, 0x5f, 0xa0, 0xbe, 0xbe, 0xfc, 0x0b, 0xbf, 0x78, 0x8e, 0x9a, 0xbe,
  0xd3, 0x30, 0x42, 0xbe, 0xb4, 0x7d, 0x85, 0x3e, 0x07, 0x98, 0x23, 0x3d,
  0xfd, 0xc3, 0x97, 0xbc, 0x83, 0x1e, 0x14, 0xbe, 0x28, 0x64, 0xc8, 0xbe,
  0x97, 0x8f, 0x61, 0x3e, 0x08, 0x1a, 0x82, 0x3e, 0xa6, 0x86, 0x08, 0xbe,
  0x92, 0x7c, 0xc4, 0xbc, 0xac, 0xd0, 0x2a, 0x3e, 0x63, 0x85, 0x6a, 0x3e,
  0x1c, 0xf8, 0x60, 0xbe, 0x39, 0x06, 0xc5, 0xbe, 0x25, 0xf9, 0x8d, 0xbe,
  0xc8, 0x30, 0xaf, 0xbe, 0x44, 0xb6, 0x6c, 0xbe, 0x6c, 0xbc, 0x01, 0xbd,
  0x0c, 0x6c, 0x69, 0x3e, 0xc2, 0xe2, 0xd2, 0xbc, 0x10, 0x84, 0x23, 0x3e,
  0x93, 0x0d, 0x9e, 0xbe, 0x11, 0xe3, 0x38, 0x3d, 0x18, 0xa4, 0x2d, 0xbe,
  0x9d, 0xa7, 0x5b, 0xbe, 0xdd, 0x6e, 0x4a, 0xbd, 0xd8, 0xfb, 0x5a, 0xbe,
  0x54, 0x26, 0xcf, 0xb8, 0x30, 0xa2, 0xb1, 0xbd, 0x8c, 0x19, 0x8e, 0xbe,
  0x2c, 0x59, 0x86, 0x3e, 0x99, 0x64, 0x9d, 0x3d, 0x65, 0xd0, 0xaa, 0xbd,
  0x9d, 0x3a, 0x81, 0xbe, 0xbf, 0x4f, 0x57, 0xbe, 0x2d, 0x79, 0xa2, 0x3b,
  0x72, 0x40, 0x25, 0x3f, 0xdd, 0x04, 0xae, 0xbe, 0x0a, 0x2c, 0xd5, 0xbd,
  0xd6, 0x4d, 0x33, 0x3e, 0xa8, 0x52, 0x1e, 0xbe, 0x47, 0x53, 0x29, 0xbe,
  0xdb, 0xcd, 0xe9, 0xbd, 0xf9, 0x26, 0x56, 0xbd, 0x90, 0x16, 0x71, 0xbd,
  0x33, 0x2e, 0xe0, 0xbd, 0xad, 0xb0, 0xb4, 0x3e, 0x1c, 0x57, 0x14, 0x3f,
  0xd0, 0x4f, 0xc0, 0x3d, 0xaf, 0x46, 0x80, 0xbd, 0x92, 0xa9, 0x77, 0xbe,
  0xbb, 0x60, 0x5c, 0xbb, 0x8a, 0xf4, 0xc4, 0xbc, 0xe0, 0xe1, 0xba, 0x3c,
  0x58, 0xb2, 0x2c, 0xbe, 0x6d, 0xe8, 0x40, 0x3e, 0x52, 0x39, 0x36, 0xbc,
  0xc6, 0xeb, 0x1d, 0x3e, 0x0d, 0xf8, 0x32, 0x3e, 0x99, 0xf1, 0xa3, 0xbb,
  0xb8, 0x4b, 0x16, 0xbe, 0xc0, 0x09, 0xba, 0xbd, 0x03, 0xa6, 0xbd, 0xbd,
  0x2f, 0x84, 0x7b, 0xbd, 0x0e, 0x7e, 0x89, 0xbe, 0x7a, 0xd0, 0x6d, 0x3c,
  0xf8, 0x53, 0x2f, 0xbe, 0x02, 0xd8, 0xe9, 0x3c, 0x70, 0xdd, 0x8c, 0x3e,
  0xed, 0x1c, 0xb5, 0xbd, 0x30, 0xd4, 0xbc, 0x3c, 0x46, 0x4b, 0x76, 0xbe,
  0xf1, 0x96, 0xcf, 0xbe, 0x19, 0xec, 0x60, 0xbd, 0x80, 0xb7, 0x82, 0x3e,
  0x24, 0xee, 0xf3, 0x3c, 0x86, 0xb2, 0x70, 0x3d, 0x97, 0x37, 0xdc, 0xbd,
  0xc6, 0xac, 0xd5, 0x3b, 0xdc, 0x99, 0x57, 0xbe, 0xa3, 0x98, 0xfb, 0xbe,
  0x93, 0xed, 0xaa, 0xbd, 0x90, 0xe4, 0xa3, 0x3e, 0xd9, 0x4c, 0xb1, 0x3c,
  0x64, 0xe5, 0xb8, 0xbe, 0x45, 0xbf, 0x08, 0xbe, 0x0f, 0xcb, 0xbe, 0xbd,
  0x4c, 0x7b, 0x4b, 0x3d, 0x08, 0x06, 0xcf, 0xbe, 0x32, 0xfe, 0xa0, 0xbd,
  0x99, 0x35, 0xb7, 0xbd, 0xd2, 0xc3, 0xd0, 0x3e, 0x88, 0x0b, 0xd0, 0xbd,
  0xe9, 0xf7, 0x80, 0x3d, 0xb9, 0x65, 0x53, 0xbe, 0xf0, 0xee, 0xe1, 0x3d,
  0xc2, 0x35, 0x1d, 0xbd, 0xfa, 0x51, 0x90, 0xbc, 0xf4, 0x75, 0xc5, 0xbd,
  0x89, 0x23, 0xa6, 0x3e, 0x70, 0xfe, 0xab, 0xbe, 0x08, 0x34, 0x66, 0x3d,
  0xe5, 0xda, 0xf5, 0xbd, 0xde, 0x1a, 0x51, 0xbe, 0x47, 0x81, 0xdc, 0xbd,
  0x98, 0x20, 0x57, 0xbe, 0x90, 0x02, 0x85, 0xbd, 0x3d, 0x4e, 0x6b, 0xbe,
  0x67, 0x76, 0x20, 0x3e, 0x72, 0x5e, 0x12, 0xbd, 0x0a, 0xde, 0x18, 0xbd,
  0x90, 0x73, 0x73, 0xbe, 0x55, 0x0e, 0xe1, 0xbd, 0x76, 0x04, 0x93, 0xbe,
  0x59, 0x43, 0x13, 0xbe, 0x41, 0xe5, 0x4b, 0xbe, 0x62, 0xf7, 0x57, 0x3e,
  0x74, 0x4a, 0x57, 0xbd, 0x8d, 0x4a, 0xf3, 0x3d, 0xee, 0x6a, 0x21, 0xbe,
  0x6e, 0xd4, 0xed, 0xbd, 0x35, 0x86, 0x98, 0xbe, 0xce, 0xf9, 0x77, 0xbe,
  0xbd, 0xf2, 0xe7, 0xbc, 0x68, 0x4b, 0xde, 0xbe, 0x0c, 0x6e, 0x47, 0xbe,
  0xf1, 0x7f, 0xf0, 0xbe, 0x5f, 0x35, 0xa1, 0x3d, 0xdc, 0x79, 0xbe, 0x3b,
  0xd5, 0x18, 0x86, 0xbf, 0x56, 0x1f, 0xb4, 0xbe, 0x9d, 0xad, 0xfd, 0x3d,
  0x73, 0xc8, 0x3b, 0x3e, 0x64, 0x3c, 0xcc, 0xbe, 0x7c, 0xaa, 0xac, 0xbc,
  0x31, 0x67, 0xc3, 0x3d, 0xed, 0x27, 0xc5, 0xbd, 0x65, 0xe5, 0x0e, 0xbe,
  0xc3, 0xfa, 0xfd, 0x3b, 0x7c, 0x5a, 0x4a, 0xbe, 0x00, 0xf9, 0x86, 0x3e,
  0x54, 0xa6, 0x30, 0xbe, 0x98, 0x8c, 0x07, 0x3e, 0x6f, 0x03, 0x9c, 0x3e,
  0xc2, 0xc2, 0x99, 0x3d, 0xd6, 0x89, 0x64, 0x3e, 0xf1, 0x75, 0xb0, 0x3d,
  0x1c, 0xac, 0x4c, 0xbf, 0xd9, 0x55, 0xec, 0x3d, 0x8c, 0x2d, 0x1d, 0x3e,
  0x92, 0xf0, 0x5a, 0x3e, 0x1d, 0x08, 0x00, 0xbe, 0x36, 0x13, 0x0d, 0xbe,
  0x59, 0x31, 0xe1, 0xbc, 0x63, 0xc8, 0x3f, 0x3e, 0x02, 0x26, 0x80, 0x3e,
  0x95, 0x38, 0xb6, 0x3e, 0x75, 0x5c, 0x41, 0x3d, 0x07, 0x77, 0x88, 0x3e,
  0x31, 0x95, 0x2a, 0x3d, 0x30, 0xe8, 0x98, 0xbe, 0x13, 0x12, 0xd1, 0x3d,
  0x29, 0x68, 0x5b, 0xbd, 0x41, 0x3c, 0x69, 0x3e, 0x1b, 0x97, 0xb6, 0xbc,
  0x5f, 0xbc, 0xa4, 0xbd, 0x42, 0x3f, 0x05, 0x3e, 0xc0, 0xf1, 0xcd, 0x3d,
  0xa8, 0xf3, 0xd9, 0xbe, 0x42, 0xba, 0x7c, 0xbd, 0x3c, 0xe5, 0x80, 0xbc,
  0x9f, 0x4e, 0x4b, 0x3a, 0x80, 0x70, 0x91, 0xbe, 0x99, 0x71, 0xe2, 0xbd,
  0xb5, 0x93, 0x24, 0xbe, 0xce, 0x35, 0x4e, 0x3d, 0x3f, 0x8a, 0xc3, 0xbe,
  0x59, 0x31, 0x94, 0xbd, 0x8a, 0xd6, 0xd1, 0xbd, 0x0c, 0x78, 0x8f, 0xbe,
  0x8e, 0xbe, 0x97, 0x3d, 0xf3, 0x20, 0x0f, 0xbe, 0x67, 0xcb, 0xb2, 0xbe,
  0x2d, 0x8c, 0x91, 0x3e, 0x9e, 0x5a, 0x92, 0xbe, 0x20, 0x76, 0x05, 0x3f,
  0x8a, 0x4c, 0xae, 0xbb, 0x46, 0x01, 0x00, 0x3e, 0x1a, 0x54, 0xdc, 0x3a,
  0xe2, 0x89, 0x4e, 0x39, 0x96, 0xf6, 0x56, 0x3d, 0x5d, 0x24, 0xbd, 0xbc,
  0xae, 0xcf, 0x01, 0xbf, 0x0e, 0x91, 0x06, 0xbe, 0xd1, 0x4b, 0xbc, 0xbd,
  0x02, 0x2f, 0x71, 0xbe, 0x23, 0x7e, 0xb2, 0x3d, 0x3b, 0x43, 0x08, 0xbe,
  0x56, 0x15, 0xa9, 0xbd, 0x54, 0xdd, 0x22, 0x3e, 0x4e, 0x32, 0xb9, 0xbe,
  0x6d, 0xf2, 0xe4, 0xbd, 0x05, 0x53, 0xad, 0x3d, 0x38, 0x13, 0x4d, 0xbe,
  0x3e, 0xd1, 0xa1, 0xbc, 0x03, 0x29, 0xd2, 0xbd, 0x18, 0x6a, 0xa4, 0xbe,
  0xad, 0x38, 0xbb, 0x3e, 0x9e, 0x28, 0x2b, 0xbe, 0x43, 0x3f, 0x21, 0xbe,
  0xaa, 0x46, 0x06, 0x3b, 0xc6, 0x22, 0x00, 0x3c, 0xc8, 0x4a, 0x48, 0xbe,
  0x39, 0x3b, 0x08, 0xbe, 0x8a, 0x71, 0x02, 0xbf, 0x18, 0x11, 0xca, 0x3e,
  0xd8, 0x6d, 0x9f, 0x3e, 0x21, 0x7c, 0x23, 0xbf, 0x0e, 0x1d, 0x90, 0x3b,
  0x88, 0xb5, 0x79, 0x3e, 0xb2, 0xf8, 0xa8, 0xbd, 0x05, 0xe9, 0xb9, 0xbe,
  0x96, 0x14, 0x7c, 0x3c, 0x67, 0xa4, 0x93, 0xbd, 0xf4, 0xf7, 0x8f, 0xbd,
  0x17, 0xd9, 0xdd, 0xbe, 0x49, 0xbe, 0x37, 0x3c, 0x7b, 0x99, 0x03, 0xbe,
  0x92, 0x29, 0x66, 0xbc, 0xd8, 0xda, 0xa2, 0xbe, 0x80, 0xd5, 0x61, 0x3d,
  0xa4, 0x1d, 0xda, 0x3d, 0xde, 0xa2, 0x29, 0x3e, 0xac, 0x2b, 0xe8, 0xbe,
  0x4f, 0xd0, 0x3a, 0x3e, 0x6a, 0xb3, 0x85, 0xbd, 0x83, 0xce, 0x69, 0x3d,
  0xfe, 0x60, 0x84, 0xbe, 0x84, 0xf6, 0xb4, 0xbd, 0xad, 0x9e, 0x01, 0x3e,
  0x5f, 0xfc, 0x9e, 0x3c, 0x63, 0x4a, 0x30, 0xbf, 0xe7, 0x4e, 0x28, 0x3d,
  0x66, 0xb5, 0x18, 0xbd, 0x49, 0x05, 0x3b, 0xbc, 0xb0, 0xd5, 0x79, 0xbe,
  0x68, 0x0d, 0xb7, 0x3d, 0x25, 0xf5, 0x43, 0x3d, 0xf3, 0x47, 0xae, 0x3c,
  0x26, 0xf0, 0xcc, 0x3e, 0x05, 0x9f, 0xd3, 0xbd, 0x87, 0x1d, 0xbf, 0xbd,
  0x88, 0xf3, 0xf6, 0xbe, 0x98, 0x81, 0x53, 0xbe, 0x0a, 0x7f, 0xd4, 0xbe,
  0x6d, 0x6b, 0x8b, 0x3e, 0xa0, 0xe2, 0x2e, 0xbe, 0x0d, 0x48, 0x41, 0xbe,
  0xc4, 0x4a, 0xaa, 0xbd, 0x48, 0x60, 0x3a, 0xbc, 0x3e, 0x9b, 0x38, 0x3d,
  0x25, 0xa7, 0x66, 0xbe, 0x4c, 0xe9, 0x44, 0xbe, 0x59, 0xa0, 0x19, 0x3e,
  0x01, 0xba, 0xb8, 0x3d, 0x0a, 0x87, 0x85, 0xbe, 0x66, 0xaf, 0xa1, 0xbd,
  0x4e, 0x71, 0xdb, 0x3c, 0xcb, 0xb4, 0xc8, 0x3d, 0x00, 0x55, 0xe9, 0xbd,
  0xdd, 0xe8, 0x91, 0x3c, 0xd6, 0x93, 0x06, 0x3d, 0x19, 0x0f, 0xb7, 0xbc,
  0x2a, 0x28, 0x95, 0xbe, 0x93, 0x5b, 0xda, 0xbd, 0xfc, 0xcb, 0x44, 0x3d,
  0x28, 0x93, 0xac, 0x3c, 0xf3, 0xc8, 0xca, 0x3d, 0x76, 0x84, 0x0d, 0x3c,
  0xe0, 0x2b, 0x9e, 0xbc, 0xd2, 0xc7, 0xb0, 0x3d, 0x34, 0x71, 0xb7, 0xbe,
  0x88, 0x24, 0x80, 0xbe, 0x3e, 0xfd, 0x86, 0x3d, 0xac, 0xf3, 0xdc, 0xbd,
  0xa0, 0x6c, 0xaf, 0x3d, 0x72, 0x80, 0x92, 0xbe, 0x6f, 0x89, 0xef, 0x3d,
  0xc0, 0x74, 0x7d, 0xbd, 0x33, 0x4f, 0xbb, 0xbe, 0x71, 0x75, 0x80, 0xbe,
  0xca, 0x52, 0x98, 0x3d, 0x6d, 0x6c, 0x8f, 0x3e, 0x4f, 0xc0, 0x8f, 0x3d,
  0xb0, 0x1d, 0xa1, 0xbe, 0xb1, 0x37, 0xf3, 0x3d, 0x3c, 0x49, 0xec, 0xbd,
  0x52, 0x80, 0xd7, 0xbe, 0x19, 0x56, 0x1f, 0xbe, 0xfe, 0x1f, 0xb9, 0x3e,
  0x06, 0xef, 0xd9, 0x3e, 0x0e, 0x03, 0x3f, 0xbd, 0x30, 0x44, 0xd2, 0x3d,
  0xb5, 0x74, 0xd0, 0x3e, 0x81, 0xe9, 0x19, 0xbe, 0x45, 0x15, 0x9a, 0xbe,
  0x08, 0x5e, 0xdc, 0xbd, 0xd1, 0x13, 0x1f, 0xbe, 0x98, 0xe1, 0xc9, 0x3e,
  0xcb, 0xf4, 0x1a, 0xbe, 0x59, 0xda, 0xf2, 0x3d, 0x26, 0x39, 0x09, 0xbf,
  0x27, 0x87, 0xb4, 0xbd, 0x45, 0x03, 0xa1, 0xbc, 0x06, 0x78, 0x7f, 0x3d,
  0xec, 0xcf, 0x27, 0xbe, 0x73, 0xc9, 0xc7, 0x3e, 0x56, 0xbf, 0x8d, 0x3d,
  0x7a, 0x33, 0xd7, 0x3e, 0xc7, 0x8f, 0x15, 0xbe, 0x23, 0xb8, 0x66, 0x3d,
  0x34, 0x7d, 0x91, 0x3a, 0xe0, 0x8a, 0x99, 0xbd, 0x83, 0x43, 0x9e, 0xbe,
  0x16, 0x0f, 0x33, 0xbe, 0xa5, 0x9c, 0xd4, 0x3c, 0x59, 0x21, 0x04, 0xbe,
  0x2c, 0xe6, 0x16, 0x3e, 0x04, 0x7e, 0x67, 0xbe, 0x96, 0xee, 0x52, 0xbc,
  0xac, 0x80, 0x08, 0xbe, 0xc8, 0xea, 0x58, 0xbe, 0x02, 0x81, 0xa5, 0xbd,
  0xe8, 0x6a, 0x44, 0xbd, 0x6b, 0xf5, 0xcf, 0xbd, 0x2d, 0xbf, 0x9c, 0x3d,
  0x76, 0x0c, 0x8b, 0xbe, 0x4d, 0xc3, 0x8c, 0x3b, 0x0e, 0xbd, 0xc1, 0x38,
  0x51, 0x84, 0x55, 0xbe, 0x99, 0x86, 0xc7, 0x3e, 0xd2, 0x76, 0x94, 0xba,
  0xd5, 0xc1, 0xa2, 0x3e, 0x77, 0x4e, 0xaf, 0x3e, 0x6d, 0x1d, 0x5f, 0xbe,
  0xce, 0x71, 0x87, 0x3e, 0x73, 0xc0, 0x48, 0xbe, 0xb0, 0xd1, 0x7b, 0x3e,
  0xc3, 0x31, 0x9d, 0xbe, 0xc2, 0x64, 0x4e, 0x3e, 0x33, 0x44, 0x85, 0xbd,
  0xb8, 0x0a, 0xc6, 0x3d, 0xcd, 0xde, 0x76, 0xbd, 0xf9, 0x52, 0x44, 0xbd,
  0xa4, 0xae, 0x7a, 0xbe, 0x37, 0x27, 0xca, 0x3d, 0x07, 0x99, 0x0e, 0xbe,
  0x1f, 0xe2, 0xd0, 0xbd, 0xde, 0x62, 0x72, 0x3e, 0x07, 0x0c, 0xd5, 0x3d,
  0x82, 0x2b, 0x3a, 0x3d, 0xb8, 0xaf, 0xf4, 0x3d, 0xe1, 0xa5, 0x7c, 0xbe,
  0x28, 0xc3, 0x7d, 0xbd, 0x60, 0xa4, 0x03, 0xbe, 0x1b, 0x24, 0x0f, 0x3d,
  0x64, 0x69, 0x04, 0xbe, 0xa1, 0x40, 0xc5, 0x3d, 0xf9, 0x7a, 0x03, 0xbe,
  0xdb, 0x21, 0xa4, 0xbd, 0x2b, 0xc9, 0x5a, 0xbe, 0x6d, 0xc9, 0x8d, 0x3e,
  0x35, 0x01, 0x9b, 0x3e, 0x7f, 0x01, 0x09, 0xbd, 0x68, 0x18, 0xf1, 0xbc,
  0x68, 0xd4, 0x12, 0x3d, 0xd2, 0xa4, 0x21, 0xbe, 0xcb, 0xaa, 0xcb, 0xbd,
  0x08, 0xc5, 0x2c, 0x3c, 0xe8, 0x86, 0x3b, 0xbe, 0x48, 0x82, 0xa3, 0xbe,
  0xd1, 0x64, 0x2f, 0xbe, 0x57, 0xc6, 0x53, 0xbe, 0x59, 0x76, 0xb7, 0x3e,
  0xd0, 0xc0, 0xf6, 0x3d, 0xc7, 0x38, 0x73, 0xbf, 0x99, 0x64, 0x38, 0xbd,
  0x07, 0xb9, 0x02, 0x3f, 0x16, 0xfa, 0xf7, 0xbd, 0x9a, 0x5e, 0x08, 0xbe,
  0x72, 0x1f, 0x4d, 0xbe, 0x8d, 0x04, 0x9d, 0xbd, 0x1f, 0x80, 0x0a, 0x3c,
  0x4b, 0xc8, 0x4c, 0xbf, 0x0e, 0xb3, 0x74, 0xbd, 0xd3, 0xe4, 0x05, 0x3d,
  0x7a, 0x52, 0x9e, 0x3d, 0x58, 0x28, 0x84, 0xbd, 0xd4, 0x9a, 0x0d, 0xbe,
  0xb9, 0xf1, 0x8b, 0x3b, 0x3a, 0xeb, 0xe0, 0xbc, 0x82, 0xc8, 0x0f, 0xbf,
  0x66, 0xf9, 0x98, 0xbd, 0xa2, 0xa0, 0xc2, 0x3d, 0xe1, 0xf7, 0xa6, 0x3d,
  0x18, 0x0a, 0xb9, 0xbd, 0x53, 0xdc, 0x56, 0x3c, 0x1c, 0x12, 0x17, 0xbe,
  0xb1, 0x16, 0x7e, 0xbd, 0x9e, 0xdd, 0xff, 0xff, 0x10, 0x00, 0x00, 0x00,
  0x0a, 0x00, 0x00, 0x00, 0x1c, 0x00, 0x00, 0x00, 0x38, 0x00, 0x00, 0x00,
  0x04, 0x00, 0x00, 0x00, 0x10, 0x00, 0x00, 0x00, 0x04, 0x00, 0x00, 0x00,
  0x01, 0x00, 0x00, 0x00, 0x08, 0x00, 0x00, 0x00, 0x1a, 0x00, 0x00, 0x00,
  0x73, 0x65, 0x71, 0x75, 0x65, 0x6e, 0x74, 0x69, 0x61, 0x6c, 0x2f, 0x63,
  0x6f, 0x6e, 0x76, 0x32, 0x64, 0x5f, 0x31, 0x2f, 0x43, 0x6f, 0x6e, 0x76,
  0x32, 0x44, 0x00, 0x00, 0x14, 0xdd, 0xff, 0xff, 0x1e, 0xde, 0xff, 0xff,
  0x04, 0x00, 0x00, 0x00, 0x80, 0x01, 0x00, 0x00, 0x89, 0x06, 0xf7, 0x3d,
  0xef, 0x51, 0x6e, 0xbe, 0x94, 0x1e, 0x98, 0xbe, 0x14, 0x18, 0x56, 0xba,
  0x12, 0x00, 0x1f, 0xbe, 0x4a, 0x05, 0x24, 0x3e, 0xba, 0x87, 0x7d, 0xbe,
  0x53, 0x0c, 0x7d, 0xbd, 0x6d, 0x3b, 0x87, 0x3d, 0xed, 0x38, 0x02, 0xbe,
  0x4b, 0xd8, 0xf2, 0x3d, 0x8e, 0x66, 0xaa, 0xbd, 0x2e, 0x40, 0x81, 0x3d,
  0x13, 0xae, 0x78, 0x3d, 0x3a, 0x16, 0xca, 0x3d, 0x24, 0x39, 0x1b, 0x3d,
  0xff, 0x62, 0x68, 0x3d, 0x6e, 0x12, 0x31, 0x3d, 0x9b, 0x55, 0xf6, 0xbd,
  0xe2, 0x6a, 0x82, 0x3d, 0x05, 0x62, 0x95, 0xbd, 0x38, 0x9c, 0xd9, 0xbd,
  0xc7, 0xf2, 0xbd, 0x3d, 0x7d, 0x01, 0xf9, 0xbd, 0x95, 0x35, 0x7e, 0xbe,
  0x05, 0x39, 0x77, 0x3e, 0xae, 0xb9, 0x78, 0xbe, 0x38, 0x5f, 0xee, 0x3c,
  0xf2, 0x6f, 0x38, 0xbc, 0xf5, 0x88, 0x33, 0x3d, 0xdd, 0xce, 0x92, 0x3e,
  0x99, 0x88, 0x86, 0xbc, 0x4f, 0xd4, 0x01, 0xbd, 0x02, 0x3a, 0xa4, 0x3e,
  0x1c, 0xfa, 0x83, 0x3c, 0x8a, 0x39, 0xcf, 0x3d, 0x11, 0x88, 0x32, 0x3e,
  0x0b, 0x2a, 0xd1, 0xbc, 0x85, 0x04, 0x7e, 0xbd, 0xc4, 0x44, 0xa0, 0x3e,
  0x96, 0xe7, 0xe8, 0x3d, 0x54, 0xd2, 0x58, 0x3e, 0xa3, 0xfd, 0x01, 0xbe,
  0x39, 0x6e, 0x9b, 0x3e, 0x61, 0xbd, 0x1a, 0xbd, 0x47, 0x65, 0xc6, 0xbe,
  0x5c, 0x3e, 0xcf, 0xbe, 0xa6, 0x12, 0xd2, 0xbd, 0x07, 0xb8, 0x41, 0x3e,
  0x76, 0x67, 0xa5, 0x3d, 0x2b, 0xa9, 0x5b, 0xbe, 0x0c, 0xe6, 0xa1, 0x3c,
  0xac, 0x7e, 0x37, 0x3d, 0xf0, 0x40, 0x3c, 0xbe, 0xcc, 0xd5, 0x8f, 0x3d,
  0x78, 0x19, 0xe2, 0xbd, 0x8b, 0x0c, 0x54, 0xbc, 0x08, 0xc8, 0x2f, 0x3e,
  0x90, 0x47, 0x26, 0xbd, 0xc7, 0xb5, 0xb4, 0xbd, 0xfe, 0xf4, 0xdc, 0x3e,
  0x2c, 0x8f, 0x98, 0x3d, 0x4d, 0xea, 0x14, 0xbe, 0x53, 0x32, 0x9c, 0xbc,
  0x5f, 0x9f, 0xb0, 0x3e, 0x5f, 0x4d, 0x29, 0x3e, 0xaf, 0xd8, 0xef, 0x3d,
  0xba, 0x35, 0xed, 0xbd, 0x65, 0xc6, 0x83, 0xbd, 0xf1, 0x03, 0xc7, 0xbe,
  0x79, 0xd8, 0xd9, 0xbe, 0x48, 0x1d, 0xea, 0xbc, 0xe5, 0x81, 0x21, 0xbe,
  0x1c, 0xb5, 0x03, 0xbf, 0x6a, 0x5e, 0x8d, 0xbe, 0xc5, 0xbb, 0x31, 0x3e,
  0xa4, 0xbd, 0x3e, 0x3e, 0xac, 0x92, 0x33, 0x3e, 0x1e, 0x61, 0x8e, 0x3d,
  0x3e, 0x99, 0x5e, 0x3e, 0x90, 0x61, 0xc4, 0x3d, 0x31, 0x3d, 0x1e, 0xbd,
  0xc0, 0x5e, 0xc6, 0x3d, 0xd1, 0xbb, 0x41, 0xbb, 0x9d, 0x26, 0x07, 0x3e,
  0xd0, 0x32, 0xf9, 0x3d, 0x6d, 0x0f, 0xc7, 0x3d, 0x8c, 0xf8, 0xb6, 0x3d,
  0x74, 0x1c, 0x2c, 0xbe, 0x21, 0x23, 0x43, 0x3e, 0x48, 0xb9, 0xb6, 0x3c,
  0xce, 0x87, 0x3d, 0x3d, 0xe8, 0x0a, 0x4b, 0xbe, 0x89, 0xba, 0x2c, 0x3e,
  0xfe, 0xca, 0x0b, 0xbd, 0x99, 0x3d, 0xb2, 0x3b, 0x76, 0xdf, 0xff, 0xff,
  0x10, 0x00, 0x00, 0x00, 0x09, 0x00, 0x00, 0x00, 0x1c, 0x00, 0x00, 0x00,
  0x38, 0x00, 0x00, 0x00, 0x04, 0x00, 0x00, 0x00, 0x08, 0x00, 0x00, 0x00,
  0x04, 0x00, 0x00, 0x00, 0x03, 0x00, 0x00, 0x00, 0x01, 0x00, 0x00, 0x00,
  0x18, 0x00, 0x00, 0x00, 0x73, 0x65, 0x71, 0x75, 0x65, 0x6e, 0x74, 0x69,
  0x61, 0x6c, 0x2f, 0x63, 0x6f, 0x6e, 0x76, 0x32, 0x64, 0x2f, 0x43, 0x6f,
  0x6e, 0x76, 0x32, 0x44, 0x00, 0x00, 0x00, 0x00, 0xec, 0xde, 0xff, 0xff,
  0xf6, 0xdf, 0xff, 0xff, 0x04, 0x00, 0x00, 0x00, 0x40, 0x01, 0x00, 0x00,
  0x8a, 0x68, 0xd2, 0xbc, 0x70, 0x32, 0x40, 0xbe, 0xea, 0x63, 0x2f, 0xbd,
  0x75, 0x7d, 0xfe, 0xbc, 0x3a, 0x95, 0x70, 0x3e, 0x7b, 0x7e, 0x10, 0xbe,
  0xd6, 0x7c, 0x32, 0x3e, 0x12, 0xea, 0x1b, 0x3d, 0x64, 0x84, 0xc7, 0x3e,
  0x52, 0xa0, 0xcd, 0xbe, 0x98, 0x06, 0xea, 0x3d, 0x35, 0x1b, 0xf5, 0x3d,
  0xe9, 0xdf, 0x77, 0x3e, 0x26, 0x2d, 0x65, 0x3e, 0x54, 0x08, 0x15, 0x3e,
  0xf8, 0x2c, 0x23, 0x3e, 0xa2, 0xf6, 0xc9, 0xbe, 0x4c, 0x0a, 0x3f, 0xbf,
  0x9e, 0xcc, 0x54, 0xbd, 0xfd, 0x30, 0x71, 0xbd, 0xb4, 0x84, 0x92, 0x3d,
  0x0f, 0x56, 0x56, 0x3d, 0xd7, 0x44, 0x7c, 0x3e, 0xa4, 0x62, 0x14, 0xbf,
  0x47, 0xca, 0x01, 0xbf, 0x7a, 0x92, 0xbc, 0xbe, 0x54, 0xb6, 0xa7, 0x3c,
  0x16, 0xd6, 0x80, 0x3d, 0xe8, 0xc1, 0x4a, 0x3e, 0xe3, 0xdc, 0x80, 0x3e,
  0x2e, 0xae, 0x04, 0x3e, 0xf3, 0xb7, 0xb3, 0xbd, 0x16, 0xba, 0x1f, 0x3c,
  0xd1, 0x27, 0x83, 0xbe, 0xa8, 0xe3, 0x02, 0x3c, 0xa7, 0x8e, 0xaf, 0x3d,
  0x6e, 0xe6, 0x8a, 0x3e, 0x67, 0xc5, 0xfc, 0x3d, 0x02, 0xb2, 0xbb, 0x3d,
  0x3c, 0x95, 0x1a, 0xbe, 0x27, 0x53, 0x28, 0x3e, 0x17, 0x0b, 0xe6, 0xbe,
  0x10, 0xee, 0x92, 0xbd, 0xea, 0x17, 0xfd, 0x3d, 0x59, 0x7f, 0x6f, 0x3e,
  0xb1, 0x48, 0x7b, 0x3e, 0xfe, 0x9e, 0x04, 0x3e, 0x49, 0x6e, 0x48, 0x3e,
  0xd0, 0x69, 0xac, 0x3c, 0xb9, 0x70, 0x16, 0xbe, 0xfb, 0x6d, 0x0d, 0xbd,
  0x19, 0xb1, 0xc2, 0x3d, 0xd0, 0xc9, 0x75, 0x3e, 0x18, 0xbb, 0xdc, 0x3d,
  0x30, 0x4b, 0x22, 0xbd, 0x87, 0x8d, 0xa6, 0x3d, 0x44, 0x3b, 0x49, 0xbe,
  0xf9, 0xa8, 0xc5, 0xbe, 0xac, 0xf5, 0x2d, 0xbe, 0xed, 0xd2, 0x3b, 0x3e,
  0x53, 0x04, 0x40, 0x3e, 0xbc, 0x53, 0x39, 0x3e, 0x32, 0xc1, 0x1f, 0x3e,
  0x80, 0x5a, 0x5b, 0x3e, 0x2a, 0x53, 0x21, 0x3d, 0x77, 0x11, 0x17, 0xbf,
  0xa2, 0x54, 0x68, 0xbd, 0xf0, 0xda, 0xcd, 0x3c, 0x0c, 0x7f, 0x38, 0x3e,
  0xfc, 0x41, 0x19, 0x3e, 0x4d, 0x46, 0x17, 0x3e, 0x4a, 0x65, 0x56, 0x3e,
  0x6d, 0xf7, 0x47, 0xbd, 0xfb, 0xeb, 0xd7, 0xbe, 0x2b, 0x55, 0x19, 0x3d,
  0x94, 0x7a, 0xdc, 0x3d, 0xa5, 0xe2, 0x48, 0x3e, 0x93, 0x97, 0x3c, 0x3e,
  0xa2, 0x59, 0x8e, 0x3d, 0xc8, 0x14, 0x73, 0x3e, 0x0e, 0xe1, 0xff, 0xff,
  0x10, 0x00, 0x00, 0x00, 0x08, 0x00, 0x00, 0x00, 0x14, 0x00, 0x00, 0x00,
  0x30, 0x00, 0x00, 0x00, 0x02, 0x00, 0x00, 0x00, 0x05, 0x00, 0x00, 0x00,
  0x10, 0x00, 0x00, 0x00, 0x19, 0x00, 0x00, 0x00, 0x73, 0x65, 0x71, 0x75,
  0x65, 0x6e, 0x74, 0x69, 0x61, 0x6c, 0x2f, 0x64, 0x65, 0x6e, 0x73, 0x65,
  0x5f, 0x31, 0x2f, 0x4d, 0x61, 0x74, 0x4d, 0x75, 0x6c, 0x00, 0x00, 0x00,
  0x7c, 0xe0, 0xff, 0xff, 0x86, 0xe1, 0xff, 0xff, 0x04, 0x00, 0x00, 0x00,
  0x00, 0x1c, 0x00, 0x00, 0x4d, 0x9b, 0xf6, 0xbd, 0xef, 0x6d, 0x24, 0x3b,
  0xe1, 0xd7, 0xae, 0xbd, 0xe7, 0x55, 0x24, 0x3c, 0x9b, 0x84, 0xd7, 0x3c,
  0x85, 0x16, 0x68, 0xbd, 0x31, 0x20, 0xa6, 0x3d, 0x64, 0x71, 0x68, 0xbd,
  0x77, 0x1a, 0x12, 0xbf, 0x51, 0x78, 0xfb, 0xbe, 0x26, 0x50, 0xb0, 0xbe,
  0x18, 0x94, 0xe0, 0xbd, 0x8a, 0x08, 0x16, 0xbe, 0x1f, 0xc5, 0xc3, 0x3d,
  0xad, 0x56, 0x62, 0x3d, 0xeb, 0x26, 0x11, 0xbe, 0xaf, 0x1a, 0xda, 0xbd,
  0x8a, 0xfa, 0x39, 0xbe, 0x03, 0x10, 0xa5, 0x3e, 0x93, 0x9a, 0x16, 0xbd,
  0x3d, 0xf4, 0x85, 0x3e, 0xc4, 0xfe, 0x62, 0xbd, 0x28, 0x3e, 0x92, 0xba,
  0x6e, 0x34, 0x45, 0xbe, 0x87, 0x71, 0x02, 0xbe, 0x2b, 0x35, 0xd7, 0xbe,
  0xca, 0x2d, 0x9a, 0xbe, 0xef, 0x08, 0x3b, 0xbf, 0x89, 0xe5, 0xd2, 0x3d,
  0x86, 0x28, 0xa7, 0x3d, 0x9f, 0x70, 0xbc, 0x3d, 0xd1, 0xcb, 0xca, 0xbe,
  0x2c, 0x60, 0x10, 0xbe, 0xed, 0x4b, 0xc6, 0xbd, 0xa9, 0x1f, 0x51, 0x3e,
  0xd4, 0xfc, 0xa4, 0xbd, 0x01, 0x61, 0x50, 0x3f, 0x48, 0x0a, 0x0e, 0x3d,
  0x51, 0x4c, 0xae, 0x3d, 0x95, 0xf1, 0x44, 0x3e, 0x26, 0x29, 0xe3, 0xbd,
  0xd1, 0x1e, 0x1d, 0xbe, 0x39, 0x47, 0x8a, 0xbd, 0xe5, 0x7a, 0x85, 0xbe,
  0x3a, 0x9c, 0x13, 0x3e, 0xee, 0x5d, 0x55, 0x3d, 0xc9, 0x77, 0xa6, 0x3d,
  0x09, 0x16, 0xc0, 0xbe, 0x99, 0x0a, 0xf0, 0xbc, 0xf7, 0x27, 0xc1, 0xbd,
  0x8d, 0x14, 0x32, 0x3e, 0xba, 0x05, 0x68, 0xbe, 0x06, 0xb5, 0xd6, 0x3e,
  0xd9, 0xbd, 0xce, 0xbb, 0x78, 0xd7, 0x02, 0x3e, 0xcc, 0xb6, 0x02, 0x3e,
  0x2c, 0x1b, 0x19, 0x3d, 0x3e, 0x6b, 0xa2, 0xbd, 0x52, 0xe9, 0x0b, 0xbe,
  0xd2, 0x16, 0x12, 0x3e, 0x41, 0xad, 0x37, 0x3d, 0x37, 0x34, 0xd2, 0x3d,
  0x7f, 0x31, 0xbe, 0x3d, 0xf6, 0x8c, 0x90, 0xbe, 0xe6, 0x34, 0xf9, 0xbc,
  0xc5, 0x87, 0x44, 0xbe, 0x67, 0xd8, 0x3e, 0x3e, 0x5f, 0x44, 0xa7, 0x3d,
  0xae, 0xb7, 0xa5, 0x3e, 0x42, 0x70, 0xe1, 0x3c, 0x39, 0xd6, 0x65, 0x3d,
  0x29, 0x68, 0x10, 0xbe, 0x24, 0x86, 0x32, 0xbd, 0x80, 0xf5, 0x85, 0xbe,
  0xe4, 0xb6, 0xd6, 0xbd, 0x78, 0xf9, 0x42, 0xbe, 0x26, 0x4e, 0xb9, 0x3c,
  0x95, 0xae, 0x01, 0x3d, 0x16, 0x1c, 0x8d, 0x3d, 0x3e, 0xe1, 0xbd, 0xbd,
  0x14, 0xfe, 0x64, 0xbe, 0xa2, 0x9b, 0x5c, 0xbe, 0x3f, 0xd7, 0x66, 0x3e,
  0x46, 0xe0, 0xa5, 0x3d, 0xa7, 0xa9, 0x15, 0x3e, 0x6b, 0x7c, 0x93, 0x39,
  0xd5, 0x08, 0x36, 0xbd, 0x7b, 0x2a, 0x64, 0xbe, 0x20, 0xa8, 0x5b, 0xbe,
  0x2d, 0xf6, 0xb6, 0xbe, 0xa8, 0xb2, 0xae, 0x3c, 0xd1, 0x56, 0x07, 0xbf,
  0xd1, 0xde, 0x38, 0xbe, 0x13, 0x25, 0xfe, 0xbd, 0x3f, 0x9c, 0x28, 0x3d,
  0xbc, 0xab, 0xa9, 0xbe, 0x82, 0x5b, 0xb6, 0x3d, 0x2a, 0xe8, 0x5e, 0xbd,
  0x16, 0xa2, 0x79, 0xbd, 0x8e, 0x5d, 0x34, 0x3e, 0x09, 0x04, 0x15, 0xbe,
  0xa4, 0x4c, 0xc1, 0x3c, 0x64, 0xeb, 0x05, 0xbd, 0x36, 0xba, 0x8f, 0xbe,
  0x52, 0xcb, 0x2b, 0xbd, 0x76, 0x21, 0xb6, 0x3c, 0x39, 0x62, 0x0c, 0xbe,
  0x59, 0x37, 0x07, 0xbf, 0xfa, 0x0f, 0x8d, 0x3d, 0x55, 0x16, 0x85, 0xbe,
  0xb8, 0x52, 0x1c, 0x3d, 0xe3, 0x78, 0xd0, 0xbd, 0x34, 0x63, 0x12, 0xbe,
  0xc9, 0x92, 0x60, 0xbe, 0x6c, 0x5d, 0xaf, 0xbe, 0xe0, 0x58, 0x8f, 0xbe,
  0x73, 0xc7, 0x2c, 0xbe, 0x5c, 0xad, 0x88, 0xbe, 0xac, 0x51, 0x23, 0xbd,
  0x0b, 0x29, 0x25, 0xbe, 0xdb, 0x92, 0xc8, 0xbe, 0xd0, 0xc7, 0x47, 0xbe,
  0x00, 0x8a, 0x21, 0xbe, 0x0b, 0xd8, 0xe2, 0xbd, 0x1d, 0xb0, 0x63, 0xbd,
  0xcd, 0xa8, 0xba, 0xbe, 0x01, 0x2b, 0xe7, 0xbd, 0xe9, 0x8f, 0xed, 0xbd,
  0xfb, 0x9b, 0x03, 0xba, 0xbf, 0x22, 0x02, 0xbf, 0xcc, 0x65, 0xa3, 0xbe,
  0x7b, 0x51, 0x3e, 0x3e, 0x69, 0xef, 0xaf, 0xbe, 0x17, 0xf4, 0x1e, 0xbe,
  0xf0, 0xe3, 0x66, 0xbe, 0xc4, 0x12, 0xe7, 0xbd, 0x80, 0x4d, 0xcb, 0xbd,
  0xb7, 0x4c, 0xfb, 0xbd, 0x1c, 0xd5, 0x31, 0xbe, 0xdc, 0xef, 0xca, 0x3e,
  0x57, 0x26, 0x64, 0x3d, 0x54, 0x50, 0x96, 0xbe, 0x95, 0xb6, 0x05, 0xbe,
  0x50, 0x63, 0x65, 0xbd, 0x32, 0x37, 0x31, 0xbe, 0x14, 0x37, 0xbb, 0xbe,
  0xa8, 0x1b, 0xd1, 0xbe, 0x85, 0x2a, 0x92, 0x3e, 0x49, 0x47, 0x1c, 0xbd,
  0xa8, 0x52, 0x37, 0xbe, 0xcd, 0x76, 0xf8, 0xbd, 0x49, 0x81, 0x20, 0x3d,
  0x8b, 0x80, 0xba, 0xbe, 0x79, 0xfe, 0x96, 0xbe, 0x56, 0x05, 0x75, 0xbe,
  0x72, 0xa5, 0x2e, 0x3f, 0x86, 0x1e, 0x69, 0x3c, 0xc4, 0x04, 0x54, 0xbe,
  0x7c, 0x47, 0xa7, 0xbd, 0xf4, 0x09, 0xdb, 0xbc, 0xfc, 0x7b, 0x09, 0xbe,
  0x5b, 0xab, 0x7a, 0xbe, 0x88, 0x67, 0x9a, 0xbe, 0xe6, 0x9c, 0x87, 0x3e,
  0x63, 0xc3, 0x6f, 0xbe, 0x25, 0xfc, 0x32, 0xbe, 0x07, 0xaa, 0xeb, 0x3c,
  0xbc, 0x65, 0x0e, 0x3c, 0x43, 0x3b, 0x51, 0xbe, 0x12, 0xc7, 0x67, 0xbe,
  0x36, 0x89, 0x96, 0xbe, 0xf1, 0x43, 0x42, 0x3f, 0xae, 0xe8, 0x6e, 0xbe,
  0xf4, 0x33, 0x8e, 0xbe, 0xad, 0x58, 0x66, 0xbe, 0x3d, 0xa7, 0x45, 0xbe,
  0x81, 0x57, 0x66, 0xbe, 0x8e, 0xf9, 0x66, 0xbe, 0xeb, 0xd6, 0x69, 0xbe,
  0x47, 0x66, 0x29, 0xbe, 0xc4, 0x64, 0x23, 0xbe, 0x79, 0x04, 0x11, 0xbe,
  0x25, 0xdb, 0x21, 0x3d, 0xba, 0xbb, 0xd0, 0x3d, 0x9c, 0xad, 0x89, 0xbe,
  0x20, 0x41, 0x0a, 0xbe, 0x6a, 0x9f, 0x07, 0xbe, 0x10, 0xbc, 0xd6, 0x3e,
  0xde, 0xc1, 0x94, 0x3d, 0x8b, 0xa9, 0xff, 0xbd, 0xb8, 0x3d, 0x04, 0xbc,
  0xef, 0x15, 0x7d, 0xbe, 0xcf, 0x7f, 0x25, 0x3e, 0xf9, 0xd9, 0x0d, 0x3b,
  0x90, 0xb1, 0x91, 0xbd, 0x17, 0x58, 0x28, 0x3e, 0x3e, 0x14, 0x15, 0xbd,
  0xe7, 0xee, 0x2f, 0xbe, 0x53, 0x03, 0xfc, 0xbd, 0x45, 0x68, 0x87, 0x3e,
  0x2d, 0x5b, 0x90, 0xbd, 0x87, 0xbd, 0x6e, 0xbe, 0x41, 0xe5, 0x84, 0xbe,
  0x58, 0xd9, 0xe1, 0x3e, 0x1f, 0x33, 0x5f, 0x3e, 0x46, 0x53, 0xa0, 0xbc,
  0x74, 0xd7, 0xbd, 0xbd, 0x02, 0xff, 0xd4, 0xbd, 0xc6, 0x20, 0x6b, 0xbd,
  0x7c, 0x2b, 0x4c, 0x3b, 0xb0, 0xd3, 0x62, 0xbb, 0x17, 0x7b, 0xd2, 0x3d,
  0x9d, 0x52, 0x80, 0x3e, 0x68, 0xc9, 0x70, 0xbe, 0xe7, 0x5c, 0x44, 0xbe,
  0x48, 0x2a, 0xa7, 0x3e, 0x42, 0x23, 0xe1, 0x3b, 0xde, 0x81, 0xa8, 0xbd,
  0x9c, 0x43, 0xd9, 0xbc, 0x80, 0xc5, 0x94, 0x3d, 0x7c, 0xd6, 0x1b, 0x3d,
  0x48, 0xe2, 0x91, 0x3d, 0x65, 0xce, 0x3b, 0xbd, 0x63, 0xe0, 0x05, 0xbe,
  0xd8, 0x11, 0x8b, 0xbe, 0x4b, 0x42, 0xb6, 0xbd, 0x05, 0x79, 0x56, 0xbe,
  0xf6, 0xd1, 0xc4, 0xbe, 0x6d, 0x88, 0xea, 0xbd, 0xe7, 0xa8, 0x18, 0xbe,
  0x89, 0xa2, 0x2a, 0xbe, 0xf2, 0xcb, 0x0c, 0xbe, 0xda, 0xb0, 0x29, 0x3e,
  0x2a, 0x0f, 0x49, 0x3e, 0xfc, 0x3b, 0x36, 0xbe, 0x19, 0xeb, 0x37, 0x3e,
  0xf3, 0x70, 0x0b, 0xbe, 0x78, 0xf8, 0x6b, 0x3c, 0x44, 0x5b, 0xe6, 0x3d,
  0x5e, 0x65, 0x02, 0xbf, 0xc3, 0x7e, 0xaa, 0xbd, 0x8b, 0xd5, 0x60, 0xbc,
  0x7a, 0x11, 0x65, 0x3e, 0x6d, 0x70, 0x9d, 0xbe, 0x0f, 0x6a, 0x33, 0xbe,
  0x00, 0xb0, 0x7b, 0xbe, 0x68, 0x1e, 0x36, 0x3e, 0x4d, 0xc7, 0x33, 0x3e,
  0x56, 0xdf, 0xe9, 0x3d, 0x22, 0x82, 0x06, 0x3e, 0xac, 0x93, 0x8b, 0xbe,
  0x5e, 0xed, 0x58, 0x3e, 0x51, 0x10, 0xd6, 0xbe, 0x35, 0xa0, 0x05, 0xbe,
  0x3f, 0x51, 0x13, 0xbd, 0x67, 0x17, 0x3b, 0xbe, 0x55, 0xb0, 0x90, 0x3e,
  0xf5, 0x29, 0x75, 0x3c, 0x45, 0xbc, 0x3b, 0x3c, 0xb1, 0xad, 0xc0, 0xbe,
  0x51, 0x00, 0xa0, 0xbe, 0x9c, 0xf5, 0xce, 0xbe, 0xea, 0x32, 0xa9, 0xbe,
  0xeb, 0x6d, 0x6f, 0x3e, 0x91, 0xb8, 0xac, 0xbd, 0x9b, 0xe7, 0x47, 0x3e,
  0x5b, 0x95, 0x7d, 0xbe, 0xaa, 0xd4, 0x0b, 0x3f, 0x9b, 0xfa, 0x98, 0xbe,
  0x33, 0x6b, 0x33, 0xbc, 0xa5, 0x81, 0x02, 0xbe, 0x89, 0xdd, 0xc7, 0xbe,
  0xe2, 0xc9, 0x35, 0x3b, 0x0f, 0xc0, 0x55, 0xbe, 0x3f, 0x51, 0x18, 0x3c,
  0xf7, 0xaf, 0xb1, 0xbd, 0xcb, 0xfd, 0xde, 0xbe, 0x54, 0x57, 0x2c, 0xbe,
  0x5e, 0x70, 0x28, 0xbe, 0x3e, 0xbf, 0xd3, 0x3e, 0x44, 0xbc, 0x53, 0x3e,
  0xe4, 0xb7, 0xa9, 0x3d, 0x03, 0xde, 0x18, 0xbd, 0x5d, 0xe7, 0xa8, 0xbd,
  0x87, 0x50, 0xc2, 0xbe, 0x69, 0x30, 0x61, 0x3e, 0xda, 0x8f, 0x7c, 0xbd,
  0x09, 0x72, 0x95, 0xbe, 0xef, 0x3d, 0x70, 0xbe, 0xec, 0xf6, 0xdf, 0xbd,
  0x83, 0x73, 0x02, 0xbe, 0x08, 0xba, 0xf6, 0x3d, 0xe0, 0x5d, 0xb4, 0xbe,
  0x84, 0x1e, 0x05, 0x3e, 0xaa, 0x53, 0x85, 0x3e, 0xe3, 0x7e, 0x5d, 0x3d,
  0xbf, 0x01, 0x97, 0x3e, 0xf1, 0x84, 0x35, 0x3e, 0x14, 0x84, 0xdf, 0x3d,
  0xbc, 0x71, 0xb6, 0x3d, 0xe2, 0xf6, 0xb8, 0xbe, 0xf4, 0x0b, 0xc0, 0x3d,
  0x3d, 0xa0, 0x49, 0xbb, 0x18, 0x2f, 0x75, 0xbe, 0x55, 0xe6, 0x8a, 0xbe,
  0x0d, 0x8f, 0x44, 0xbc, 0xe2, 0x64, 0xf6, 0xbd, 0x6d, 0x98, 0xb6, 0x3e,
  0xd9, 0xfe, 0x95, 0xbe, 0x2c, 0x9e, 0xce, 0x3d, 0x2b, 0xa5, 0x6b, 0xbd,
  0x7e, 0x6d, 0xc6, 0xbd, 0x4b, 0xbd, 0x8b, 0x3e, 0x64, 0x69, 0x34, 0x3e,
  0x14, 0x24, 0x22, 0xbd, 0x60, 0x03, 0x8f, 0x3e, 0x36, 0x91, 0x73, 0xbe,
  0xf9, 0xce, 0xa1, 0x3c, 0x32, 0x71, 0xdb, 0xbc, 0xa9, 0xec, 0x40, 0xbe,
  0x59, 0x67, 0x86, 0xbc, 0x0f, 0x45, 0x72, 0x3d, 0x21, 0x43, 0x3e, 0xbc,
  0x10, 0x9c, 0x81, 0x3e, 0x1a, 0xe6, 0x80, 0xbd, 0x84, 0x1e, 0x83, 0x3d,
  0xfb, 0x1b, 0xbe, 0xbd, 0xac, 0xba, 0xf6, 0x3d, 0x31, 0xd9, 0x11, 0x3c,
  0x8e, 0xc0, 0xab, 0xbd, 0x6d, 0x9b, 0x4f, 0x3c, 0x7d, 0x31, 0xb4, 0x3e,
  0xc0, 0x4d, 0x0e, 0xbe, 0x76, 0x35, 0x66, 0xbc, 0x9e, 0x2c, 0x5f, 0xbd,
  0xe3, 0xb0, 0x63, 0xbe, 0x55, 0x61, 0x07, 0x3d, 0x36, 0x23, 0x12, 0x3e,
  0xd5, 0x97, 0x49, 0xbd, 0x6a, 0x0b, 0x0b, 0xbf, 0xd2, 0x33, 0xb6, 0x3d,
  0x25, 0xec, 0x68, 0xbe, 0x12, 0x9a, 0x03, 0x3d, 0xb8, 0x0b, 0x7b, 0x3e,
  0x75, 0x95, 0x05, 0x3e, 0xbc, 0x5d, 0xf4, 0x3c, 0x69, 0x44, 0x93, 0xbd,
  0x27, 0x5b, 0x28, 0xbd, 0x11, 0x0a, 0x7f, 0x3b, 0xd1, 0xa1, 0xe0, 0x3c,
  0x94, 0xe4, 0x26, 0xbd, 0xca, 0x86, 0x89, 0xbd, 0x2d, 0x00, 0xbb, 0x3d,
  0x65, 0x37, 0x9e, 0xbd, 0xe2, 0xe8, 0x73, 0xbd, 0xad, 0xcc, 0xfd, 0xbe,
  0xae, 0xa0, 0x0f, 0xbe, 0x3d, 0x1a, 0xe5, 0xbd, 0x55, 0x96, 0x09, 0x3e,
  0xf2, 0xf1, 0xad, 0x3e, 0x6f, 0x60, 0x25, 0x3e, 0x3c, 0xfa, 0xb6, 0x3d,
  0xeb, 0xf9, 0x84, 0xbd, 0x36, 0xb7, 0xcd, 0x3d, 0xef, 0x96, 0x6a, 0xbe,
  0x59, 0x83, 0xb1, 0x3d, 0x8d, 0x7d, 0xbf, 0x39, 0x21, 0x9f, 0xaf, 0xbd,
  0x86, 0x59, 0xea, 0xbb, 0x64, 0xd8, 0x04, 0xbd, 0xec, 0x86, 0x65, 0xbd,
  0x15, 0x04, 0x05, 0xbf, 0xf1, 0x6d, 0xd6, 0xbe, 0x52, 0x82, 0xae, 0xbd,
  0xce, 0x11, 0x8a, 0xbd, 0xf1, 0x53, 0xad, 0x3d, 0xeb, 0xd1, 0xf0, 0x3d,
  0x82, 0x5d, 0xad, 0x3d, 0xf4, 0xe8, 0x4e, 0xbe, 0x12, 0x42, 0x4d, 0x3d,
  0x36, 0xb4, 0xfe, 0xbe, 0x1d, 0x78, 0x82, 0xbd, 0x2a, 0xa3, 0x35, 0xbc,
  0xe3, 0x64, 0x4a, 0xbe, 0x30, 0xba, 0x90, 0x3d, 0x0f, 0x90, 0x01, 0xbe,
  0x14, 0xac, 0xb9, 0xbd, 0xf7, 0x35, 0x30, 0xbf, 0xd3, 0x5f, 0x0c, 0xbf,
  0xbf, 0x4e, 0x17, 0xbe, 0x51, 0xa7, 0x37, 0xbe, 0xe2, 0xe6, 0xa2, 0x3e,
  0x2a, 0x87, 0x6e, 0x3d, 0x2a, 0x69, 0x82, 0x3d, 0xb9, 0xed, 0x2e, 0xbe,
  0x5d, 0x96, 0x52, 0xbd, 0x6f, 0xc9, 0xce, 0xbe, 0xed, 0x0d, 0x82, 0xbd,
  0x78, 0xde, 0x28, 0xbd, 0xef, 0x03, 0x37, 0xbe, 0x5b, 0x74, 0xfb, 0x3d,
  0x2d, 0x46, 0x79, 0xbd, 0xe8, 0x9d, 0xe2, 0x3c, 0x96, 0xea, 0x7b, 0xbe,
  0x8f, 0x57, 0x78, 0xbe, 0x33, 0xe5, 0x90, 0xbd, 0x4a, 0x7a, 0x51, 0xbd,
  0x0e, 0x76, 0x89, 0x3e, 0x20, 0x99, 0x16, 0x3e, 0x11, 0xc3, 0x14, 0x3e,
  0x5c, 0xef, 0xcd, 0x3c, 0x78, 0x70, 0x9b, 0x3d, 0x7e, 0x80, 0xd6, 0xbd,
  0x26, 0x09, 0x28, 0xbd, 0x9b, 0xf8, 0x9d, 0xbc, 0xe3, 0xc8, 0x54, 0xbe,
  0xd0, 0xae, 0x1b, 0x3e, 0x0c, 0x1c, 0x5e, 0xbd, 0x41, 0x11, 0x60, 0x3d,
  0x43, 0x9a, 0x42, 0x3b, 0x11, 0x04, 0x1a, 0xbd, 0xcc, 0xa8, 0xf2, 0xbd,
  0x95, 0x98, 0x00, 0xbe, 0xd2, 0x16, 0x9f, 0x3e, 0xc1, 0xbb, 0xb2, 0x3d,
  0xe2, 0x84, 0x2d, 0xbb, 0x39, 0xb0, 0x25, 0xbe, 0x0d, 0x2c, 0xec, 0x3d,
  0x6a, 0x85, 0xc2, 0x3c, 0x39, 0x24, 0x44, 0x3d, 0xc4, 0x7f, 0x92, 0x3c,
  0x39, 0xf8, 0x42, 0xbe, 0x2b, 0x36, 0x7c, 0xbc, 0x04, 0xbb, 0xf2, 0x3c,
  0x64, 0xd5, 0xf3, 0x3d, 0x74, 0xab, 0x6f, 0x3e, 0x57, 0xd5, 0xa7, 0xbb,
  0x22, 0xda, 0x10, 0x3d, 0xd8, 0x86, 0x70, 0xbd, 0xe1, 0x98, 0x62, 0x3e,
  0xad, 0x32, 0x31, 0xbc, 0xea, 0x80, 0xaf, 0x3d, 0x8a, 0x3a, 0x32, 0xbe,
  0x14, 0x00, 0x72, 0x3c, 0xbf, 0x33, 0x2e, 0x3d, 0xfb, 0x4f, 0x17, 0x3c,
  0x49, 0x64, 0x4f, 0x3b, 0xd7, 0x7f, 0x52, 0xbe, 0xe7, 0x35, 0xaf, 0xbe,
  0x55, 0xbc, 0x60, 0x3d, 0xc1, 0xf6, 0x89, 0xbe, 0xd5, 0x77, 0x9b, 0xbe,
  0xad, 0x3f, 0x76, 0xbe, 0x18, 0x6b, 0x1d, 0xbe, 0x30, 0x73, 0x15, 0xbe,
  0xbd, 0xab, 0x42, 0xbe, 0x8b, 0x3a, 0x17, 0x3e, 0xde, 0x53, 0x85, 0x3e,
  0x4c, 0x61, 0x0c, 0xbe, 0x3e, 0xe1, 0x7e, 0x3d, 0x7c, 0xb5, 0x12, 0xbe,
  0xcc, 0xad, 0x32, 0xbd, 0xca, 0x9e, 0x1e, 0xbc, 0x9f, 0xaa, 0xce, 0xbe,
  0xeb, 0xfa, 0x92, 0xbd, 0x76, 0x3e, 0xf2, 0x3d, 0x04, 0x61, 0xb4, 0x3d,
  0xed, 0x29, 0x03, 0xbf, 0xa4, 0xcc, 0x27, 0xbe, 0x90, 0xb8, 0xbe, 0xbd,
  0xcd, 0xdc, 0x4d, 0x3e, 0x4c, 0xad, 0x7d, 0x3e, 0xdf, 0x38, 0x69, 0x3e,
  0x87, 0xc0, 0x1e, 0x3e, 0xfd, 0x98, 0x8b, 0xbe, 0x40, 0x5c, 0xa1, 0x3e,
  0x1e, 0x80, 0xbf, 0xbd, 0xee, 0x01, 0x81, 0xbd, 0x04, 0xea, 0x9d, 0xbc,
  0xaf, 0xca, 0xac, 0xbe, 0x98, 0x46, 0xad, 0x3d, 0xfd, 0x12, 0x33, 0x3e,
  0xa2, 0x79, 0x47, 0xbe, 0x16, 0x20, 0x2b, 0xbf, 0x20, 0xaa, 0x5c, 0xbd,
  0x48, 0xfe, 0x3b, 0xbe, 0xd9, 0x3b, 0xc0, 0xbe, 0x5a, 0x9b, 0x6e, 0x3e,
  0x9e, 0xd0, 0xd2, 0x3d, 0x9c, 0x28, 0x8e, 0x3e, 0xa3, 0xb4, 0x63, 0xbe,
  0x5f, 0x91, 0xd3, 0x3e, 0xce, 0x67, 0xcb, 0xbc, 0x7b, 0xe5, 0x84, 0xbd,
  0x1c, 0x84, 0x46, 0xbd, 0x44, 0x25, 0x2a, 0xbf, 0x3e, 0xc4, 0xbb, 0x3d,
  0x44, 0xe8, 0x20, 0x3d, 0x64, 0x7c, 0x92, 0xbd, 0x4c, 0xc5, 0x81, 0x3c,
  0x4b, 0xb1, 0x59, 0xbe, 0x97, 0x95, 0xb5, 0xbd, 0x36, 0x29, 0xff, 0xbe,
  0x2c, 0xef, 0xb9, 0x3e, 0xc3, 0x88, 0x9d, 0x3e, 0xad, 0xcc, 0x25, 0x3e,
  0x47, 0x0d, 0x12, 0xbe, 0x39, 0x30, 0xbf, 0x3e, 0x73, 0x2f, 0x83, 0xbc,
  0x01, 0xd3, 0x1d, 0xbd, 0x27, 0xa3, 0x6e, 0xbc, 0xb7, 0xf1, 0x00, 0xbf,
  0xba, 0x09, 0xdb, 0x3d, 0x8b, 0x66, 0xfc, 0x3c, 0xbb, 0xf7, 0x95, 0xbe,
  0x1d, 0xcf, 0xf2, 0x3d, 0xdb, 0xb2, 0x4b, 0xbe, 0x3c, 0x48, 0xe0, 0xbd,
  0x4c, 0xeb, 0xa8, 0x3d, 0x33, 0x3f, 0xa7, 0xbd, 0x87, 0x99, 0xa7, 0x3e,
  0x6c, 0x84, 0x53, 0x3e, 0x37, 0x5b, 0xa1, 0xbd, 0xd1, 0xa4, 0x97, 0x3e,
  0x11, 0x0f, 0xfb, 0xbe, 0x77, 0x9d, 0x67, 0xbd, 0x60, 0xa8, 0xa7, 0xbc,
  0x6a, 0xfb, 0xd4, 0xbe, 0x70, 0xcb, 0xf2, 0xbe, 0x53, 0x08, 0x3f, 0x3d,
  0xcc, 0x47, 0xa0, 0xbe, 0x42, 0xab, 0x93, 0x3e, 0x4d, 0xa4, 0x9a, 0xbd,
  0xa6, 0x68, 0x27, 0x3d, 0xea, 0x9a, 0x8e, 0xbe, 0x7c, 0xae, 0x47, 0xbe,
  0xc4, 0x94, 0x67, 0x3e, 0xa3, 0x48, 0x81, 0x3e, 0x11, 0xd1, 0xfc, 0x3d,
  0x38, 0x44, 0xd7, 0x3e, 0x57, 0xe4, 0xf0, 0xbe, 0xdd, 0x30, 0x0f, 0x3e,
  0x4e, 0xf8, 0xd6, 0xbc, 0x43, 0xd1, 0xab, 0xbe, 0x62, 0x73, 0x38, 0xbe,
  0x6c, 0x68, 0x12, 0xbe, 0x9f, 0x43, 0x23, 0x3b, 0x28, 0x91, 0xd7, 0x3d,
  0xc4, 0xca, 0xbf, 0xbd, 0xca, 0x37, 0x94, 0xbd, 0x01, 0x0a, 0x10, 0xbd,
  0x36, 0x10, 0x61, 0xbd, 0xde, 0x71, 0x02, 0x3d, 0x1e, 0x30, 0x9a, 0x3d,
  0x2c, 0xa0, 0x94, 0xbd, 0x85, 0x21, 0x74, 0x3e, 0xa7, 0x16, 0xc3, 0xbd,
  0x57, 0x5e, 0x9f, 0x3d, 0x50, 0x1d, 0xc2, 0x3b, 0x58, 0xd9, 0x98, 0xbd,
  0xa8, 0x26, 0xed, 0xbd, 0xcd, 0x3c, 0x5f, 0xbe, 0x72, 0x6c, 0x89, 0xbe,
  0x5b, 0xad, 0x49, 0x3b, 0xe1, 0x26, 0x6b, 0xbd, 0xab, 0xa5, 0xcb, 0xbd,
  0xe0, 0xab, 0x0a, 0xbe, 0x43, 0x6f, 0x9c, 0x3d, 0xc4, 0xc5, 0x49, 0xbd,
  0xc0, 0x35, 0xa7, 0x3d, 0x5c, 0x08, 0x0c, 0xbd, 0x93, 0x9b, 0x53, 0xbd,
  0xe5, 0xd0, 0xfd, 0xbd, 0xf6, 0x4f, 0xb8, 0xbd, 0xc5, 0xc5, 0xc7, 0xbe,
  0x8a, 0xce, 0x77, 0xbd, 0x92, 0xa6, 0x3b, 0x3e, 0x04, 0x03, 0xd3, 0xbe,
  0xb2, 0x93, 0x0d, 0x3e, 0x94, 0x95, 0x07, 0xbd, 0xa7, 0xdb, 0x19, 0xbd,
  0xbd, 0x56, 0x3d, 0xbd, 0xf6, 0xe9, 0x98, 0xbd, 0xb5, 0x9b, 0x7a, 0xbc,
  0x38, 0x24, 0x96, 0xbc, 0xff, 0x59, 0x7d, 0xbe, 0x72, 0x5c, 0x2a, 0x3d,
  0x17, 0x9a, 0x01, 0xbe, 0xff, 0xf0, 0xb0, 0x3d, 0x51, 0xe8, 0x16, 0x3d,
  0x3e, 0x6b, 0xd6, 0xbd, 0x24, 0x8c, 0xd4, 0xbd, 0xb6, 0x96, 0xa7, 0x3d,
  0x75, 0x4f, 0x24, 0xbe, 0x23, 0xa4, 0xd1, 0x3e, 0x1f, 0x34, 0x78, 0xbe,
  0x7e, 0xce, 0x7b, 0xbe, 0x8b, 0xdd, 0x61, 0xbe, 0x86, 0x44, 0x03, 0x3e,
  0x38, 0xa4, 0xe1, 0x3d, 0x44, 0x84, 0xa3, 0xbd, 0x9a, 0xcc, 0x6e, 0xbe,
  0x0f, 0x24, 0xd0, 0xbd, 0x32, 0x0d, 0xf4, 0xbd, 0xba, 0x46, 0xa8, 0xbd,
  0x16, 0x8c, 0x41, 0xbe, 0xb7, 0x4b, 0x69, 0x3c, 0xa6, 0xf4, 0x2c, 0x39,
  0x63, 0x5c, 0xfe, 0xbd, 0x11, 0x34, 0xdc, 0xbe, 0xc4, 0x94, 0xae, 0x3e,
  0xf7, 0x94, 0xb5, 0x3c, 0xdb, 0xe6, 0xb3, 0xbe, 0x4f, 0x2e, 0x75, 0xbd,
  0x61, 0x67, 0x90, 0x3d, 0x13, 0x7c, 0x4d, 0x3c, 0x70, 0x03, 0xa4, 0xbe,
  0xc5, 0xe2, 0x09, 0x3e, 0x17, 0x47, 0xe8, 0xbd, 0x24, 0x5a, 0x01, 0xbd,
  0xdb, 0x58, 0x80, 0xbe, 0x89, 0xf6, 0x29, 0xbe, 0x98, 0xc1, 0x5b, 0x3c,
  0x75, 0xee, 0x71, 0xbd, 0xa8, 0x7f, 0x81, 0x3c, 0xa6, 0xb4, 0xa1, 0xbe,
  0x72, 0x6d, 0x8f, 0x3e, 0xe7, 0xc3, 0x60, 0x3d, 0xdf, 0x35, 0x1a, 0xbd,
  0x95, 0xa0, 0xdc, 0xbc, 0xf2, 0x55, 0xad, 0xbd, 0xe2, 0xf5, 0x66, 0xbc,
  0xf7, 0x1b, 0x9c, 0xbe, 0xad, 0xaa, 0x33, 0xbd, 0x17, 0xfa, 0x16, 0xbe,
  0x85, 0x78, 0xe7, 0x3c, 0x75, 0xd1, 0x5e, 0xbd, 0x3c, 0xf5, 0x98, 0xbd,
  0x1f, 0x19, 0x21, 0x3c, 0x91, 0x57, 0x07, 0xbe, 0x76, 0xdf, 0x30, 0x3a,
  0x29, 0x9b, 0xe7, 0xbe, 0x31, 0x2a, 0x1b, 0x3e, 0xb8, 0x74, 0x5a, 0xbd,
  0x63, 0x19, 0x78, 0xbe, 0xce, 0x64, 0xc4, 0x3d, 0x79, 0x13, 0x4a, 0xbe,
  0xa0, 0xdb, 0x74, 0x3d, 0x77, 0x6e, 0x2f, 0xbe, 0x90, 0x41, 0x04, 0xbd,
  0xc8, 0xf2, 0x46, 0xbe, 0x95, 0x5a, 0x73, 0x3d, 0xd6, 0xeb, 0x01, 0xbe,
  0x44, 0x22, 0x08, 0xbd, 0x80, 0x23, 0x7b, 0xbd, 0xc3, 0xa8, 0x0d, 0xbd,
  0xa9, 0xcf, 0x9c, 0xbc, 0x01, 0x8c, 0x36, 0xbe, 0x4d, 0xae, 0x6b, 0xbc,
  0x1e, 0x14, 0x04, 0xbd, 0x8f, 0x35, 0xdc, 0xbd, 0x60, 0x05, 0x63, 0x3e,
  0x0a, 0xb5, 0x45, 0xbc, 0xa9, 0x3a, 0x3d, 0xbe, 0x13, 0xb6, 0x81, 0xbe,
  0xc5, 0x47, 0xf0, 0xbd, 0x4d, 0xb6, 0xa7, 0xbe, 0x56, 0x3f, 0x41, 0x3c,
  0x80, 0xac, 0x6e, 0xbc, 0xcc, 0x02, 0xa0, 0xbd, 0x58, 0xab, 0x4a, 0xbe,
  0xf2, 0x84, 0x5a, 0x3e, 0xd4, 0x43, 0x48, 0x3d, 0xf5, 0x49, 0x68, 0xbc,
  0xec, 0xc5, 0x06, 0xbb, 0x07, 0x83, 0x26, 0xbe, 0xf9, 0x67, 0x10, 0xbc,
  0x6b, 0xc0, 0xce, 0xbe, 0x5c, 0x6b, 0x80, 0x3d, 0xac, 0xc7, 0x7c, 0xbd,
  0xab, 0x27, 0x5d, 0xbe, 0x2a, 0x5e, 0xad, 0xbb, 0xff, 0x36, 0x23, 0x3e,
  0x56, 0xd4, 0x30, 0x3e, 0x53, 0xdd, 0x61, 0xbe, 0x02, 0xf0, 0xc4, 0xbe,
  0xf4, 0x64, 0x09, 0x3d, 0xc1, 0xa8, 0x22, 0x3e, 0xe4, 0x2a, 0x72, 0x3e,
  0x07, 0xc0, 0x1c, 0xbe, 0x21, 0xc9, 0x2f, 0xbe, 0x50, 0xeb, 0x1d, 0xbd,
  0xa2, 0x06, 0x2b, 0x3b, 0x19, 0x77, 0x40, 0xbe, 0xb7, 0x3b, 0x65, 0xbe,
  0xb9, 0xbc, 0x83, 0x3d, 0x84, 0xdf, 0xff, 0xbc, 0xb2, 0xa8, 0x99, 0xbc,
  0x1b, 0xcd, 0x26, 0x3e, 0xfd, 0x21, 0xd4, 0x39, 0x8e, 0xbc, 0xc0, 0xbe,
  0xbf, 0x50, 0x36, 0xbe, 0x9a, 0x06, 0x99, 0xbe, 0xc6, 0x96, 0xa5, 0x3d,
  0x13, 0x81, 0x71, 0x3d, 0x8a, 0x61, 0x73, 0xbc, 0x09, 0xb5, 0xc5, 0xbc,
  0xd7, 0x94, 0x44, 0x3d, 0xc6, 0xff, 0x6e, 0x3d, 0xc3, 0x2a, 0x13, 0x3c,
  0x41, 0x3c, 0x16, 0x3d, 0xdc, 0x77, 0x2e, 0x3d, 0x82, 0xd6, 0x15, 0x3d,
  0x9a, 0xef, 0x15, 0xbe, 0x3f, 0xa2, 0x10, 0xbd, 0x40, 0xea, 0xa4, 0x3d,
  0xdf, 0x00, 0x5e, 0xbc, 0x13, 0x42, 0xb5, 0x3d, 0x85, 0x0f, 0x3e, 0xbe,
  0x42, 0x4a, 0x08, 0x3e, 0x02, 0xb0, 0x38, 0xbe, 0x5f, 0x12, 0x0e, 0xbd,
  0x30, 0x61, 0x0a, 0xbb, 0x20, 0x68, 0x1d, 0xbd, 0xf2, 0x72, 0x0b, 0xbd,
  0xcb, 0x5b, 0x94, 0x3c, 0x53, 0x0e, 0xf8, 0x3b, 0x3c, 0x54, 0xd6, 0xbb,
  0x6f, 0xe0, 0x1a, 0xbc, 0xca, 0xbc, 0x64, 0xbd, 0xdd, 0x28, 0x3f, 0x3b,
  0xdb, 0x91, 0x0d, 0x3e, 0x53, 0x95, 0x04, 0xbe, 0xde, 0xdb, 0x60, 0x3d,
  0x72, 0x30, 0x6f, 0x3d, 0xd5, 0x58, 0x18, 0x3e, 0x8b, 0x47, 0x3c, 0x3e,
  0xce, 0x7d, 0x01, 0xbe, 0x29, 0x44, 0xe2, 0xbd, 0xab, 0x87, 0xd4, 0x3d,
  0xd5, 0x47, 0xb0, 0x3c, 0xc0, 0x42, 0x30, 0x3e, 0x50, 0xea, 0x3c, 0xbe,
  0x72, 0xc0, 0x37, 0xbd, 0x14, 0xc2, 0x22, 0xbd, 0x63, 0xba, 0x3e, 0xbe,
  0x28, 0xd5, 0x87, 0x3d, 0xe7, 0x67, 0x2e, 0x3e, 0xd9, 0x61, 0x0b, 0xbe,
  0x26, 0xb4, 0x98, 0xbc, 0xcd, 0x23, 0x80, 0xbe, 0x34, 0xaa, 0x4f, 0x3c,
  0xbc, 0x68, 0xa2, 0x3d, 0x96, 0x4a, 0x42, 0xbe, 0xe8, 0x77, 0x8e, 0xbc,
  0x33, 0xee, 0x0d, 0xbe, 0xe0, 0x65, 0x83, 0xbd, 0xc5, 0x91, 0xfd, 0x3d,
  0xf5, 0xed, 0x56, 0xbe, 0xe3, 0xe3, 0x62, 0xbe, 0x9e, 0xc8, 0xad, 0xbd,
  0x92, 0x85, 0x49, 0xbe, 0xef, 0x4f, 0x20, 0x3c, 0x9f, 0x9f, 0x93, 0x3e,
  0x01, 0x63, 0xd2, 0xbe, 0x10, 0x91, 0xde, 0xbd, 0x43, 0xa8, 0xb8, 0xbe,
  0x57, 0x0e, 0x75, 0xbe, 0x19, 0x76, 0x4f, 0xbe, 0xac, 0xf7, 0x07, 0x3d,
  0x7f, 0x64, 0xc0, 0xbe, 0x4f, 0x93, 0x12, 0xbd, 0x5c, 0x60, 0x94, 0xbe,
  0x71, 0xf5, 0x0b, 0x3e, 0xde, 0xfc, 0xb7, 0xbe, 0xa4, 0x3c, 0x69, 0x3e,
  0xed, 0x6f, 0x29, 0x3d, 0x53, 0x03, 0xc8, 0x3c, 0x97, 0xe4, 0xff, 0xbe,
  0x6a, 0x65, 0x2b, 0x3d, 0x14, 0xe0, 0xbb, 0xbe, 0xce, 0x71, 0x81, 0x3c,
  0x2e, 0x01, 0xa3, 0xbe, 0x61, 0x56, 0xf9, 0xbe, 0xf2, 0x11, 0x66, 0xbe,
  0xe3, 0x6f, 0x8e, 0xbd, 0x8c, 0x27, 0x4b, 0xbd, 0x6e, 0x0a, 0x80, 0xbd,
  0x1f, 0x79, 0x00, 0xbe, 0xcd, 0xc7, 0xd9, 0x3d, 0x37, 0xe0, 0xa1, 0x3d,
  0xc5, 0xe5, 0x8d, 0xbd, 0x42, 0x00, 0x68, 0xbe, 0x6c, 0x2a, 0x9a, 0xbe,
  0xee, 0x4d, 0xa6, 0xbd, 0x1a, 0x28, 0x2d, 0xbe, 0xe4, 0x51, 0x17, 0x3d,
  0xb7, 0x2b, 0xf8, 0xbd, 0x11, 0xe3, 0x23, 0xbe, 0xb1, 0x48, 0x7a, 0xbb,
  0x5b, 0xd6, 0xc6, 0xbd, 0x49, 0xdc, 0x31, 0xbe, 0x2b, 0x34, 0x29, 0xbe,
  0xaa, 0x3e, 0xc1, 0x3d, 0x7b, 0x45, 0x6d, 0xbd, 0x30, 0x30, 0x84, 0xbe,
  0xbf, 0xb5, 0xb6, 0x3d, 0xcf, 0x63, 0x67, 0xbe, 0xbf, 0x57, 0x3d, 0x3d,
  0xf2, 0x9c, 0x87, 0xbe, 0x4a, 0xf8, 0x6d, 0x3d, 0x7c, 0xfe, 0x16, 0xbe,
  0x86, 0xca, 0x5d, 0x3d, 0x8a, 0xb0, 0x1c, 0x3d, 0xda, 0x1b, 0x41, 0xbe,
  0xc5, 0x79, 0xb0, 0x3d, 0x73, 0x53, 0x48, 0xbe, 0xba, 0xb1, 0x3a, 0xbe,
  0xe8, 0x91, 0x3b, 0xbe, 0x69, 0x7a, 0xb3, 0x3d, 0xf0, 0x66, 0x7a, 0xbe,
  0xfc, 0xc3, 0xba, 0xbb, 0xac, 0xb9, 0xe1, 0xbd, 0xa4, 0x43, 0x8b, 0x3c,
  0xbc, 0x94, 0xa9, 0x3d, 0x06, 0xde, 0xfd, 0x3c, 0x99, 0xc5, 0xcd, 0xbc,
  0x62, 0x76, 0x83, 0xbe, 0x35, 0xcf, 0xba, 0xbd, 0xc0, 0x8c, 0x63, 0xbe,
  0x41, 0x9e, 0x99, 0xbc, 0x66, 0x55, 0x5e, 0xbe, 0x1b, 0x28, 0x9e, 0x3b,
  0x15, 0x9e, 0x2b, 0xbe, 0x42, 0x44, 0xb2, 0xbe, 0xf1, 0xc1, 0x0d, 0x3c,
  0x59, 0xbe, 0x59, 0xbe, 0x03, 0xc3, 0x80, 0xbd, 0x44, 0xd8, 0x5f, 0xbd,
  0x40, 0xf9, 0x43, 0x3d, 0x03, 0x93, 0x47, 0xbe, 0x71, 0x58, 0xf8, 0xbd,
  0x11, 0x43, 0x19, 0xbe, 0x8b, 0xfc, 0x5a, 0xbe, 0xba, 0x2d, 0x58, 0x3d,
  0x34, 0x6d, 0x83, 0xbe, 0x6b, 0x6f, 0x97, 0xbc, 0xe5, 0xaa, 0x76, 0xbe,
  0x5b, 0xb1, 0xe0, 0x3c, 0x1d, 0x3b, 0x87, 0xbe, 0xe6, 0x3f, 0x68, 0xbe,
  0x6c, 0x02, 0x77, 0xbd, 0x22, 0x0b, 0xd5, 0xbd, 0xbf, 0xc7, 0x5d, 0xbe,
  0xd9, 0x35, 0xbe, 0xbd, 0x89, 0x1a, 0x8a, 0xbc, 0x84, 0x8e, 0x47, 0x3d,
  0xb3, 0x60, 0x96, 0xbd, 0x49, 0x37, 0x30, 0x3d, 0xfb, 0x8d, 0x30, 0xbd,
  0xa3, 0x09, 0x55, 0xbe, 0x6b, 0xd6, 0xa0, 0xbe, 0xee, 0xc8, 0x87, 0xbe,
  0x8e, 0x5d, 0xf4, 0x3c, 0xee, 0x29, 0x8a, 0xbe, 0xd3, 0x65, 0x9e, 0xbe,
  0xfe, 0x47, 0x9f, 0xbe, 0xab, 0x7f, 0x82, 0x3d, 0x70, 0x9f, 0x6b, 0xbc,
  0x39, 0x11, 0x61, 0xbe, 0x58, 0xc0, 0x1c, 0x3d, 0x9a, 0x95, 0xd2, 0xbd,
  0x55, 0x7e, 0x12, 0xbc, 0xec, 0x16, 0x4e, 0x3c, 0x87, 0xf7, 0xb1, 0xbb,
  0x50, 0xeb, 0x0d, 0xbd, 0x3b, 0xf7, 0x18, 0xbc, 0xc0, 0xa7, 0x4b, 0x3b,
  0xd5, 0x41, 0xb0, 0xbd, 0xd3, 0x50, 0x05, 0xbe, 0xb9, 0xe6, 0x1c, 0xbe,
  0x16, 0xbe, 0x34, 0xbd, 0x31, 0x6d, 0x37, 0xbe, 0x64, 0xfe, 0x2f, 0xbe,
  0x75, 0xc2, 0x21, 0xbd, 0x45, 0x15, 0x47, 0x3e, 0xf3, 0x57, 0x80, 0xbe,
  0x6b, 0x48, 0xe8, 0xbd, 0x39, 0xc9, 0x9f, 0xbd, 0x0e, 0x8f, 0x5d, 0xbe,
  0x2a, 0xb6, 0xb4, 0xbd, 0x77, 0xa1, 0x90, 0xbd, 0xdc, 0x5c, 0x8d, 0xbe,
  0x10, 0x2b, 0x9f, 0xbe, 0x39, 0x20, 0xe5, 0xbd, 0x80, 0x1e, 0x91, 0xbc,
  0x6a, 0x7b, 0x39, 0xbe, 0x4c, 0xfe, 0x74, 0xbe, 0x54, 0x3d, 0xc2, 0xbd,
  0x65, 0x68, 0x85, 0x3e, 0xdc, 0x6d, 0x52, 0xbe, 0x0b, 0x52, 0x93, 0x3e,
  0x1b, 0x23, 0x6e, 0xbd, 0xc9, 0x89, 0x05, 0xbe, 0xe8, 0x35, 0xc4, 0x3d,
  0x14, 0xba, 0xa1, 0xbd, 0x57, 0xb5, 0x4e, 0xbe, 0x7a, 0xeb, 0x47, 0xbe,
  0x59, 0x15, 0x32, 0xbe, 0x91, 0x67, 0x59, 0xbe, 0x36, 0xa9, 0x4d, 0xbe,
  0xc7, 0x7e, 0x6d, 0xbe, 0x7a, 0xfa, 0x04, 0xbd, 0x33, 0xe1, 0x92, 0xbd,
  0x5f, 0x78, 0x67, 0xbe, 0x60, 0x93, 0xad, 0x3d, 0x7f, 0x6e, 0x15, 0x3e,
  0x9a, 0x51, 0x74, 0xbd, 0x3d, 0xd0, 0xdb, 0xbc, 0x09, 0x43, 0xec, 0xbd,
  0xb6, 0x51, 0x42, 0xbd, 0x94, 0x55, 0x46, 0x3b, 0xe6, 0x31, 0x0f, 0xbe,
  0x10, 0xdc, 0x49, 0x3e, 0x6b, 0x3b, 0xcf, 0xbd, 0x52, 0xb5, 0xb8, 0xbd,
  0x57, 0x9c, 0x7b, 0xbe, 0x5b, 0x02, 0x6e, 0x3d, 0xe4, 0x45, 0x34, 0x3d,
  0xc9, 0x53, 0xbb, 0xbe, 0x6a, 0x44, 0x35, 0xbe, 0x40, 0xcb, 0xbf, 0x3d,
  0xea, 0x37, 0x17, 0xbe, 0xf3, 0x03, 0x4a, 0xbd, 0xdd, 0xc9, 0x80, 0x3d,
  0x50, 0x39, 0xc4, 0x3d, 0x20, 0x2c, 0x5c, 0xbe, 0xe0, 0xac, 0xb3, 0x3d,
  0x24, 0x78, 0xaa, 0xbc, 0x88, 0x2c, 0xf7, 0x3e, 0x76, 0x2e, 0xe5, 0x3d,
  0x16, 0x58, 0x5e, 0xbe, 0xa0, 0x7b, 0x3a, 0x3d, 0x85, 0x3a, 0xa8, 0x3d,
  0xe6, 0xb1, 0x34, 0x3e, 0xe3, 0xbc, 0x31, 0xbe, 0xef, 0x72, 0x76, 0x3c,
  0xb9, 0xe3, 0xff, 0xbd, 0xce, 0x30, 0xab, 0xbd, 0x85, 0x2b, 0x9c, 0xbe,
  0xd9, 0xf8, 0xb5, 0x3e, 0xe0, 0x40, 0x53, 0x3d, 0x27, 0x49, 0x11, 0xbe,
  0xa9, 0xd3, 0x40, 0xbe, 0xdf, 0x5a, 0x2b, 0xbd, 0x8b, 0x31, 0x06, 0x3f,
  0x60, 0x19, 0xc8, 0x3e, 0xfa, 0xfb, 0x63, 0xbe, 0x30, 0xf7, 0x8c, 0x3d,
  0xe0, 0x18, 0x19, 0x3e, 0xd8, 0xbc, 0xc7, 0xbb, 0xd2, 0x8d, 0xd2, 0xbd,
  0xc7, 0x88, 0x9d, 0xbe, 0x38, 0x9e, 0x96, 0xbd, 0x79, 0x27, 0x14, 0xbe,
  0x84, 0xb5, 0x9c, 0xbe, 0x51, 0xc7, 0x7f, 0x3e, 0x1b, 0xef, 0x00, 0x3b,
  0x97, 0x57, 0x86, 0xbd, 0x18, 0x71, 0xd5, 0xbd, 0x42, 0x75, 0x3b, 0xbe,
  0x04, 0x28, 0x28, 0x3f, 0x21, 0xf7, 0x0a, 0x3e, 0x65, 0x38, 0xa2, 0xbe,
  0x75, 0x2e, 0x16, 0xbe, 0x72, 0x04, 0xb8, 0xbd, 0x17, 0x8b, 0xea, 0xbd,
  0xe3, 0x7b, 0x4a, 0xbe, 0x62, 0xbe, 0x2d, 0xbe, 0x4d, 0x0a, 0x91, 0xbc,
  0x4b, 0x71, 0x34, 0xbc, 0x1d, 0xba, 0xeb, 0xbe, 0x36, 0x78, 0x53, 0x3e,
  0x52, 0x3e, 0xb6, 0xbd, 0x2f, 0x7e, 0x0c, 0xbe, 0x0b, 0xd1, 0x23, 0xbe,
  0xd0, 0xd7, 0x3c, 0xbe, 0xd6, 0xad, 0x10, 0x3f, 0x36, 0xfa, 0x60, 0x3e,
  0xff, 0x1a, 0xda, 0xbd, 0x83, 0xb7, 0xea, 0xbc, 0xf2, 0xc5, 0x38, 0x3c,
  0x01, 0x17, 0x1b, 0xbe, 0xe5, 0xd3, 0xa8, 0xbe, 0x69, 0x50, 0x99, 0xbe,
  0x28, 0x35, 0x3f, 0x3d, 0x4f, 0xfc, 0xb4, 0xbd, 0x7d, 0xe4, 0x32, 0xbe,
  0xdc, 0xf2, 0xcd, 0xbd, 0xda, 0xb3, 0xbd, 0x3d, 0xb4, 0x89, 0x88, 0xbe,
  0x4b, 0xa0, 0x3a, 0xbe, 0x6d, 0x47, 0x31, 0x3e, 0x5e, 0x22, 0x99, 0x3e,
  0xb5, 0x00, 0xc1, 0xbd, 0xc3, 0x87, 0x7f, 0xbe, 0x21, 0xbf, 0x8d, 0xbe,
  0x69, 0xd9, 0xab, 0xbd, 0x35, 0xa4, 0x11, 0x3e, 0x92, 0x33, 0x46, 0xbc,
  0x3c, 0x6d, 0x21, 0x3d, 0xcb, 0x93, 0x2a, 0xbd, 0xfe, 0x31, 0x83, 0x3e,
  0x55, 0x81, 0x86, 0xbe, 0x08, 0x74, 0x20, 0x3c, 0xc2, 0xb8, 0xa7, 0xbb,
  0x3a, 0xef, 0x59, 0xbd, 0x93, 0x34, 0xcb, 0x3c, 0x45, 0x3b, 0xf0, 0x3d,
  0x98, 0x74, 0xb9, 0x3c, 0x5b, 0xd3, 0x9a, 0xbe, 0x65, 0x21, 0x61, 0xbe,
  0x28, 0xc8, 0xcb, 0xbb, 0x77, 0xc2, 0x12, 0x3e, 0xa8, 0x93, 0x6b, 0x3e,
  0x0c, 0x3a, 0x57, 0xbb, 0x29, 0xf1, 0x88, 0xbe, 0x0f, 0x10, 0x8a, 0xbd,
  0x2d, 0x5e, 0xe0, 0x3d, 0x93, 0x95, 0x81, 0xbd, 0x2a, 0xd0, 0xb8, 0xbe,
  0x5a, 0x6b, 0x94, 0x3e, 0x72, 0x4b, 0x15, 0xbe, 0x3c, 0xd0, 0xf0, 0xbd,
  0xe0, 0x2e, 0xc9, 0x3d, 0xb6, 0x3b, 0x97, 0xbd, 0xd4, 0xcc, 0xfd, 0xbe,
  0x81, 0x12, 0x2e, 0xbc, 0xd7, 0xfb, 0x49, 0xbe, 0x49, 0x22, 0xb3, 0x3d,
  0x54, 0x65, 0x8c, 0xbd, 0x6c, 0x17, 0x07, 0x3d, 0x8f, 0x13, 0xaa, 0xbd,
  0xf8, 0x8b, 0x9b, 0xbd, 0x54, 0xb4, 0x68, 0x3d, 0xd2, 0xc4, 0x3f, 0x3e,
  0xbe, 0xad, 0xeb, 0xbc, 0xfe, 0x2f, 0x94, 0xbe, 0x2f, 0x33, 0x3f, 0xbe,
  0xf3, 0xd4, 0x91, 0x3d, 0xb2, 0xb1, 0x55, 0x3d, 0x24, 0xf9, 0x1c, 0x3d,
  0xf5, 0xc3, 0x70, 0xbe, 0x5d, 0xd0, 0x27, 0x3e, 0x46, 0x23, 0x94, 0xbe,
  0x78, 0xf7, 0xe2, 0x3d, 0x62, 0x9c, 0x00, 0xbe, 0x33, 0xe2, 0x2a, 0x3c,
  0x4b, 0x03, 0x78, 0xbe, 0x48, 0x4a, 0x14, 0xbe, 0x98, 0x8d, 0x78, 0xbd,
  0xbb, 0xa5, 0x00, 0x3e, 0xce, 0x03, 0x65, 0xbd, 0x86, 0x5a, 0xa6, 0xbe,
  0x56, 0xe0, 0xaf, 0xbe, 0xe2, 0x96, 0xae, 0x3b, 0x5d, 0xb9, 0xea, 0x3c,
  0xad, 0x62, 0xb3, 0xbc, 0xb3, 0x63, 0xd9, 0xbe, 0xd0, 0x64, 0x70, 0x3d,
  0x0b, 0x88, 0x1a, 0xbe, 0x72, 0x0f, 0x99, 0x3d, 0x5e, 0x07, 0x1c, 0x3d,
  0xf1, 0x60, 0x49, 0x3c, 0x5f, 0x3c, 0x1a, 0xbe, 0x73, 0xf8, 0x4d, 0xbe,
  0x31, 0x3d, 0x2e, 0x3c, 0xe4, 0x6e, 0x20, 0x3e, 0xa6, 0xb4, 0x21, 0xbe,
  0x9e, 0x37, 0x12, 0xbe, 0x66, 0x11, 0xaf, 0xbe, 0xa1, 0xef, 0x81, 0xbd,
  0x0a, 0x4a, 0x15, 0x3d, 0x69, 0xaf, 0x3a, 0x3b, 0x58, 0xce, 0xda, 0xbd,
  0x9b, 0x7e, 0xad, 0x3c, 0x4e, 0x75, 0x13, 0xbe, 0xc5, 0x14, 0x38, 0xbc,
  0xca, 0x70, 0x6a, 0x3e, 0x0e, 0x7e, 0xac, 0xbd, 0xbd, 0xbf, 0x1c, 0x3d,
  0xee, 0xdf, 0x8b, 0xbe, 0x3a, 0x2b, 0x3e, 0x3d, 0x65, 0x99, 0xdb, 0x3d,
  0x31, 0x5b, 0x2c, 0xbf, 0x36, 0xfe, 0x48, 0x3d, 0x18, 0x0c, 0xab, 0xbe,
  0x2a, 0x21, 0x9c, 0xbd, 0x56, 0x08, 0x88, 0x3d, 0xd2, 0xf8, 0x04, 0x3e,
  0xc4, 0xe1, 0xf9, 0xbe, 0xc7, 0xc6, 0x95, 0xbc, 0xfe, 0xa0, 0x9a, 0xbe,
  0xb2, 0x2f, 0x83, 0xbd, 0x26, 0x9a, 0x75, 0xbc, 0x75, 0x73, 0x92, 0xbd,
  0x6b, 0xd2, 0x3b, 0x3d, 0xaa, 0x93, 0x6b, 0xbe, 0xf1, 0x38, 0xb2, 0xbd,
  0x43, 0x51, 0xfc, 0x3d, 0x85, 0x75, 0xf4, 0xbe, 0x4d, 0x2e, 0xb2, 0x3e,
  0x27, 0x46, 0x0d, 0x3d, 0x08, 0x6b, 0x0d, 0xbd, 0x81, 0xde, 0x7c, 0xbd,
  0xd5, 0x1c, 0x5e, 0xbd, 0xc4, 0xf7, 0xf4, 0xbd, 0x1c, 0x7f, 0x2e, 0x3c,
  0xd7, 0x51, 0xd4, 0xbd, 0x16, 0xdd, 0x6f, 0xbe, 0x12, 0xe5, 0xd6, 0xbd,
  0xdf, 0xe3, 0xe8, 0xbd, 0x55, 0xaa, 0x81, 0xbe, 0x85, 0x6b, 0x45, 0xbe,
  0x28, 0xf9, 0xb5, 0xbe, 0x2b, 0x76, 0xf8, 0xbd, 0xfe, 0x1e, 0xdd, 0x3d,
  0xf8, 0xb2, 0xc1, 0xbe, 0xb0, 0xea, 0x07, 0xbe, 0x44, 0x54, 0xda, 0xbc,
  0xb1, 0xb7, 0x7a, 0xbe, 0x07, 0xb1, 0x10, 0xbd, 0x93, 0xd8, 0x6c, 0x3e,
  0x98, 0x12, 0xa9, 0xbe, 0x41, 0x27, 0xf5, 0xbc, 0xe6, 0xaa, 0x95, 0x3d,
  0x19, 0x32, 0x9e, 0x3e, 0x82, 0xd3, 0x18, 0xbe, 0xe5, 0x37, 0x32, 0xbc,
  0x30, 0xb9, 0x5c, 0xbc, 0xf0, 0x5a, 0x3a, 0x3d, 0xaa, 0x5d, 0x63, 0xbe,
  0x87, 0x03, 0x3d, 0x3e, 0x9e, 0x90, 0x83, 0x3e, 0x86, 0x7d, 0xd4, 0xbd,
  0xe9, 0x99, 0x16, 0xbe, 0x0a, 0xf5, 0xbb, 0xbd, 0xf7, 0x70, 0xf0, 0x3d,
  0x92, 0x8a, 0xad, 0x3e, 0x3a, 0x4d, 0x56, 0xbe, 0xd8, 0xe3, 0x35, 0xbd,
  0x4d, 0x99, 0x28, 0x3e, 0xa3, 0x19, 0x21, 0x3e, 0xdb, 0xe3, 0x4b, 0xbd,
  0xe3, 0x37, 0x76, 0xbe, 0x78, 0x60, 0x3f, 0xbd, 0x3b, 0x7a, 0xc3, 0xbd,
  0xe4, 0xeb, 0xe6, 0xbe, 0x13, 0x3c, 0xa4, 0x3d, 0xbf, 0x9e, 0x24, 0xbc,
  0x4e, 0xaf, 0x8e, 0xba, 0x18, 0x0b, 0xc1, 0xbe, 0x40, 0x69, 0xa6, 0xbd,
  0xab, 0x0f, 0x48, 0xbe, 0x6d, 0x67, 0x0f, 0x3e, 0x84, 0x36, 0xe8, 0xbd,
  0x57, 0xcf, 0x70, 0xbd, 0xf5, 0x23, 0xe7, 0xbd, 0x7d, 0xbf, 0x73, 0xbe,
  0x48, 0x4c, 0x1b, 0xbe, 0x89, 0x33, 0x7b, 0xbe, 0xc9, 0x2b, 0x06, 0x3e,
  0x6e, 0xc2, 0x9b, 0xbd, 0x7d, 0x6d, 0xb5, 0xbe, 0xd1, 0xe4, 0xa8, 0xbe,
  0x44, 0x72, 0xc8, 0xbd, 0xaa, 0xb7, 0x32, 0xbe, 0x96, 0x7d, 0x31, 0xbe,
  0x09, 0xac, 0x87, 0xbd, 0xfa, 0x4d, 0x0d, 0xbd, 0x7f, 0x90, 0x1f, 0xbe,
  0x46, 0x8a, 0xad, 0xbe, 0x7f, 0x4d, 0x26, 0xbe, 0x65, 0xef, 0x26, 0x3c,
  0xed, 0x80, 0x6c, 0xbe, 0x33, 0xc0, 0x7e, 0x3c, 0x9d, 0xcb, 0xe1, 0xbe,
  0x33, 0xd3, 0x33, 0xbd, 0x61, 0x22, 0xeb, 0xbd, 0x68, 0x73, 0x8c, 0xbe,
  0x93, 0x86, 0x69, 0xbe, 0xbb, 0x41, 0xcd, 0xbd, 0xea, 0x5f, 0xd3, 0xbd,
  0xe4, 0x87, 0x96, 0xbd, 0x44, 0x8e, 0x7f, 0xbc, 0xed, 0x22, 0x72, 0xbe,
  0x26, 0x16, 0x1d, 0xbe, 0xb8, 0xb0, 0xb0, 0xbe, 0xf4, 0x94, 0x01, 0xbe,
  0xe6, 0xf8, 0xa0, 0xbc, 0x2c, 0xfb, 0xb6, 0xbe, 0x8d, 0xf3, 0x47, 0xbd,
  0xac, 0x08, 0x9c, 0xbe, 0xc8, 0x80, 0x36, 0xbe, 0x6b, 0x21, 0x43, 0xbe,
  0x04, 0x49, 0xdc, 0xbe, 0x39, 0x1a, 0xd5, 0xbe, 0xee, 0x3e, 0xc1, 0x39,
  0x91, 0x18, 0x1d, 0x3d, 0x50, 0x02, 0x1d, 0xbe, 0x15, 0x33, 0x3b, 0x3d,
  0x45, 0x94, 0x15, 0xbe, 0xbf, 0x48, 0x0b, 0xbe, 0x55, 0xb0, 0xb3, 0xbe,
  0x0f, 0x30, 0x03, 0xbe, 0x5f, 0xe8, 0x0c, 0xbc, 0x25, 0x98, 0xc5, 0xbd,
  0xe5, 0x2d, 0x10, 0xbe, 0xc5, 0x37, 0xb6, 0xbd, 0xa1, 0xf1, 0x24, 0x3e,
  0xc6, 0x54, 0xc1, 0x3c, 0x0a, 0x4e, 0x8c, 0xbe, 0x5a, 0xb5, 0x23, 0xbe,
  0xae, 0xb1, 0x76, 0x3c, 0x7a, 0x73, 0x93, 0x3d, 0x62, 0x31, 0x3c, 0x3b,
  0x83, 0xae, 0xc8, 0x3d, 0x59, 0x9a, 0x83, 0xbe, 0x86, 0xe3, 0xf0, 0xbd,
  0x11, 0xdc, 0x84, 0x3d, 0xec, 0xe4, 0x67, 0xbe, 0x25, 0x12, 0x00, 0xbd,
  0xe9, 0x4f, 0x33, 0xbe, 0x8e, 0x19, 0x2a, 0xbe, 0x79, 0x2d, 0x86, 0xbe,
  0x66, 0x4b, 0x06, 0xbf, 0x7c, 0xa2, 0xce, 0x3e, 0x34, 0x0e, 0xd9, 0xbe,
  0x8a, 0xcf, 0xca, 0xbd, 0xb7, 0x46, 0x51, 0xbd, 0x53, 0x02, 0xaf, 0xbe,
  0x36, 0x1c, 0x8b, 0xbd, 0x96, 0x3b, 0x0e, 0xbe, 0xc5, 0x0d, 0x5d, 0x3d,
  0x7e, 0x3e, 0x0c, 0x3e, 0x2d, 0x3f, 0xc8, 0xbe, 0xa1, 0x02, 0x1a, 0x3d,
  0xde, 0x67, 0x27, 0xbd, 0x57, 0xa6, 0x96, 0xbe, 0xe2, 0x07, 0x7a, 0xbd,
  0x7e, 0x4d, 0x99, 0xbe, 0x52, 0x79, 0x9d, 0xbe, 0xe4, 0x55, 0x15, 0xbe,
  0xe8, 0x51, 0x1d, 0xbf, 0xe5, 0x29, 0xb5, 0xbd, 0x1a, 0x73, 0x6e, 0x3e,
  0xc5, 0x8a, 0x39, 0xbe, 0xf4, 0x47, 0x86, 0xbe, 0x7e, 0xe5, 0x6e, 0xbe,
  0x42, 0xd7, 0xa2, 0xbd, 0xfd, 0xd8, 0xa9, 0xbe, 0x5d, 0xa7, 0x15, 0xbf,
  0x03, 0x05, 0xc5, 0xbc, 0xaf, 0x4a, 0xaa, 0x3d, 0x50, 0x17, 0x68, 0xbd,
  0x99, 0x61, 0x86, 0xbd, 0x95, 0x0d, 0xa9, 0xbe, 0x42, 0xf6, 0x08, 0xbf,
  0xb7, 0x0a, 0x90, 0xbe, 0xa0, 0x3f, 0x0b, 0xbf, 0xd3, 0x54, 0x30, 0xbd,
  0xa5, 0x1e, 0x44, 0xbe, 0xb9, 0xd5, 0x06, 0xbe, 0xf4, 0x7e, 0xe9, 0x3c,
  0x1f, 0x73, 0x25, 0xbe, 0xcb, 0x9a, 0x31, 0xbe, 0x70, 0x07, 0x61, 0xbe,
  0x9a, 0xe0, 0x20, 0xbf, 0x6c, 0x95, 0xa3, 0xbb, 0x20, 0x3b, 0xd1, 0x3d,
  0xaa, 0x21, 0x9f, 0xbe, 0x3e, 0x61, 0xb0, 0xbd, 0x80, 0x6e, 0x3f, 0xbf,
  0xf7, 0x67, 0xb9, 0xbe, 0x69, 0xda, 0x1f, 0xbf, 0x87, 0x1f, 0xdf, 0xbe,
  0x0a, 0xda, 0xaf, 0xbd, 0x9a, 0x13, 0xea, 0xbe, 0x3c, 0x01, 0xbb, 0xbe,
  0xdb, 0xb9, 0x8c, 0xbe, 0x06, 0x8f, 0x38, 0xbe, 0x01, 0xe7, 0x4f, 0xbd,
  0xd3, 0xbf, 0xe1, 0xbe, 0xf3, 0x73, 0x3b, 0xbf, 0x2f, 0xe7, 0x37, 0xbd,
  0x07, 0x20, 0xac, 0x3d, 0xec, 0x08, 0xeb, 0x3d, 0x03, 0xa4, 0x84, 0x3d,
  0x4f, 0x67, 0x53, 0xbd, 0x05, 0x1b, 0x15, 0xbe, 0xc0, 0xc3, 0xa8, 0xbd,
  0x0b, 0x8c, 0xeb, 0xbe, 0xbd, 0xc6, 0xb2, 0xbd, 0x52, 0x7a, 0xce, 0x3e,
  0xe1, 0xac, 0xce, 0xbe, 0xdb, 0xf5, 0xcf, 0x3d, 0x83, 0x62, 0x73, 0xbd,
  0x43, 0x8a, 0x3e, 0x3e, 0x6c, 0xda, 0xce, 0x3d, 0x39, 0x23, 0x4c, 0xbd,
  0xbf, 0x7d, 0xb0, 0xbc, 0x4a, 0xc8, 0x4c, 0x3d, 0x3a, 0xcf, 0x9d, 0x3e,
  0x51, 0x51, 0xe2, 0x3d, 0xca, 0x98, 0xa6, 0x3d, 0x12, 0x22, 0x26, 0x3d,
  0xde, 0x73, 0x8a, 0x3d, 0x43, 0xe3, 0x0f, 0xbe, 0x24, 0x63, 0x54, 0xbe,
  0x5f, 0x3e, 0x3c, 0x3e, 0xeb, 0x0e, 0x47, 0xbd, 0x37, 0x50, 0xf5, 0xbd,
  0x42, 0xc6, 0x2a, 0xbd, 0x4e, 0x98, 0x24, 0xb9, 0xc1, 0x97, 0xfb, 0x3d,
  0x54, 0xc3, 0xcc, 0xbc, 0x1a, 0x39, 0x3a, 0xbd, 0x93, 0xa9, 0xe6, 0xbd,
  0xb3, 0x97, 0x07, 0x3c, 0xb8, 0x99, 0x5c, 0x3e, 0x78, 0x49, 0x18, 0x3e,
  0xde, 0x4c, 0x01, 0x3e, 0x89, 0x8a, 0xc1, 0x3d, 0x85, 0xba, 0x00, 0x3d,
  0xc5, 0xdf, 0x2c, 0xbd, 0x46, 0x82, 0x2a, 0x3e, 0x89, 0x33, 0x4c, 0xbd,
  0xc0, 0x44, 0xc0, 0xbd, 0xf1, 0x55, 0xf3, 0xbd, 0xde, 0x26, 0x76, 0xbe,
  0xd3, 0x5a, 0x8b, 0x3d, 0xc5, 0x9c, 0x62, 0x3d, 0xe9, 0xf7, 0x4d, 0x3d,
  0x75, 0x86, 0x81, 0xbc, 0xca, 0xb9, 0x06, 0xbf, 0x66, 0xa2, 0x0d, 0xbe,
  0x6c, 0x34, 0xce, 0x3c, 0xe7, 0x98, 0x16, 0x3e, 0x50, 0x17, 0x44, 0xbe,
  0x34, 0xb0, 0xcf, 0x3d, 0xa2, 0x6f, 0xc2, 0xbe, 0xa4, 0x95, 0xec, 0xbe,
  0x05, 0x7e, 0xed, 0x3d, 0xa0, 0x0a, 0x94, 0x3e, 0xac, 0x62, 0x40, 0xbf,
  0x92, 0x55, 0x9d, 0xbe, 0x3b, 0xba, 0xf8, 0xbe, 0x73, 0xb3, 0x2c, 0xbe,
  0x95, 0x6a, 0xe8, 0xbd, 0x32, 0x0b, 0xf8, 0xbe, 0xce, 0xce, 0xe8, 0x3d,
  0xd8, 0x09, 0x35, 0xbe, 0xe6, 0xb3, 0xed, 0x3d, 0x57, 0x04, 0x31, 0x3d,
  0x24, 0xa1, 0x20, 0xbc, 0x3b, 0xca, 0x15, 0x3e, 0x50, 0xb1, 0x18, 0xbd,
  0xa3, 0xdd, 0xd8, 0x3d, 0x47, 0x7b, 0x49, 0x3e, 0xb6, 0xe8, 0xee, 0x3d,
  0x5b, 0x7e, 0x0b, 0xbe, 0x27, 0x4a, 0x88, 0x3e, 0xd4, 0x56, 0x71, 0x3e,
  0xd3, 0x29, 0x68, 0xbe, 0x17, 0xfb, 0x12, 0xbe, 0x6e, 0xdf, 0x17, 0x3e,
  0xf5, 0x92, 0x82, 0x3e, 0x9a, 0x9c, 0xcd, 0xbd, 0x01, 0xc3, 0x93, 0xbe,
  0xdc, 0x39, 0xab, 0x3c, 0xdd, 0x0a, 0x23, 0xbe, 0xb6, 0x62, 0x99, 0x3d,
  0xa8, 0x7e, 0x9c, 0x3d, 0xfb, 0x31, 0xda, 0x3e, 0xc5, 0x3d, 0xf6, 0x3d,
  0x03, 0xc8, 0xcb, 0x3e, 0xba, 0xed, 0x5b, 0x3d, 0xad, 0xe5, 0x13, 0x3f,
  0x09, 0xbf, 0x0d, 0x3e, 0x3d, 0x9d, 0x8d, 0xbe, 0x4f, 0x4f, 0xf2, 0xbd,
  0x23, 0x4f, 0x3a, 0x3e, 0x65, 0xe8, 0x9e, 0x3e, 0x0a, 0x49, 0x7f, 0xbd,
  0xb4, 0xbe, 0x63, 0xbe, 0xfb, 0x51, 0x5f, 0xbd, 0xb4, 0xdb, 0x91, 0xbc,
  0xcc, 0x9b, 0x49, 0x3d, 0x09, 0xaf, 0x87, 0x3c, 0x62, 0xb9, 0x8a, 0x3e,
  0x05, 0xec, 0x04, 0x3e, 0x21, 0xd1, 0xc5, 0x3e, 0x67, 0x28, 0x0c, 0x3d,
  0x61, 0x14, 0x2c, 0x3f, 0x0d, 0x99, 0x95, 0x3e, 0x69, 0x54, 0x77, 0x3b,
  0x06, 0xc2, 0x0b, 0x3d, 0xfa, 0x8f, 0x2f, 0x3d, 0x79, 0xf5, 0x94, 0x3e,
  0x28, 0x79, 0xde, 0xbc, 0xdc, 0x10, 0xc3, 0xbe, 0xf6, 0x21, 0x8c, 0xbd,
  0x80, 0x52, 0x12, 0xbe, 0xa6, 0x4a, 0xf9, 0x3c, 0xe3, 0x46, 0x09, 0x3e,
  0x79, 0x0e, 0x69, 0x3d, 0x98, 0xbb, 0x7b, 0x3d, 0xed, 0x81, 0x56, 0x3e,
  0x54, 0x24, 0x8c, 0xbc, 0x24, 0x6f, 0x1f, 0x3f, 0xcf, 0xda, 0x7d, 0x3d,
  0x83, 0x51, 0x9b, 0xbe, 0x8f, 0xe9, 0xc0, 0x3b, 0x1a, 0x5d, 0xe2, 0x3d,
  0x93, 0x0c, 0x92, 0x3d, 0x5a, 0x72, 0x4e, 0xbd, 0xbb, 0x12, 0x09, 0xbf,
  0xdc, 0x98, 0xc2, 0xbd, 0x28, 0x2b, 0x8a, 0xbe, 0x01, 0x97, 0x26, 0x3d,
  0x7d, 0x52, 0x26, 0x3e, 0xb5, 0x60, 0x85, 0xbe, 0xdc, 0x3b, 0x08, 0x3d,
  0xba, 0xf4, 0xbe, 0x3e, 0x1d, 0xe3, 0x90, 0xbd, 0x7a, 0xd8, 0xdb, 0x3e,
  0x51, 0x24, 0x83, 0x3e, 0x41, 0x75, 0xa6, 0xbe, 0xff, 0x5d, 0x27, 0xbd,
  0x8b, 0x68, 0x77, 0x3d, 0x91, 0x5a, 0x21, 0xbb, 0x09, 0xa2, 0x6b, 0x3c,
  0x6c, 0x76, 0x43, 0xbc, 0x86, 0x24, 0xa1, 0xbe, 0x1b, 0xc8, 0xc3, 0xbd,
  0x56, 0x6a, 0x3f, 0xbe, 0x01, 0x36, 0x33, 0xbd, 0xe3, 0x50, 0x30, 0x3e,
  0xba, 0x00, 0xdc, 0xbd, 0x8d, 0xcb, 0x00, 0xbe, 0xbb, 0xba, 0xf2, 0x3d,
  0xa5, 0xb9, 0x15, 0x3f, 0x91, 0x42, 0x8a, 0x3d, 0x1b, 0xf5, 0x2a, 0xbd,
  0x8d, 0x20, 0x47, 0xbd, 0x35, 0x10, 0xed, 0x3d, 0xa0, 0x3c, 0x03, 0x3e,
  0xe9, 0x71, 0xd0, 0xbd, 0x84, 0xb6, 0x27, 0x3d, 0xfa, 0x11, 0x01, 0xbe,
  0x70, 0x3f, 0x51, 0xbd, 0x4b, 0x66, 0x66, 0xbe, 0x2a, 0xfb, 0x76, 0x3e,
  0x7f, 0xd9, 0xbc, 0xbd, 0xcf, 0x19, 0xcd, 0xbd, 0x57, 0xae, 0xde, 0x3d,
  0xb5, 0x79, 0x40, 0x3e, 0x17, 0xe1, 0x0e, 0x3e, 0x85, 0x7d, 0x4a, 0xbe,
  0x88, 0x0d, 0x2c, 0xbe, 0x6a, 0x17, 0x32, 0xbd, 0x6f, 0xe0, 0x53, 0x3e,
  0x07, 0xbc, 0x3e, 0x3e, 0x3b, 0xb1, 0x12, 0x3a, 0x2f, 0xc7, 0x99, 0xbe,
  0x38, 0x39, 0x6f, 0x3d, 0xaa, 0x2e, 0xab, 0xbe, 0x8c, 0x62, 0x16, 0xbe,
  0x3a, 0x4c, 0x0a, 0xbd, 0x94, 0x3a, 0xac, 0x3e, 0xdc, 0xb8, 0xe3, 0x3d,
  0xce, 0x7a, 0x88, 0xbd, 0x54, 0xe1, 0xb7, 0x3c, 0x8f, 0xcf, 0x1c, 0x3e,
  0x19, 0x5e, 0x46, 0xbe, 0x25, 0x68, 0xe6, 0xbd, 0xc8, 0x06, 0x87, 0xbd,
  0xb4, 0x62, 0x99, 0x3d, 0x35, 0x23, 0xb3, 0x3d, 0x15, 0x92, 0x79, 0x3d,
  0x14, 0x9c, 0x78, 0xbe, 0x15, 0x84, 0x0e, 0xbe, 0x04, 0x4c, 0xbd, 0xbd,
  0xc6, 0xcc, 0x0c, 0xbd, 0x34, 0x78, 0x4a, 0xbd, 0xd8, 0x03, 0x0c, 0x3d,
  0x91, 0xae, 0x71, 0x3e, 0xc4, 0xc9, 0x96, 0xbb, 0x7a, 0x4e, 0xaf, 0x3d,
  0x28, 0x5b, 0x15, 0x3e, 0x73, 0x1b, 0xce, 0xbd, 0x63, 0xc6, 0x52, 0x3e,
  0x3b, 0x47, 0x73, 0xbd, 0x08, 0xb6, 0xf0, 0x3d, 0x79, 0xcf, 0x5c, 0xbd,
  0x74, 0xfb, 0x80, 0x3d, 0x63, 0xfc, 0x36, 0xbc, 0xb0, 0x65, 0x15, 0x3c,
  0x77, 0x63, 0x98, 0xbd, 0x52, 0x52, 0xa7, 0x3d, 0x4e, 0x4c, 0xb7, 0xbd,
  0x8e, 0x86, 0xd0, 0xbd, 0x5b, 0x6a, 0x7f, 0x3e, 0x30, 0xee, 0xdf, 0x3d,
  0xcf, 0xf7, 0x19, 0x3c, 0xdd, 0x24, 0x0c, 0x3e, 0x4c, 0x50, 0xbe, 0xbd,
  0xbd, 0x7d, 0x38, 0x3e, 0xc2, 0x06, 0x34, 0x3d, 0x9e, 0xde, 0x61, 0x3e,
  0x68, 0xed, 0x4c, 0x3d, 0x84, 0x4b, 0x9c, 0xbd, 0x41, 0xee, 0xee, 0x3d,
  0xee, 0xf9, 0x21, 0xbe, 0x86, 0x23, 0xc0, 0xbc, 0xc7, 0xba, 0x04, 0xbb,
  0xfd, 0x57, 0x2f, 0x3d, 0xc6, 0x00, 0xad, 0xbe, 0x62, 0xc6, 0x52, 0x3e,
  0xfd, 0x86, 0x05, 0x3e, 0x07, 0x30, 0xd6, 0x3d, 0x47, 0x3d, 0x0f, 0x3e,
  0xe2, 0xde, 0x91, 0xbe, 0xed, 0xca, 0x13, 0x3d, 0xaf, 0x2b, 0x69, 0x3c,
  0x8b, 0x2f, 0x2d, 0x3b, 0xeb, 0x42, 0xca, 0x3d, 0x4a, 0x5e, 0x9b, 0xbd,
  0x09, 0x40, 0x17, 0xbe, 0x29, 0x20, 0x91, 0xbe, 0xae, 0x2c, 0x8c, 0xbd,
  0x9a, 0xca, 0xba, 0x3c, 0x31, 0x74, 0xe2, 0xbe, 0x60, 0xfe, 0xf3, 0xbc,
  0x9f, 0x8e, 0x28, 0xbe, 0x85, 0x4c, 0x6b, 0x3e, 0x8b, 0xe3, 0x54, 0x3b,
  0xb7, 0x0a, 0x7b, 0x3e, 0x35, 0xf9, 0xaf, 0xbe, 0x71, 0x02, 0x1f, 0xbc,
  0x9c, 0xf0, 0xdc, 0xbd, 0x4e, 0x72, 0x2b, 0xbc, 0x7a, 0xda, 0xd8, 0xbd,
  0x7e, 0x02, 0xf7, 0xbd, 0xee, 0x79, 0xd7, 0xbe, 0x23, 0xc4, 0x8c, 0xbe,
  0xde, 0x32, 0x8f, 0xbe, 0x6a, 0xfc, 0x05, 0x3d, 0x33, 0x51, 0xae, 0xbe,
  0x6e, 0x8f, 0x8b, 0x3e, 0x62, 0xaf, 0xed, 0x3d, 0x90, 0xef, 0x15, 0xbe,
  0xca, 0xff, 0xa8, 0xbe, 0x4a, 0x01, 0x9c, 0xbd, 0xd8, 0xaf, 0x46, 0xbe,
  0x1f, 0xed, 0xaa, 0x3d, 0xd7, 0x44, 0x47, 0xbe, 0xaa, 0x47, 0xab, 0xbe,
  0x70, 0x28, 0x67, 0x3e, 0xa6, 0x6c, 0x45, 0xbe, 0x5b, 0xe7, 0xa5, 0x3d,
  0x95, 0xb4, 0xe8, 0x3c, 0x28, 0x1b, 0xba, 0x3e, 0x71, 0x8d, 0xee, 0x3d,
  0x3f, 0xc4, 0xe4, 0xbd, 0x6d, 0x57, 0xbc, 0x3e, 0xc7, 0x8d, 0xcc, 0x3d,
  0x48, 0x3d, 0x16, 0x3e, 0x60, 0x15, 0x62, 0x3c, 0xea, 0xd0, 0xcd, 0xbc,
  0x59, 0x37, 0x9a, 0x3e, 0xc6, 0xc8, 0x9c, 0xbc, 0xa2, 0x47, 0x42, 0xbd,
  0x16, 0xa0, 0xd1, 0xbd, 0xbe, 0xa2, 0xb8, 0x3c, 0x36, 0x49, 0xad, 0xba,
  0x98, 0x25, 0xb7, 0xbe, 0x7d, 0xc5, 0xa8, 0xbd, 0x34, 0x9f, 0x00, 0xbf,
  0xae, 0x3e, 0x88, 0x3d, 0x2a, 0xc3, 0xe6, 0xbc, 0x84, 0x53, 0xdc, 0x3d,
  0x50, 0x0a, 0xad, 0x3c, 0x11, 0xd8, 0xc2, 0x3d, 0xc4, 0xcd, 0x4c, 0x3d,
  0xb1, 0x9b, 0x1d, 0x3e, 0xb2, 0xe8, 0x36, 0xbd, 0x40, 0x6d, 0x8e, 0x38,
  0xc9, 0xd9, 0xd6, 0xbd, 0xcf, 0x7c, 0x29, 0xbd, 0xe0, 0xa7, 0x98, 0xbc,
  0x7c, 0x47, 0x18, 0x3d, 0x89, 0x8a, 0xd4, 0xbe, 0x07, 0x91, 0x24, 0xbd,
  0x4a, 0x87, 0xf4, 0xbe, 0x4d, 0x47, 0x95, 0x3d, 0xe9, 0x54, 0x6f, 0x3c,
  0xb8, 0x61, 0xe6, 0xbd, 0x42, 0xba, 0xeb, 0xbc, 0x0d, 0x77, 0x03, 0x3d,
  0x34, 0xb5, 0x27, 0x3d, 0x28, 0x20, 0x34, 0xbd, 0xdb, 0x28, 0xad, 0x3d,
  0x11, 0x0b, 0xa7, 0xbe, 0x30, 0x6a, 0x46, 0xbd, 0xc6, 0x49, 0xa5, 0xba,
  0xd8, 0x4e, 0x07, 0x3d, 0x58, 0xcf, 0xda, 0x3c, 0xf7, 0xbb, 0xf0, 0xbe,
  0xae, 0x7b, 0xf4, 0xbd, 0x30, 0x7d, 0xa5, 0xbe, 0x8d, 0x19, 0x89, 0x3d,
  0x11, 0x4a, 0x81, 0xbc, 0x0e, 0xe7, 0x04, 0x3d, 0x47, 0x62, 0x8e, 0xbd,
  0x64, 0xc2, 0xac, 0x3d, 0x6f, 0xb8, 0x8e, 0x3c, 0x7e, 0xf0, 0x02, 0x3e,
  0xdb, 0x88, 0x90, 0x3d, 0x8a, 0x7e, 0x06, 0xbf, 0xe6, 0xb5, 0x9e, 0xbd,
  0xd4, 0xee, 0x5a, 0xbc, 0xc5, 0x45, 0xa5, 0x3d, 0x59, 0x3a, 0x61, 0x3d,
  0x2a, 0x4c, 0x18, 0xbe, 0x1a, 0x7f, 0x04, 0xbe, 0xc2, 0xfd, 0x01, 0xbe,
  0xef, 0x6b, 0x92, 0x3c, 0x0f, 0xb1, 0xb7, 0x3c, 0x11, 0xc8, 0x8c, 0x3e,
  0x2d, 0x41, 0x8a, 0xbc, 0xec, 0x8f, 0xac, 0xbc, 0x21, 0xbe, 0xd2, 0xbb,
  0xeb, 0xb2, 0x23, 0x3e, 0xab, 0xa9, 0x0b, 0x3e, 0x14, 0xd9, 0xc4, 0xbd,
  0x0d, 0xea, 0xbb, 0xbd, 0xc1, 0xb6, 0x90, 0xba, 0x0d, 0x96, 0xee, 0x3d,
  0xa4, 0x87, 0x53, 0x3d, 0x1f, 0x24, 0x07, 0x3e, 0x60, 0xc5, 0x89, 0xbe,
  0x27, 0xf6, 0x0b, 0x3e, 0xab, 0x6b, 0x23, 0xbd, 0xe3, 0xfb, 0x01, 0x3d,
  0x27, 0x7f, 0xe5, 0x3e, 0xcb, 0xee, 0x86, 0x3b, 0xef, 0xc0, 0x37, 0x3e,
  0xb4, 0x43, 0xc3, 0xbd, 0xa4, 0x38, 0x2e, 0x3d, 0x4d, 0x2b, 0xd3, 0x3d,
  0x96, 0x41, 0x87, 0xbd, 0x3c, 0x70, 0xad, 0xbb, 0x7d, 0xcb, 0x61, 0x3d,
  0xff, 0xb3, 0x63, 0xbc, 0x21, 0xd4, 0x8b, 0xbd, 0x02, 0x1c, 0x67, 0xbd,
  0xdc, 0x1d, 0x99, 0xbe, 0xab, 0x7d, 0x98, 0xbc, 0xa4, 0x4e, 0x41, 0xbe,
  0x72, 0xc8, 0xd5, 0x3c, 0xe1, 0x7b, 0xbb, 0x3c, 0xfc, 0x2d, 0x50, 0x3d,
  0x67, 0x6b, 0xa9, 0xbc, 0xe6, 0xf7, 0xcc, 0xbd, 0x95, 0xeb, 0x31, 0x3e,
  0xc8, 0xca, 0xe7, 0x3b, 0x25, 0x4b, 0x07, 0x3e, 0xa1, 0xed, 0x1b, 0x3c,
  0x80, 0x36, 0xa2, 0x3d, 0xba, 0xf7, 0x0f, 0xbe, 0x80, 0x46, 0x85, 0xbe,
  0xa6, 0xec, 0x71, 0xbd, 0x59, 0x63, 0x10, 0x3d, 0x6d, 0x0f, 0xb8, 0x3d,
  0xa3, 0xc2, 0x05, 0xbe, 0xaa, 0x45, 0x60, 0xbe, 0x92, 0x43, 0x2c, 0x3e,
  0x63, 0x7e, 0x52, 0xbe, 0x47, 0xa0, 0x61, 0xbe, 0x58, 0x84, 0x2d, 0xbe,
  0xe9, 0x76, 0x3a, 0xbe, 0x14, 0xa7, 0x8e, 0xbd, 0x7f, 0x8e, 0x56, 0xbc,
  0x21, 0xbc, 0x73, 0x3c, 0x71, 0xb8, 0x87, 0x3c, 0xc3, 0x77, 0xb4, 0x3b,
  0xfb, 0x67, 0x3a, 0xbd, 0x97, 0xec, 0x44, 0x3e, 0x95, 0x67, 0x54, 0xbe,
  0xeb, 0xbd, 0x8e, 0x3e, 0xc0, 0xa5, 0x95, 0x3c, 0x5d, 0x1f, 0x23, 0xbe,
  0x70, 0xb4, 0x09, 0x3e, 0x97, 0x64, 0xeb, 0xbc, 0x18, 0x05, 0x4c, 0xbd,
  0xcd, 0x9d, 0xee, 0xbd, 0x16, 0x79, 0xac, 0xbe, 0xda, 0x29, 0xfc, 0x3d,
  0x5c, 0x6b, 0x32, 0xbd, 0xb4, 0xe6, 0x32, 0xbe, 0x4b, 0xa5, 0x4b, 0xbd,
  0xd8, 0xbc, 0x09, 0xbe, 0x56, 0x9e, 0x81, 0xbe, 0x9d, 0x33, 0xe1, 0x3e,
  0x14, 0x88, 0x6e, 0x3d, 0x8a, 0x98, 0x6c, 0x3e, 0x3d, 0xaf, 0x41, 0xbd,
  0x8d, 0xe5, 0x29, 0x3e, 0x01, 0x82, 0xef, 0x3d, 0x43, 0xcb, 0xb0, 0x3d,
  0xab, 0xad, 0xd6, 0x3d, 0x68, 0x78, 0x7c, 0xbe, 0xb7, 0x76, 0x86, 0x3d,
  0x31, 0xe6, 0x0b, 0xbc, 0xca, 0xb6, 0x10, 0x3e, 0x65, 0x27, 0xf0, 0xbd,
  0x00, 0xa8, 0xf5, 0xbd, 0xa4, 0x8d, 0x7d, 0xbd, 0xe8, 0x02, 0xcd, 0xbe,
  0x42, 0x46, 0x84, 0x3e, 0x6b, 0x02, 0x49, 0xbe, 0x56, 0xe4, 0x9b, 0x3e,
  0x6e, 0xa6, 0x9c, 0xbe, 0x04, 0xed, 0x2f, 0x3d, 0xf7, 0x3d, 0xc8, 0xbb,
  0x8a, 0x73, 0x08, 0x3e, 0x6a, 0x58, 0x82, 0xbc, 0x6e, 0x29, 0x86, 0xbe,
  0x71, 0x1a, 0x33, 0xbe, 0x4d, 0xf0, 0x18, 0x3d, 0x5a, 0xbe, 0xca, 0x3d,
  0x84, 0xdf, 0x04, 0xbe, 0x94, 0xf2, 0xd4, 0xbd, 0xa8, 0x77, 0x32, 0x3d,
  0x42, 0x8f, 0xfc, 0xbe, 0xc5, 0xea, 0xbc, 0x3d, 0xf5, 0xb9, 0x8c, 0xbe,
  0x9c, 0x51, 0xc2, 0x3e, 0x10, 0xe9, 0x74, 0x3c, 0x23, 0x1d, 0x6e, 0xbe,
  0xe7, 0x87, 0x8c, 0xbd, 0x26, 0x44, 0xed, 0x3d, 0x28, 0x36, 0x3b, 0xbe,
  0xa7, 0xd6, 0x18, 0xbe, 0xc6, 0xa9, 0x7a, 0xbe, 0x93, 0x5d, 0x71, 0x3a,
  0xd6, 0x0d, 0xa5, 0x3b, 0x77, 0xdf, 0x6f, 0xbd, 0x8c, 0x4a, 0xf4, 0xbd,
  0x40, 0xd6, 0x02, 0xbd, 0xd5, 0x0c, 0x9e, 0xbe, 0x31, 0x9d, 0x0b, 0x3e,
  0x2b, 0x5a, 0x9c, 0xbd, 0x8a, 0xb9, 0xc3, 0x3e, 0x77, 0x50, 0x89, 0xbe,
  0x24, 0x64, 0x9d, 0xbd, 0x7a, 0xa0, 0x0c, 0x3d, 0x2c, 0x19, 0xa1, 0xbc,
  0x64, 0xb4, 0x28, 0xbe, 0xb3, 0x52, 0x7f, 0xbe, 0xb3, 0xce, 0xe6, 0xbd,
  0x0d, 0xf6, 0x9a, 0xbd, 0xc0, 0xaa, 0x1e, 0xbe, 0xd3, 0x28, 0x14, 0xbd,
  0x53, 0x28, 0x5f, 0x3d, 0xc2, 0x73, 0x23, 0x3c, 0xd5, 0x92, 0x2a, 0x3e,
  0xcf, 0x3e, 0x4d, 0x3d, 0x2e, 0x27, 0xc2, 0x3d, 0x29, 0x25, 0xe1, 0x3b,
  0x05, 0x88, 0xbd, 0x3d, 0x26, 0x1a, 0x3c, 0xbe, 0x72, 0xd1, 0x2d, 0xbe,
  0x0d, 0xc9, 0x25, 0xbd, 0x09, 0x28, 0x55, 0xbe, 0xca, 0xe4, 0xbd, 0xbe,
  0x6e, 0x31, 0x87, 0x3d, 0x0a, 0xd8, 0x6f, 0xbd, 0x23, 0x2b, 0x40, 0xbe,
  0xb4, 0x87, 0x34, 0x3d, 0x64, 0x3a, 0x89, 0xbe, 0x5e, 0xfd, 0xff, 0xff,
  0x10, 0x00, 0x00, 0x00, 0x07, 0x00, 0x00, 0x00, 0x14, 0x00, 0x00, 0x00,
  0x2c, 0x00, 0x00, 0x00, 0x02, 0x00, 0x00, 0x00, 0x10, 0x00, 0x00, 0x00,
  0x70, 0x00, 0x00, 0x00, 0x17, 0x00, 0x00, 0x00, 0x73, 0x65, 0x71, 0x75,
  0x65, 0x6e, 0x74, 0x69, 0x61, 0x6c, 0x2f, 0x64, 0x65, 0x6e, 0x73, 0x65,
  0x2f, 0x4d, 0x61, 0x74, 0x4d, 0x75, 0x6c, 0x00, 0xc8, 0xfc, 0xff, 0xff,
  0xd2, 0xfd, 0xff, 0xff, 0x04, 0x00, 0x00, 0x00, 0x08, 0x00, 0x00, 0x00,
  0xff, 0xff, 0xff, 0xff, 0x70, 0x00, 0x00, 0x00, 0x00, 0x00, 0x0e, 0x00,
  0x18, 0x00, 0x08, 0x00, 0x07, 0x00, 0x0c, 0x00, 0x10, 0x00, 0x14, 0x00,
  0x0e, 0x00, 0x00, 0x00, 0x00, 0x00, 0x00, 0x02, 0x10, 0x00, 0x00, 0x00,
  0x06, 0x00, 0x00, 0x00, 0x10, 0x00, 0x00, 0x00, 0x2c, 0x00, 0x00, 0x00,
  0x01, 0x00, 0x00, 0x00, 0x02, 0x00, 0x00, 0x00, 0x18, 0x00, 0x00, 0x00,
  0x73, 0x65, 0x71, 0x75, 0x65, 0x6e, 0x74, 0x69, 0x61, 0x6c, 0x2f, 0x66,
  0x6c, 0x61, 0x74, 0x74, 0x65, 0x6e, 0x2f, 0x43, 0x6f, 0x6e, 0x73, 0x74,
  0x00, 0x00, 0x00, 0x00, 0x30, 0xfd, 0xff, 0xff, 0x3a, 0xfe, 0xff, 0xff,
  0x04, 0x00, 0x00, 0x00, 0x14, 0x00, 0x00, 0x00, 0xab, 0xb5, 0x32, 0xbe,
  0x30, 0xf8, 0x95, 0xbf, 0xed, 0xb8, 0x2e, 0xc0, 0x47, 0x77, 0x62, 0xc0,
  0x95, 0x2a, 0x2a, 0x40, 0x26, 0xfe, 0xff, 0xff, 0x10, 0x00, 0x00, 0x00,
  0x05, 0x00, 0x00, 0x00, 0x10, 0x00, 0x00, 0x00, 0x44, 0x00, 0x00, 0x00,
  0x01, 0x00, 0x00, 0x00, 0x05, 0x00, 0x00, 0x00, 0x32, 0x00, 0x00, 0x00,
  0x73, 0x65, 0x71, 0x75, 0x65, 0x6e, 0x74, 0x69, 0x61, 0x6c, 0x2f, 0x64,
  0x65, 0x6e, 0x73, 0x65, 0x5f, 0x31, 0x2f, 0x42, 0x69, 0x61, 0x73, 0x41,
  0x64, 0x64, 0x2f, 0x52, 0x65, 0x61, 0x64, 0x56, 0x61, 0x72, 0x69, 0x61,
  0x62, 0x6c, 0x65, 0x4f, 0x70, 0x2f, 0x72, 0x65, 0x73, 0x6f, 0x75, 0x72,
  0x63, 0x65, 0x00, 0x00, 0xa8, 0xfd, 0xff, 0xff, 0xb2, 0xfe, 0xff, 0xff,
  0x04, 0x00, 0x00, 0x00, 0x40, 0x00, 0x00, 0x00, 0xdf, 0x2b, 0xa8, 0x3f,
  0xfc, 0x3c, 0x4e, 0x3e, 0x32, 0x37, 0xbf, 0xbe, 0x62, 0x46, 0xd9, 0xbe,
  0x7b, 0x29, 0xb1, 0xbe, 0xa4, 0x44, 0x1b, 0xbe, 0xa0, 0xf0, 0x9a, 0x3e,
  0xfa, 0xf9, 0xb3, 0xbe, 0xbe, 0x15, 0x06, 0x3d, 0x0d, 0x9b, 0x7e, 0x3f,
  0x21, 0x43, 0x22, 0xbf, 0xa1, 0x32, 0x29, 0xbf, 0x69, 0x6f, 0x4e, 0xbe,
  0x47, 0x5c, 0x9a, 0x3f, 0x58, 0x2d, 0x3b, 0xbf, 0x0c, 0x2a, 0x24, 0x3f,
  0xca, 0xfe, 0xff, 0xff, 0x10, 0x00, 0x00, 0x00, 0x04, 0x00, 0x00, 0x00,
  0x10, 0x00, 0x00, 0x00, 0x44, 0x00, 0x00, 0x00, 0x01, 0x00, 0x00, 0x00,
  0x10, 0x00, 0x00, 0x00, 0x30, 0x00, 0x00, 0x00, 0x73, 0x65, 0x71, 0x75,
  0x65, 0x6e, 0x74, 0x69, 0x61, 0x6c, 0x2f, 0x64, 0x65, 0x6e, 0x73, 0x65,
  0x2f, 0x42, 0x69, 0x61, 0x73, 0x41, 0x64, 0x64, 0x2f, 0x52, 0x65, 0x61,
  0x64, 0x56, 0x61, 0x72, 0x69, 0x61, 0x62, 0x6c, 0x65, 0x4f, 0x70, 0x2f,
  0x72, 0x65, 0x73, 0x6f, 0x75, 0x72, 0x63, 0x65, 0x00, 0x00, 0x00, 0x00,
  0x4c, 0xfe, 0xff, 0xff, 0x56, 0xff, 0xff, 0xff, 0x04, 0x00, 0x00, 0x00,
  0x40, 0x00, 0x00, 0x00, 0x6f, 0x84, 0xcf, 0xbe, 0xee, 0xa9, 0x57, 0xbe,
  0x8e, 0x93, 0x09, 0x3c, 0xf9, 0x2f, 0x20, 0x3f, 0xf4, 0xfd, 0xfc, 0xbd,
  0xdc, 0xcf, 0x04, 0xbf, 0xea, 0x87, 0x20, 0xbf, 0xbf, 0x47, 0xc3, 0xbf,
  0x80, 0x2a, 0x9d, 0xbf, 0x8e, 0x4c, 0x62, 0xbf, 0xab, 0xa7, 0x47, 0xbc,
  0xfd, 0xb8, 0x86, 0x40, 0x31, 0x84, 0x4f, 0xbf, 0xc1, 0xde, 0x1f, 0xbf,
  0xc5, 0x30, 0x3c, 0xbc, 0xe8, 0x7b, 0xc0, 0xbe, 0x6e, 0xff, 0xff, 0xff,
  0x10, 0x00, 0x00, 0x00, 0x03, 0x00, 0x00, 0x00, 0x10, 0x00, 0x00, 0x00,
  0x48, 0x00, 0x00, 0x00, 0x01, 0x00, 0x00, 0x00, 0x10, 0x00, 0x00, 0x00,
  0x33, 0x00, 0x00, 0x00, 0x73, 0x65, 0x71, 0x75, 0x65, 0x6e, 0x74, 0x69,
  0x61, 0x6c, 0x2f, 0x63, 0x6f, 0x6e, 0x76, 0x32, 0x64, 0x5f, 0x31, 0x2f,
  0x42, 0x69, 0x61, 0x73, 0x41, 0x64, 0x64, 0x2f, 0x52, 0x65, 0x61, 0x64,
  0x56, 0x61, 0x72, 0x69, 0x61, 0x62, 0x6c, 0x65, 0x4f, 0x70, 0x2f, 0x72,
  0x65, 0x73, 0x6f, 0x75, 0x72, 0x63, 0x65, 0x00, 0x04, 0x00, 0x06, 0x00,
  0x04, 0x00, 0x00, 0x00, 0x00, 0x00, 0x06, 0x00, 0x08, 0x00, 0x04, 0x00,
  0x06, 0x00, 0x00, 0x00, 0x04, 0x00, 0x00, 0x00, 0x20, 0x00, 0x00, 0x00,
  0x8e, 0x0d, 0xf3, 0xbc, 0xec, 0x59, 0xee, 0xbf, 0xa7, 0xfc, 0x06, 0xc0,
  0x1b, 0xf6, 0xdd, 0xbf, 0x19, 0x71, 0xac, 0xbf, 0x5e, 0xda, 0x95, 0xbf,
  0xde, 0xd7, 0xf8, 0xbf, 0xd2, 0x76, 0x51, 0xbf, 0x00, 0x00, 0x0e, 0x00,
  0x14, 0x00, 0x04, 0x00, 0x00, 0x00, 0x08, 0x00, 0x0c, 0x00, 0x10, 0x00,
  0x0e, 0x00, 0x00, 0x00, 0x10, 0x00, 0x00, 0x00, 0x02, 0x00, 0x00, 0x00,
  0x10, 0x00, 0x00, 0x00, 0x44, 0x00, 0x00, 0x00, 0x01, 0x00, 0x00, 0x00,
  0x08, 0x00, 0x00, 0x00, 0x31, 0x00, 0x00, 0x00, 0x73, 0x65, 0x71, 0x75,
  0x65, 0x6e, 0x74, 0x69, 0x61, 0x6c, 0x2f, 0x63, 0x6f, 0x6e, 0x76, 0x32,
  0x64, 0x2f, 0x42, 0x69, 0x61, 0x73, 0x41, 0x64, 0x64, 0x2f, 0x52, 0x65,
  0x61, 0x64, 0x56, 0x61, 0x72, 0x69, 0x61, 0x62, 0x6c, 0x65, 0x4f, 0x70,
  0x2f, 0x72, 0x65, 0x73, 0x6f, 0x75, 0x72, 0x63, 0x65, 0x00, 0x00, 0x00,
  0x90, 0xff, 0xff, 0xff, 0x14, 0x00, 0x18, 0x00, 0x04, 0x00, 0x00, 0x00,
  0x08, 0x00, 0x0c, 0x00, 0x10, 0x00, 0x00, 0x00, 0x00, 0x00, 0x14, 0x00,
  0x14, 0x00, 0x00, 0x00, 0x14, 0x00, 0x00, 0x00, 0x01, 0x00, 0x00, 0x00,
  0x20, 0x00, 0x00, 0x00, 0x44, 0x00, 0x00, 0x00, 0x2c, 0x00, 0x00, 0x00,
  0x04, 0x00, 0x00, 0x00, 0x01, 0x00, 0x00, 0x00, 0x40, 0x00, 0x00, 0x00,
  0x03, 0x00, 0x00, 0x00, 0x01, 0x00, 0x00, 0x00, 0x0c, 0x00, 0x00, 0x00,
  0x63, 0x6f, 0x6e, 0x76, 0x32, 0x64, 0x5f, 0x69, 0x6e, 0x70, 0x75, 0x74,
  0x00, 0x00, 0x00, 0x00, 0x04, 0x00, 0x00, 0x00, 0xff, 0xff, 0xff, 0xff,
  0x40, 0x00, 0x00, 0x00, 0x03, 0x00, 0x00, 0x00, 0x01, 0x00, 0x00, 0x00,
  0xfc, 0xff, 0xff, 0xff, 0x04, 0x00, 0x04, 0x00, 0x04, 0x00, 0x00, 0x00
};
unsigned int _content_mbed08_model_model_tflite_len = 13188;

